{
  "version": "1.0",
  "truncation": null,
  "padding": null,
  "added_tokens": [
    {
      "id": 0,
      "special": true,
      "content": "[PAD]",
      "single_word": false,
      "lstrip": false,
      "rstrip": false,
      "normalized": false
    },
    {
      "id": 1,
      "special": true,
      "content": "[UNK]",
      "single_word": false,
      "lstrip": false,
      "rstrip": false,
      "normalized": false
    },
    {
      "id": 2,
      "special": true,
      "content": "[CLS]",
      "single_word": false,
      "lstrip": false,
      "rstrip": false,
      "normalized": false
    },
    {
      "id": 3,
      "special": true,
      "content": "[SEP]",
      "single_word": false,
      "lstrip": false,
      "rstrip": false,
      "normalized": false
    },
    {
      "id": 4,
      "special": true,
      "content": "[MASK]",
      "single_word": false,
      "lstrip": false,
      "rstrip": false,
      "normalized": false
    },
    {
      "id": 32000,
      "special": true,
      "content": "[BOS]",
      "single_word": false,
      "lstrip": false,
      "rstrip": false,
      "normalized": false
    },
    {
      "id": 32001,
      "special": true,
      "content": "[EOS]",
      "single_word": false,
      "lstrip": false,
      "rstrip": false,
      "normalized": false
    },
    {
      "id": 32002,
      "special": true,
      "content": "[UNK0]",
      "single_word": false,
      "lstrip": false,
      "rstrip": false,
      "normalized": false
    },
    {
      "id": 32003,
      "special": true,
      "content": "[UNK1]",
      "single_word": false,
      "lstrip": false,
      "rstrip": false,
      "normalized": false
    },
    {
      "id": 32004,
      "special": true,
      "content": "[UNK2]",
      "single_word": false,
      "lstrip": false,
      "rstrip": false,
      "normalized": false
    },
    {
      "id": 32005,
      "special": true,
      "content": "[UNK3]",
      "single_word": false,
      "lstrip": false,
      "rstrip": false,
      "normalized": false
    },
    {
      "id": 32006,
      "special": true,
      "content": "[UNK4]",
      "single_word": false,
      "lstrip": false,
      "rstrip": false,
      "normalized": false
    },
    {
      "id": 32007,
      "special": true,
      "content": "[UNK5]",
      "single_word": false,
      "lstrip": false,
      "rstrip": false,
      "normalized": false
    },
    {
      "id": 32008,
      "special": true,
      "content": "[UNK6]",
      "single_word": false,
      "lstrip": false,
      "rstrip": false,
      "normalized": false
    },
    {
      "id": 32009,
      "special": true,
      "content": "[UNK7]",
      "single_word": false,
      "lstrip": false,
      "rstrip": false,
      "normalized": false
    },
    {
      "id": 32010,
      "special": true,
      "content": "[UNK8]",
      "single_word": false,
      "lstrip": false,
      "rstrip": false,
      "normalized": false
    },
    {
      "id": 32011,
      "special": true,
      "content": "[UNK9]",
      "single_word": false,
      "lstrip": false,
      "rstrip": false,
      "normalized": false
    },
    {
      "id": 32012,
      "special": true,
      "content": "[unused0]",
      "single_word": false,
      "lstrip": false,
      "rstrip": false,
      "normalized": false
    },
    {
      "id": 32013,
      "special": true,
      "content": "[unused1]",
      "single_word": false,
      "lstrip": false,
      "rstrip": false,
      "normalized": false
    },
    {
      "id": 32014,
      "special": true,
      "content": "[unused2]",
      "single_word": false,
      "lstrip": false,
      "rstrip": false,
      "normalized": false
    },
    {
      "id": 32015,
      "special": true,
      "content": "[unused3]",
      "single_word": false,
      "lstrip": false,
      "rstrip": false,
      "normalized": false
    },
    {
      "id": 32016,
      "special": true,
      "content": "[unused4]",
      "single_word": false,
      "lstrip": false,
      "rstrip": false,
      "normalized": false
    },
    {
      "id": 32017,
      "special": true,
      "content": "[unused5]",
      "single_word": false,
      "lstrip": false,
      "rstrip": false,
      "normalized": false
    },
    {
      "id": 32018,
      "special": true,
      "content": "[unused6]",
      "single_word": false,
      "lstrip": false,
      "rstrip": false,
      "normalized": false
    },
    {
      "id": 32019,
      "special": true,
      "content": "[unused7]",
      "single_word": false,
      "lstrip": false,
      "rstrip": false,
      "normalized": false
    },
    {
      "id": 32020,
      "special": true,
      "content": "[unused8]",
      "single_word": false,
      "lstrip": false,
      "rstrip": false,
      "normalized": false
    },
    {
      "id": 32021,
      "special": true,
      "content": "[unused9]",
      "single_word": false,
      "lstrip": false,
      "rstrip": false,
      "normalized": false
    },
    {
      "id": 32022,
      "special": true,
      "content": "[unused10]",
      "single_word": false,
      "lstrip": false,
      "rstrip": false,
      "normalized": false
    },
    {
      "id": 32023,
      "special": true,
      "content": "[unused11]",
      "single_word": false,
      "lstrip": false,
      "rstrip": false,
      "normalized": false
    },
    {
      "id": 32024,
      "special": true,
      "content": "[unused12]",
      "single_word": false,
      "lstrip": false,
      "rstrip": false,
      "normalized": false
    },
    {
      "id": 32025,
      "special": true,
      "content": "[unused13]",
      "single_word": false,
      "lstrip": false,
      "rstrip": false,
      "normalized": false
    },
    {
      "id": 32026,
      "special": true,
      "content": "[unused14]",
      "single_word": false,
      "lstrip": false,
      "rstrip": false,
      "normalized": false
    },
    {
      "id": 32027,
      "special": true,
      "content": "[unused15]",
      "single_word": false,
      "lstrip": false,
      "rstrip": false,
      "normalized": false
    },
    {
      "id": 32028,
      "special": true,
      "content": "[unused16]",
      "single_word": false,
      "lstrip": false,
      "rstrip": false,
      "normalized": false
    },
    {
      "id": 32029,
      "special": true,
      "content": "[unused17]",
      "single_word": false,
      "lstrip": false,
      "rstrip": false,
      "normalized": false
    },
    {
      "id": 32030,
      "special": true,
      "content": "[unused18]",
      "single_word": false,
      "lstrip": false,
      "rstrip": false,
      "normalized": false
    },
    {
      "id": 32031,
      "special": true,
      "content": "[unused19]",
      "single_word": false,
      "lstrip": false,
      "rstrip": false,
      "normalized": false
    },
    {
      "id": 32032,
      "special": true,
      "content": "[unused20]",
      "single_word": false,
      "lstrip": false,
      "rstrip": false,
      "normalized": false
    },
    {
      "id": 32033,
      "special": true,
      "content": "[unused21]",
      "single_word": false,
      "lstrip": false,
      "rstrip": false,
      "normalized": false
    },
    {
      "id": 32034,
      "special": true,
      "content": "[unused22]",
      "single_word": false,
      "lstrip": false,
      "rstrip": false,
      "normalized": false
    },
    {
      "id": 32035,
      "special": true,
      "content": "[unused23]",
      "single_word": false,
      "lstrip": false,
      "rstrip": false,
      "normalized": false
    },
    {
      "id": 32036,
      "special": true,
      "content": "[unused24]",
      "single_word": false,
      "lstrip": false,
      "rstrip": false,
      "normalized": false
    },
    {
      "id": 32037,
      "special": true,
      "content": "[unused25]",
      "single_word": false,
      "lstrip": false,
      "rstrip": false,
      "normalized": false
    },
    {
      "id": 32038,
      "special": true,
      "content": "[unused26]",
      "single_word": false,
      "lstrip": false,
      "rstrip": false,
      "normalized": false
    },
    {
      "id": 32039,
      "special": true,
      "content": "[unused27]",
      "single_word": false,
      "lstrip": false,
      "rstrip": false,
      "normalized": false
    },
    {
      "id": 32040,
      "special": true,
      "content": "[unused28]",
      "single_word": false,
      "lstrip": false,
      "rstrip": false,
      "normalized": false
    },
    {
      "id": 32041,
      "special": true,
      "content": "[unused29]",
      "single_word": false,
      "lstrip": false,
      "rstrip": false,
      "normalized": false
    },
    {
      "id": 32042,
      "special": true,
      "content": "[unused30]",
      "single_word": false,
      "lstrip": false,
      "rstrip": false,
      "normalized": false
    },
    {
      "id": 32043,
      "special": true,
      "content": "[unused31]",
      "single_word": false,
      "lstrip": false,
      "rstrip": false,
      "normalized": false
    },
    {
      "id": 32044,
      "special": true,
      "content": "[unused32]",
      "single_word": false,
      "lstrip": false,
      "rstrip": false,
      "normalized": false
    },
    {
      "id": 32045,
      "special": true,
      "content": "[unused33]",
      "single_word": false,
      "lstrip": false,
      "rstrip": false,
      "normalized": false
    },
    {
      "id": 32046,
      "special": true,
      "content": "[unused34]",
      "single_word": false,
      "lstrip": false,
      "rstrip": false,
      "normalized": false
    },
    {
      "id": 32047,
      "special": true,
      "content": "[unused35]",
      "single_word": false,
      "lstrip": false,
      "rstrip": false,
      "normalized": false
    },
    {
      "id": 32048,
      "special": true,
      "content": "[unused36]",
      "single_word": false,
      "lstrip": false,
      "rstrip": false,
      "normalized": false
    },
    {
      "id": 32049,
      "special": true,
      "content": "[unused37]",
      "single_word": false,
      "lstrip": false,
      "rstrip": false,
      "normalized": false
    },
    {
      "id": 32050,
      "special": true,
      "content": "[unused38]",
      "single_word": false,
      "lstrip": false,
      "rstrip": false,
      "normalized": false
    },
    {
      "id": 32051,
      "special": true,
      "content": "[unused39]",
      "single_word": false,
      "lstrip": false,
      "rstrip": false,
      "normalized": false
    },
    {
      "id": 32052,
      "special": true,
      "content": "[unused40]",
      "single_word": false,
      "lstrip": false,
      "rstrip": false,
      "normalized": false
    },
    {
      "id": 32053,
      "special": true,
      "content": "[unused41]",
      "single_word": false,
      "lstrip": false,
      "rstrip": false,
      "normalized": false
    },
    {
      "id": 32054,
      "special": true,
      "content": "[unused42]",
      "single_word": false,
      "lstrip": false,
      "rstrip": false,
      "normalized": false
    },
    {
      "id": 32055,
      "special": true,
      "content": "[unused43]",
      "single_word": false,
      "lstrip": false,
      "rstrip": false,
      "normalized": false
    },
    {
      "id": 32056,
      "special": true,
      "content": "[unused44]",
      "single_word": false,
      "lstrip": false,
      "rstrip": false,
      "normalized": false
    },
    {
      "id": 32057,
      "special": true,
      "content": "[unused45]",
      "single_word": false,
      "lstrip": false,
      "rstrip": false,
      "normalized": false
    },
    {
      "id": 32058,
      "special": true,
      "content": "[unused46]",
      "single_word": false,
      "lstrip": false,
      "rstrip": false,
      "normalized": false
    },
    {
      "id": 32059,
      "special": true,
      "content": "[unused47]",
      "single_word": false,
      "lstrip": false,
      "rstrip": false,
      "normalized": false
    },
    {
      "id": 32060,
      "special": true,
      "content": "[unused48]",
      "single_word": false,
      "lstrip": false,
      "rstrip": false,
      "normalized": false
    },
    {
      "id": 32061,
      "special": true,
      "content": "[unused49]",
      "single_word": false,
      "lstrip": false,
      "rstrip": false,
      "normalized": false
    },
    {
      "id": 32062,
      "special": true,
      "content": "[unused50]",
      "single_word": false,
      "lstrip": false,
      "rstrip": false,
      "normalized": false
    },
    {
      "id": 32063,
      "special": true,
      "content": "[unused51]",
      "single_word": false,
      "lstrip": false,
      "rstrip": false,
      "normalized": false
    },
    {
      "id": 32064,
      "special": true,
      "content": "[unused52]",
      "single_word": false,
      "lstrip": false,
      "rstrip": false,
      "normalized": false
    },
    {
      "id": 32065,
      "special": true,
      "content": "[unused53]",
      "single_word": false,
      "lstrip": false,
      "rstrip": false,
      "normalized": false
    },
    {
      "id": 32066,
      "special": true,
      "content": "[unused54]",
      "single_word": false,
      "lstrip": false,
      "rstrip": false,
      "normalized": false
    },
    {
      "id": 32067,
      "special": true,
      "content": "[unused55]",
      "single_word": false,
      "lstrip": false,
      "rstrip": false,
      "normalized": false
    },
    {
      "id": 32068,
      "special": true,
      "content": "[unused56]",
      "single_word": false,
      "lstrip": false,
      "rstrip": false,
      "normalized": false
    },
    {
      "id": 32069,
      "special": true,
      "content": "[unused57]",
      "single_word": false,
      "lstrip": false,
      "rstrip": false,
      "normalized": false
    },
    {
      "id": 32070,
      "special": true,
      "content": "[unused58]",
      "single_word": false,
      "lstrip": false,
      "rstrip": false,
      "normalized": false
    },
    {
      "id": 32071,
      "special": true,
      "content": "[unused59]",
      "single_word": false,
      "lstrip": false,
      "rstrip": false,
      "normalized": false
    },
    {
      "id": 32072,
      "special": true,
      "content": "[unused60]",
      "single_word": false,
      "lstrip": false,
      "rstrip": false,
      "normalized": false
    },
    {
      "id": 32073,
      "special": true,
      "content": "[unused61]",
      "single_word": false,
      "lstrip": false,
      "rstrip": false,
      "normalized": false
    },
    {
      "id": 32074,
      "special": true,
      "content": "[unused62]",
      "single_word": false,
      "lstrip": false,
      "rstrip": false,
      "normalized": false
    },
    {
      "id": 32075,
      "special": true,
      "content": "[unused63]",
      "single_word": false,
      "lstrip": false,
      "rstrip": false,
      "normalized": false
    },
    {
      "id": 32076,
      "special": true,
      "content": "[unused64]",
      "single_word": false,
      "lstrip": false,
      "rstrip": false,
      "normalized": false
    },
    {
      "id": 32077,
      "special": true,
      "content": "[unused65]",
      "single_word": false,
      "lstrip": false,
      "rstrip": false,
      "normalized": false
    },
    {
      "id": 32078,
      "special": true,
      "content": "[unused66]",
      "single_word": false,
      "lstrip": false,
      "rstrip": false,
      "normalized": false
    },
    {
      "id": 32079,
      "special": true,
      "content": "[unused67]",
      "single_word": false,
      "lstrip": false,
      "rstrip": false,
      "normalized": false
    },
    {
      "id": 32080,
      "special": true,
      "content": "[unused68]",
      "single_word": false,
      "lstrip": false,
      "rstrip": false,
      "normalized": false
    },
    {
      "id": 32081,
      "special": true,
      "content": "[unused69]",
      "single_word": false,
      "lstrip": false,
      "rstrip": false,
      "normalized": false
    },
    {
      "id": 32082,
      "special": true,
      "content": "[unused70]",
      "single_word": false,
      "lstrip": false,
      "rstrip": false,
      "normalized": false
    },
    {
      "id": 32083,
      "special": true,
      "content": "[unused71]",
      "single_word": false,
      "lstrip": false,
      "rstrip": false,
      "normalized": false
    },
    {
      "id": 32084,
      "special": true,
      "content": "[unused72]",
      "single_word": false,
      "lstrip": false,
      "rstrip": false,
      "normalized": false
    },
    {
      "id": 32085,
      "special": true,
      "content": "[unused73]",
      "single_word": false,
      "lstrip": false,
      "rstrip": false,
      "normalized": false
    },
    {
      "id": 32086,
      "special": true,
      "content": "[unused74]",
      "single_word": false,
      "lstrip": false,
      "rstrip": false,
      "normalized": false
    },
    {
      "id": 32087,
      "special": true,
      "content": "[unused75]",
      "single_word": false,
      "lstrip": false,
      "rstrip": false,
      "normalized": false
    },
    {
      "id": 32088,
      "special": true,
      "content": "[unused76]",
      "single_word": false,
      "lstrip": false,
      "rstrip": false,
      "normalized": false
    },
    {
      "id": 32089,
      "special": true,
      "content": "[unused77]",
      "single_word": false,
      "lstrip": false,
      "rstrip": false,
      "normalized": false
    },
    {
      "id": 32090,
      "special": true,
      "content": "[unused78]",
      "single_word": false,
      "lstrip": false,
      "rstrip": false,
      "normalized": false
    },
    {
      "id": 32091,
      "special": true,
      "content": "[unused79]",
      "single_word": false,
      "lstrip": false,
      "rstrip": false,
      "normalized": false
    },
    {
      "id": 32092,
      "special": true,
      "content": "[unused80]",
      "single_word": false,
      "lstrip": false,
      "rstrip": false,
      "normalized": false
    },
    {
      "id": 32093,
      "special": true,
      "content": "[unused81]",
      "single_word": false,
      "lstrip": false,
      "rstrip": false,
      "normalized": false
    },
    {
      "id": 32094,
      "special": true,
      "content": "[unused82]",
      "single_word": false,
      "lstrip": false,
      "rstrip": false,
      "normalized": false
    },
    {
      "id": 32095,
      "special": true,
      "content": "[unused83]",
      "single_word": false,
      "lstrip": false,
      "rstrip": false,
      "normalized": false
    },
    {
      "id": 32096,
      "special": true,
      "content": "[unused84]",
      "single_word": false,
      "lstrip": false,
      "rstrip": false,
      "normalized": false
    },
    {
      "id": 32097,
      "special": true,
      "content": "[unused85]",
      "single_word": false,
      "lstrip": false,
      "rstrip": false,
      "normalized": false
    },
    {
      "id": 32098,
      "special": true,
      "content": "[unused86]",
      "single_word": false,
      "lstrip": false,
      "rstrip": false,
      "normalized": false
    },
    {
      "id": 32099,
      "special": true,
      "content": "[unused87]",
      "single_word": false,
      "lstrip": false,
      "rstrip": false,
      "normalized": false
    },
    {
      "id": 32100,
      "special": true,
      "content": "[unused88]",
      "single_word": false,
      "lstrip": false,
      "rstrip": false,
      "normalized": false
    },
    {
      "id": 32101,
      "special": true,
      "content": "[unused89]",
      "single_word": false,
      "lstrip": false,
      "rstrip": false,
      "normalized": false
    },
    {
      "id": 32102,
      "special": true,
      "content": "[unused90]",
      "single_word": false,
      "lstrip": false,
      "rstrip": false,
      "normalized": false
    },
    {
      "id": 32103,
      "special": true,
      "content": "[unused91]",
      "single_word": false,
      "lstrip": false,
      "rstrip": false,
      "normalized": false
    },
    {
      "id": 32104,
      "special": true,
      "content": "[unused92]",
      "single_word": false,
      "lstrip": false,
      "rstrip": false,
      "normalized": false
    },
    {
      "id": 32105,
      "special": true,
      "content": "[unused93]",
      "single_word": false,
      "lstrip": false,
      "rstrip": false,
      "normalized": false
    },
    {
      "id": 32106,
      "special": true,
      "content": "[unused94]",
      "single_word": false,
      "lstrip": false,
      "rstrip": false,
      "normalized": false
    },
    {
      "id": 32107,
      "special": true,
      "content": "[unused95]",
      "single_word": false,
      "lstrip": false,
      "rstrip": false,
      "normalized": false
    },
    {
      "id": 32108,
      "special": true,
      "content": "[unused96]",
      "single_word": false,
      "lstrip": false,
      "rstrip": false,
      "normalized": false
    },
    {
      "id": 32109,
      "special": true,
      "content": "[unused97]",
      "single_word": false,
      "lstrip": false,
      "rstrip": false,
      "normalized": false
    },
    {
      "id": 32110,
      "special": true,
      "content": "[unused98]",
      "single_word": false,
      "lstrip": false,
      "rstrip": false,
      "normalized": false
    },
    {
      "id": 32111,
      "special": true,
      "content": "[unused99]",
      "single_word": false,
      "lstrip": false,
      "rstrip": false,
      "normalized": false
    },
    {
      "id": 32112,
      "special": true,
      "content": "[unused100]",
      "single_word": false,
      "lstrip": false,
      "rstrip": false,
      "normalized": false
    },
    {
      "id": 32113,
      "special": true,
      "content": "[unused101]",
      "single_word": false,
      "lstrip": false,
      "rstrip": false,
      "normalized": false
    },
    {
      "id": 32114,
      "special": true,
      "content": "[unused102]",
      "single_word": false,
      "lstrip": false,
      "rstrip": false,
      "normalized": false
    },
    {
      "id": 32115,
      "special": true,
      "content": "[unused103]",
      "single_word": false,
      "lstrip": false,
      "rstrip": false,
      "normalized": false
    },
    {
      "id": 32116,
      "special": true,
      "content": "[unused104]",
      "single_word": false,
      "lstrip": false,
      "rstrip": false,
      "normalized": false
    },
    {
      "id": 32117,
      "special": true,
      "content": "[unused105]",
      "single_word": false,
      "lstrip": false,
      "rstrip": false,
      "normalized": false
    },
    {
      "id": 32118,
      "special": true,
      "content": "[unused106]",
      "single_word": false,
      "lstrip": false,
      "rstrip": false,
      "normalized": false
    },
    {
      "id": 32119,
      "special": true,
      "content": "[unused107]",
      "single_word": false,
      "lstrip": false,
      "rstrip": false,
      "normalized": false
    },
    {
      "id": 32120,
      "special": true,
      "content": "[unused108]",
      "single_word": false,
      "lstrip": false,
      "rstrip": false,
      "normalized": false
    },
    {
      "id": 32121,
      "special": true,
      "content": "[unused109]",
      "single_word": false,
      "lstrip": false,
      "rstrip": false,
      "normalized": false
    },
    {
      "id": 32122,
      "special": true,
      "content": "[unused110]",
      "single_word": false,
      "lstrip": false,
      "rstrip": false,
      "normalized": false
    },
    {
      "id": 32123,
      "special": true,
      "content": "[unused111]",
      "single_word": false,
      "lstrip": false,
      "rstrip": false,
      "normalized": false
    },
    {
      "id": 32124,
      "special": true,
      "content": "[unused112]",
      "single_word": false,
      "lstrip": false,
      "rstrip": false,
      "normalized": false
    },
    {
      "id": 32125,
      "special": true,
      "content": "[unused113]",
      "single_word": false,
      "lstrip": false,
      "rstrip": false,
      "normalized": false
    },
    {
      "id": 32126,
      "special": true,
      "content": "[unused114]",
      "single_word": false,
      "lstrip": false,
      "rstrip": false,
      "normalized": false
    },
    {
      "id": 32127,
      "special": true,
      "content": "[unused115]",
      "single_word": false,
      "lstrip": false,
      "rstrip": false,
      "normalized": false
    },
    {
      "id": 32128,
      "special": true,
      "content": "[unused116]",
      "single_word": false,
      "lstrip": false,
      "rstrip": false,
      "normalized": false
    },
    {
      "id": 32129,
      "special": true,
      "content": "[unused117]",
      "single_word": false,
      "lstrip": false,
      "rstrip": false,
      "normalized": false
    },
    {
      "id": 32130,
      "special": true,
      "content": "[unused118]",
      "single_word": false,
      "lstrip": false,
      "rstrip": false,
      "normalized": false
    },
    {
      "id": 32131,
      "special": true,
      "content": "[unused119]",
      "single_word": false,
      "lstrip": false,
      "rstrip": false,
      "normalized": false
    },
    {
      "id": 32132,
      "special": true,
      "content": "[unused120]",
      "single_word": false,
      "lstrip": false,
      "rstrip": false,
      "normalized": false
    },
    {
      "id": 32133,
      "special": true,
      "content": "[unused121]",
      "single_word": false,
      "lstrip": false,
      "rstrip": false,
      "normalized": false
    },
    {
      "id": 32134,
      "special": true,
      "content": "[unused122]",
      "single_word": false,
      "lstrip": false,
      "rstrip": false,
      "normalized": false
    },
    {
      "id": 32135,
      "special": true,
      "content": "[unused123]",
      "single_word": false,
      "lstrip": false,
      "rstrip": false,
      "normalized": false
    },
    {
      "id": 32136,
      "special": true,
      "content": "[unused124]",
      "single_word": false,
      "lstrip": false,
      "rstrip": false,
      "normalized": false
    },
    {
      "id": 32137,
      "special": true,
      "content": "[unused125]",
      "single_word": false,
      "lstrip": false,
      "rstrip": false,
      "normalized": false
    },
    {
      "id": 32138,
      "special": true,
      "content": "[unused126]",
      "single_word": false,
      "lstrip": false,
      "rstrip": false,
      "normalized": false
    },
    {
      "id": 32139,
      "special": true,
      "content": "[unused127]",
      "single_word": false,
      "lstrip": false,
      "rstrip": false,
      "normalized": false
    },
    {
      "id": 32140,
      "special": true,
      "content": "[unused128]",
      "single_word": false,
      "lstrip": false,
      "rstrip": false,
      "normalized": false
    },
    {
      "id": 32141,
      "special": true,
      "content": "[unused129]",
      "single_word": false,
      "lstrip": false,
      "rstrip": false,
      "normalized": false
    },
    {
      "id": 32142,
      "special": true,
      "content": "[unused130]",
      "single_word": false,
      "lstrip": false,
      "rstrip": false,
      "normalized": false
    },
    {
      "id": 32143,
      "special": true,
      "content": "[unused131]",
      "single_word": false,
      "lstrip": false,
      "rstrip": false,
      "normalized": false
    },
    {
      "id": 32144,
      "special": true,
      "content": "[unused132]",
      "single_word": false,
      "lstrip": false,
      "rstrip": false,
      "normalized": false
    },
    {
      "id": 32145,
      "special": true,
      "content": "[unused133]",
      "single_word": false,
      "lstrip": false,
      "rstrip": false,
      "normalized": false
    },
    {
      "id": 32146,
      "special": true,
      "content": "[unused134]",
      "single_word": false,
      "lstrip": false,
      "rstrip": false,
      "normalized": false
    },
    {
      "id": 32147,
      "special": true,
      "content": "[unused135]",
      "single_word": false,
      "lstrip": false,
      "rstrip": false,
      "normalized": false
    },
    {
      "id": 32148,
      "special": true,
      "content": "[unused136]",
      "single_word": false,
      "lstrip": false,
      "rstrip": false,
      "normalized": false
    },
    {
      "id": 32149,
      "special": true,
      "content": "[unused137]",
      "single_word": false,
      "lstrip": false,
      "rstrip": false,
      "normalized": false
    },
    {
      "id": 32150,
      "special": true,
      "content": "[unused138]",
      "single_word": false,
      "lstrip": false,
      "rstrip": false,
      "normalized": false
    },
    {
      "id": 32151,
      "special": true,
      "content": "[unused139]",
      "single_word": false,
      "lstrip": false,
      "rstrip": false,
      "normalized": false
    },
    {
      "id": 32152,
      "special": true,
      "content": "[unused140]",
      "single_word": false,
      "lstrip": false,
      "rstrip": false,
      "normalized": false
    },
    {
      "id": 32153,
      "special": true,
      "content": "[unused141]",
      "single_word": false,
      "lstrip": false,
      "rstrip": false,
      "normalized": false
    },
    {
      "id": 32154,
      "special": true,
      "content": "[unused142]",
      "single_word": false,
      "lstrip": false,
      "rstrip": false,
      "normalized": false
    },
    {
      "id": 32155,
      "special": true,
      "content": "[unused143]",
      "single_word": false,
      "lstrip": false,
      "rstrip": false,
      "normalized": false
    },
    {
      "id": 32156,
      "special": true,
      "content": "[unused144]",
      "single_word": false,
      "lstrip": false,
      "rstrip": false,
      "normalized": false
    },
    {
      "id": 32157,
      "special": true,
      "content": "[unused145]",
      "single_word": false,
      "lstrip": false,
      "rstrip": false,
      "normalized": false
    },
    {
      "id": 32158,
      "special": true,
      "content": "[unused146]",
      "single_word": false,
      "lstrip": false,
      "rstrip": false,
      "normalized": false
    },
    {
      "id": 32159,
      "special": true,
      "content": "[unused147]",
      "single_word": false,
      "lstrip": false,
      "rstrip": false,
      "normalized": false
    },
    {
      "id": 32160,
      "special": true,
      "content": "[unused148]",
      "single_word": false,
      "lstrip": false,
      "rstrip": false,
      "normalized": false
    },
    {
      "id": 32161,
      "special": true,
      "content": "[unused149]",
      "single_word": false,
      "lstrip": false,
      "rstrip": false,
      "normalized": false
    },
    {
      "id": 32162,
      "special": true,
      "content": "[unused150]",
      "single_word": false,
      "lstrip": false,
      "rstrip": false,
      "normalized": false
    },
    {
      "id": 32163,
      "special": true,
      "content": "[unused151]",
      "single_word": false,
      "lstrip": false,
      "rstrip": false,
      "normalized": false
    },
    {
      "id": 32164,
      "special": true,
      "content": "[unused152]",
      "single_word": false,
      "lstrip": false,
      "rstrip": false,
      "normalized": false
    },
    {
      "id": 32165,
      "special": true,
      "content": "[unused153]",
      "single_word": false,
      "lstrip": false,
      "rstrip": false,
      "normalized": false
    },
    {
      "id": 32166,
      "special": true,
      "content": "[unused154]",
      "single_word": false,
      "lstrip": false,
      "rstrip": false,
      "normalized": false
    },
    {
      "id": 32167,
      "special": true,
      "content": "[unused155]",
      "single_word": false,
      "lstrip": false,
      "rstrip": false,
      "normalized": false
    },
    {
      "id": 32168,
      "special": true,
      "content": "[unused156]",
      "single_word": false,
      "lstrip": false,
      "rstrip": false,
      "normalized": false
    },
    {
      "id": 32169,
      "special": true,
      "content": "[unused157]",
      "single_word": false,
      "lstrip": false,
      "rstrip": false,
      "normalized": false
    },
    {
      "id": 32170,
      "special": true,
      "content": "[unused158]",
      "single_word": false,
      "lstrip": false,
      "rstrip": false,
      "normalized": false
    },
    {
      "id": 32171,
      "special": true,
      "content": "[unused159]",
      "single_word": false,
      "lstrip": false,
      "rstrip": false,
      "normalized": false
    },
    {
      "id": 32172,
      "special": true,
      "content": "[unused160]",
      "single_word": false,
      "lstrip": false,
      "rstrip": false,
      "normalized": false
    },
    {
      "id": 32173,
      "special": true,
      "content": "[unused161]",
      "single_word": false,
      "lstrip": false,
      "rstrip": false,
      "normalized": false
    },
    {
      "id": 32174,
      "special": true,
      "content": "[unused162]",
      "single_word": false,
      "lstrip": false,
      "rstrip": false,
      "normalized": false
    },
    {
      "id": 32175,
      "special": true,
      "content": "[unused163]",
      "single_word": false,
      "lstrip": false,
      "rstrip": false,
      "normalized": false
    },
    {
      "id": 32176,
      "special": true,
      "content": "[unused164]",
      "single_word": false,
      "lstrip": false,
      "rstrip": false,
      "normalized": false
    },
    {
      "id": 32177,
      "special": true,
      "content": "[unused165]",
      "single_word": false,
      "lstrip": false,
      "rstrip": false,
      "normalized": false
    },
    {
      "id": 32178,
      "special": true,
      "content": "[unused166]",
      "single_word": false,
      "lstrip": false,
      "rstrip": false,
      "normalized": false
    },
    {
      "id": 32179,
      "special": true,
      "content": "[unused167]",
      "single_word": false,
      "lstrip": false,
      "rstrip": false,
      "normalized": false
    },
    {
      "id": 32180,
      "special": true,
      "content": "[unused168]",
      "single_word": false,
      "lstrip": false,
      "rstrip": false,
      "normalized": false
    },
    {
      "id": 32181,
      "special": true,
      "content": "[unused169]",
      "single_word": false,
      "lstrip": false,
      "rstrip": false,
      "normalized": false
    },
    {
      "id": 32182,
      "special": true,
      "content": "[unused170]",
      "single_word": false,
      "lstrip": false,
      "rstrip": false,
      "normalized": false
    },
    {
      "id": 32183,
      "special": true,
      "content": "[unused171]",
      "single_word": false,
      "lstrip": false,
      "rstrip": false,
      "normalized": false
    },
    {
      "id": 32184,
      "special": true,
      "content": "[unused172]",
      "single_word": false,
      "lstrip": false,
      "rstrip": false,
      "normalized": false
    },
    {
      "id": 32185,
      "special": true,
      "content": "[unused173]",
      "single_word": false,
      "lstrip": false,
      "rstrip": false,
      "normalized": false
    },
    {
      "id": 32186,
      "special": true,
      "content": "[unused174]",
      "single_word": false,
      "lstrip": false,
      "rstrip": false,
      "normalized": false
    },
    {
      "id": 32187,
      "special": true,
      "content": "[unused175]",
      "single_word": false,
      "lstrip": false,
      "rstrip": false,
      "normalized": false
    },
    {
      "id": 32188,
      "special": true,
      "content": "[unused176]",
      "single_word": false,
      "lstrip": false,
      "rstrip": false,
      "normalized": false
    },
    {
      "id": 32189,
      "special": true,
      "content": "[unused177]",
      "single_word": false,
      "lstrip": false,
      "rstrip": false,
      "normalized": false
    },
    {
      "id": 32190,
      "special": true,
      "content": "[unused178]",
      "single_word": false,
      "lstrip": false,
      "rstrip": false,
      "normalized": false
    },
    {
      "id": 32191,
      "special": true,
      "content": "[unused179]",
      "single_word": false,
      "lstrip": false,
      "rstrip": false,
      "normalized": false
    },
    {
      "id": 32192,
      "special": true,
      "content": "[unused180]",
      "single_word": false,
      "lstrip": false,
      "rstrip": false,
      "normalized": false
    },
    {
      "id": 32193,
      "special": true,
      "content": "[unused181]",
      "single_word": false,
      "lstrip": false,
      "rstrip": false,
      "normalized": false
    },
    {
      "id": 32194,
      "special": true,
      "content": "[unused182]",
      "single_word": false,
      "lstrip": false,
      "rstrip": false,
      "normalized": false
    },
    {
      "id": 32195,
      "special": true,
      "content": "[unused183]",
      "single_word": false,
      "lstrip": false,
      "rstrip": false,
      "normalized": false
    },
    {
      "id": 32196,
      "special": true,
      "content": "[unused184]",
      "single_word": false,
      "lstrip": false,
      "rstrip": false,
      "normalized": false
    },
    {
      "id": 32197,
      "special": true,
      "content": "[unused185]",
      "single_word": false,
      "lstrip": false,
      "rstrip": false,
      "normalized": false
    },
    {
      "id": 32198,
      "special": true,
      "content": "[unused186]",
      "single_word": false,
      "lstrip": false,
      "rstrip": false,
      "normalized": false
    },
    {
      "id": 32199,
      "special": true,
      "content": "[unused187]",
      "single_word": false,
      "lstrip": false,
      "rstrip": false,
      "normalized": false
    },
    {
      "id": 32200,
      "special": true,
      "content": "[unused188]",
      "single_word": false,
      "lstrip": false,
      "rstrip": false,
      "normalized": false
    },
    {
      "id": 32201,
      "special": true,
      "content": "[unused189]",
      "single_word": false,
      "lstrip": false,
      "rstrip": false,
      "normalized": false
    },
    {
      "id": 32202,
      "special": true,
      "content": "[unused190]",
      "single_word": false,
      "lstrip": false,
      "rstrip": false,
      "normalized": false
    },
    {
      "id": 32203,
      "special": true,
      "content": "[unused191]",
      "single_word": false,
      "lstrip": false,
      "rstrip": false,
      "normalized": false
    },
    {
      "id": 32204,
      "special": true,
      "content": "[unused192]",
      "single_word": false,
      "lstrip": false,
      "rstrip": false,
      "normalized": false
    },
    {
      "id": 32205,
      "special": true,
      "content": "[unused193]",
      "single_word": false,
      "lstrip": false,
      "rstrip": false,
      "normalized": false
    },
    {
      "id": 32206,
      "special": true,
      "content": "[unused194]",
      "single_word": false,
      "lstrip": false,
      "rstrip": false,
      "normalized": false
    },
    {
      "id": 32207,
      "special": true,
      "content": "[unused195]",
      "single_word": false,
      "lstrip": false,
      "rstrip": false,
      "normalized": false
    },
    {
      "id": 32208,
      "special": true,
      "content": "[unused196]",
      "single_word": false,
      "lstrip": false,
      "rstrip": false,
      "normalized": false
    },
    {
      "id": 32209,
      "special": true,
      "content": "[unused197]",
      "single_word": false,
      "lstrip": false,
      "rstrip": false,
      "normalized": false
    },
    {
      "id": 32210,
      "special": true,
      "content": "[unused198]",
      "single_word": false,
      "lstrip": false,
      "rstrip": false,
      "normalized": false
    },
    {
      "id": 32211,
      "special": true,
      "content": "[unused199]",
      "single_word": false,
      "lstrip": false,
      "rstrip": false,
      "normalized": false
    }
  ],
  "normalizer": {
    "type": "BertNormalizer",
    "clean_text": true,
    "handle_chinese_chars": true,
    "strip_accents": false,
    "lowercase": true
  },
  "pre_tokenizer": {
    "type": "BertPreTokenizer"
  },
  "post_processor": {
    "type": "TemplateProcessing",
    "single": [
      {
        "SpecialToken": {
          "id": "[CLS]",
          "type_id": 0
        }
      },
      {
        "Sequence": {
          "id": "A",
          "type_id": 0
        }
      },
      {
        "SpecialToken": {
          "id": "[SEP]",
          "type_id": 0
        }
      }
    ],
    "pair": [
      {
        "SpecialToken": {
          "id": "[CLS]",
          "type_id": 0
        }
      },
      {
        "Sequence": {
          "id": "A",
          "type_id": 0
        }
      },
      {
        "SpecialToken": {
          "id": "[SEP]",
          "type_id": 0
        }
      },
      {
        "Sequence": {
          "id": "B",
          "type_id": 1
        }
      },
      {
        "SpecialToken": {
          "id": "[SEP]",
          "type_id": 1
        }
      }
    ],
    "special_tokens": {
      "[CLS]": {
        "id": "[CLS]",
        "ids": [
          2
        ],
        "tokens": [
          "[CLS]"
        ]
      },
      "[SEP]": {
        "id": "[SEP]",
        "ids": [
          3
        ],
        "tokens": [
          "[SEP]"
        ]
      }
    }
  },
  "decoder": {
    "type": "WordPiece",
    "prefix": "##",
    "cleanup": true
  },
  "model": {
    "type": "WordPiece",
    "unk_token": "[UNK]",
    "continuing_subword_prefix": "##",
    "max_input_chars_per_word": 100,
    "vocab": {
      "[PAD]": 0,
      "[UNK]": 1,
      "[CLS]": 2,
      "[SEP]": 3,
      "[MASK]": 4,
      "!": 5,
      "\"": 6,
      "#": 7,
      "$": 8,
      "%": 9,
      "&": 10,
      "'": 11,
      "(": 12,
      ")": 13,
      "*": 14,
      "+": 15,
      ",": 16,
      "-": 17,
      ".": 18,
      "/": 19,
      "0": 20,
      "1": 21,
      "2": 22,
      "3": 23,
      "4": 24,
      "5": 25,
      "6": 26,
      "7": 27,
      "8": 28,
      "9": 29,
      ":": 30,
      ";": 31,
      "<": 32,
      "=": 33,
      ">": 34,
      "?": 35,
      "A": 36,
      "B": 37,
      "C": 38,
      "D": 39,
      "E": 40,
      "F": 41,
      "G": 42,
      "H": 43,
      "I": 44,
      "J": 45,
      "K": 46,
      "L": 47,
      "M": 48,
      "N": 49,
      "O": 50,
      "P": 51,
      "Q": 52,
      "R": 53,
      "S": 54,
      "T": 55,
      "U": 56,
      "V": 57,
      "W": 58,
      "X": 59,
      "Y": 60,
      "Z": 61,
      "[": 62,
      "\\": 63,
      "]": 64,
      "^": 65,
      "_": 66,
      "`": 67,
      "a": 68,
      "b": 69,
      "c": 70,
      "d": 71,
      "e": 72,
      "f": 73,
      "g": 74,
      "h": 75,
      "i": 76,
      "j": 77,
      "k": 78,
      "l": 79,
      "m": 80,
      "n": 81,
      "o": 82,
      "p": 83,
      "q": 84,
      "r": 85,
      "s": 86,
      "t": 87,
      "u": 88,
      "v": 89,
      "w": 90,
      "x": 91,
      "y": 92,
      "z": 93,
      "{": 94,
      "|": 95,
      "}": 96,
      "~": 97,
      "®": 98,
      "°": 99,
      "±": 100,
      "´": 101,
      "·": 102,
      "º": 103,
      "½": 104,
      "Â": 105,
      "È": 106,
      "É": 107,
      "×": 108,
      "Û": 109,
      "ä": 110,
      "è": 111,
      "é": 112,
      "ù": 113,
      "û": 114,
      "˚": 115,
      "α": 116,
      "ᆞ": 117,
      "‘": 118,
      "’": 119,
      "“": 120,
      "”": 121,
      "•": 122,
      "※": 123,
      "℃": 124,
      "ℓ": 125,
      "™": 126,
      "Ⅰ": 127,
      "Ⅱ": 128,
      "→": 129,
      "∙": 130,
      "①": 131,
      "②": 132,
      "③": 133,
      "●": 134,
      "★": 135,
      "☆": 136,
      "♥": 137,
      "「": 138,
      "」": 139,
      "い": 140,
      "う": 141,
      "き": 142,
      "げ": 143,
      "ご": 144,
      "し": 145,
      "せ": 146,
      "ぜ": 147,
      "ま": 148,
      "め": 149,
      "も": 150,
      "や": 151,
      "ゅ": 152,
      "り": 153,
      "わ": 154,
      "ん": 155,
      "ア": 156,
      "シ": 157,
      "チ": 158,
      "ビ": 159,
      "メ": 160,
      "ャ": 161,
      "ュ": 162,
      "ラ": 163,
      "ワ": 164,
      "ン": 165,
      "・": 166,
      "ー": 167,
      "ㄱ": 168,
      "ㄲ": 169,
      "ㄴ": 170,
      "ㄷ": 171,
      "ㄸ": 172,
      "ㄹ": 173,
      "ㄺ": 174,
      "ㅁ": 175,
      "ㅅ": 176,
      "ㅇ": 177,
      "ㅋ": 178,
      "ㅍ": 179,
      "ㅎ": 180,
      "ㅐ": 181,
      "ㅑ": 182,
      "ㅒ": 183,
      "ㅔ": 184,
      "ㅗ": 185,
      "ㅡ": 186,
      "ㅢ": 187,
      "ㅣ": 188,
      "ㆍ": 189,
      "㎖": 190,
      "一": 191,
      "三": 192,
      "上": 193,
      "下": 194,
      "丝": 195,
      "並": 196,
      "中": 197,
      "串": 198,
      "二": 199,
      "五": 200,
      "亥": 201,
      "京": 202,
      "人": 203,
      "仁": 204,
      "付": 205,
      "代": 206,
      "价": 207,
      "作": 208,
      "信": 209,
      "個": 210,
      "兔": 211,
      "兩": 212,
      "农": 213,
      "冬": 214,
      "冷": 215,
      "凉": 216,
      "出": 217,
      "刀": 218,
      "分": 219,
      "包": 220,
      "北": 221,
      "半": 222,
      "卓": 223,
      "卤": 224,
      "压": 225,
      "原": 226,
      "古": 227,
      "合": 228,
      "名": 229,
      "味": 230,
      "品": 231,
      "哈": 232,
      "唐": 233,
      "啤": 234,
      "四": 235,
      "回": 236,
      "園": 237,
      "土": 238,
      "地": 239,
      "坛": 240,
      "壽": 241,
      "夏": 242,
      "多": 243,
      "夢": 244,
      "大": 245,
      "天": 246,
      "太": 247,
      "奇": 248,
      "子": 249,
      "孜": 250,
      "实": 251,
      "家": 252,
      "小": 253,
      "少": 254,
      "尔": 255,
      "尖": 256,
      "尾": 257,
      "山": 258,
      "岛": 259,
      "川": 260,
      "工": 261,
      "巫": 262,
      "帝": 263,
      "常": 264,
      "干": 265,
      "幸": 266,
      "庆": 267,
      "心": 268,
      "怒": 269,
      "总": 270,
      "意": 271,
      "愛": 272,
      "愤": 273,
      "手": 274,
      "打": 275,
      "担": 276,
      "拉": 277,
      "拌": 278,
      "拔": 279,
      "拼": 280,
      "捞": 281,
      "排": 282,
      "揚": 283,
      "新": 284,
      "日": 285,
      "旬": 286,
      "明": 287,
      "春": 288,
      "月": 289,
      "有": 290,
      "木": 291,
      "本": 292,
      "杂": 293,
      "李": 294,
      "村": 295,
      "条": 296,
      "東": 297,
      "松": 298,
      "板": 299,
      "林": 300,
      "果": 301,
      "柿": 302,
      "栏": 303,
      "桥": 304,
      "梁": 305,
      "梅": 306,
      "椒": 307,
      "殷": 308,
      "母": 309,
      "毛": 310,
      "水": 311,
      "汁": 312,
      "汤": 313,
      "沌": 314,
      "油": 315,
      "洁": 316,
      "活": 317,
      "海": 318,
      "混": 319,
      "淸": 320,
      "温": 321,
      "溜": 322,
      "溫": 323,
      "滨": 324,
      "漁": 325,
      "火": 326,
      "灯": 327,
      "灵": 328,
      "炒": 329,
      "炖": 330,
      "炸": 331,
      "烤": 332,
      "烧": 333,
      "烫": 334,
      "焖": 335,
      "無": 336,
      "然": 337,
      "煎": 338,
      "煮": 339,
      "煲": 340,
      "爆": 341,
      "片": 342,
      "牌": 343,
      "牛": 344,
      "特": 345,
      "狗": 346,
      "猪": 347,
      "玉": 348,
      "王": 349,
      "现": 350,
      "珍": 351,
      "瓜": 352,
      "生": 353,
      "甲": 354,
      "男": 355,
      "白": 356,
      "的": 357,
      "皇": 358,
      "皮": 359,
      "盖": 360,
      "盘": 361,
      "盛": 362,
      "眞": 363,
      "神": 364,
      "福": 365,
      "禧": 366,
      "秀": 367,
      "秋": 368,
      "竹": 369,
      "笨": 370,
      "笼": 371,
      "筋": 372,
      "管": 373,
      "米": 374,
      "籽": 375,
      "粉": 376,
      "粥": 377,
      "糖": 378,
      "糞": 379,
      "紅": 380,
      "綠": 381,
      "红": 382,
      "羊": 383,
      "美": 384,
      "老": 385,
      "耳": 386,
      "肉": 387,
      "肚": 388,
      "肝": 389,
      "肠": 390,
      "肥": 391,
      "脖": 392,
      "腐": 393,
      "腩": 394,
      "腰": 395,
      "膏": 396,
      "色": 397,
      "花": 398,
      "苑": 399,
      "苔": 400,
      "茄": 401,
      "菇": 402,
      "菊": 403,
      "菜": 404,
      "菠": 405,
      "蒙": 406,
      "蒜": 407,
      "蘭": 408,
      "虾": 409,
      "蚬": 410,
      "蛋": 411,
      "蛙": 412,
      "裁": 413,
      "製": 414,
      "西": 415,
      "角": 416,
      "誠": 417,
      "豆": 418,
      "豚": 419,
      "貧": 420,
      "貴": 421,
      "货": 422,
      "赤": 423,
      "足": 424,
      "蹄": 425,
      "辛": 426,
      "辣": 427,
      "过": 428,
      "連": 429,
      "選": 430,
      "酒": 431,
      "酱": 432,
      "酸": 433,
      "酿": 434,
      "醋": 435,
      "醬": 436,
      "重": 437,
      "野": 438,
      "金": 439,
      "铁": 440,
      "锅": 441,
      "長": 442,
      "雛": 443,
      "雪": 444,
      "雳": 445,
      "霹": 446,
      "靑": 447,
      "青": 448,
      "面": 449,
      "韓": 450,
      "韭": 451,
      "風": 452,
      "风": 453,
      "食": 454,
      "飯": 455,
      "餃": 456,
      "饨": 457,
      "饭": 458,
      "饺": 459,
      "馄": 460,
      "香": 461,
      "驪": 462,
      "骨": 463,
      "髓": 464,
      "鱼": 465,
      "鱿": 466,
      "鲜": 467,
      "鲤": 468,
      "鲫": 469,
      "鳳": 470,
      "鸡": 471,
      "鸭": 472,
      "麗": 473,
      "麺": 474,
      "麻": 475,
      "黄": 476,
      "黑": 477,
      "黒": 478,
      "齋": 479,
      "龍": 480,
      "龙": 481,
      "가": 482,
      "각": 483,
      "간": 484,
      "갈": 485,
      "갋": 486,
      "갍": 487,
      "감": 488,
      "갑": 489,
      "값": 490,
      "갓": 491,
      "강": 492,
      "갖": 493,
      "같": 494,
      "갛": 495,
      "개": 496,
      "객": 497,
      "갤": 498,
      "갬": 499,
      "갯": 500,
      "갱": 501,
      "갸": 502,
      "걀": 503,
      "걉": 504,
      "걋": 505,
      "걍": 506,
      "걔": 507,
      "거": 508,
      "걱": 509,
      "건": 510,
      "걷": 511,
      "걸": 512,
      "검": 513,
      "겁": 514,
      "것": 515,
      "겅": 516,
      "겆": 517,
      "겉": 518,
      "게": 519,
      "겐": 520,
      "겔": 521,
      "겜": 522,
      "겟": 523,
      "겠": 524,
      "겡": 525,
      "겥": 526,
      "겨": 527,
      "격": 528,
      "견": 529,
      "결": 530,
      "겸": 531,
      "겹": 532,
      "경": 533,
      "곁": 534,
      "계": 535,
      "곗": 536,
      "고": 537,
      "곡": 538,
      "곤": 539,
      "골": 540,
      "곰": 541,
      "곱": 542,
      "곳": 543,
      "공": 544,
      "곶": 545,
      "곷": 546,
      "곹": 547,
      "곻": 548,
      "과": 549,
      "곽": 550,
      "관": 551,
      "괄": 552,
      "광": 553,
      "괘": 554,
      "괜": 555,
      "괴": 556,
      "굄": 557,
      "교": 558,
      "굑": 559,
      "구": 560,
      "국": 561,
      "굯": 562,
      "군": 563,
      "굳": 564,
      "굴": 565,
      "굵": 566,
      "굷": 567,
      "굼": 568,
      "굽": 569,
      "굿": 570,
      "궁": 571,
      "궈": 572,
      "권": 573,
      "궐": 574,
      "궤": 575,
      "귀": 576,
      "귄": 577,
      "귈": 578,
      "귓": 579,
      "규": 580,
      "균": 581,
      "귤": 582,
      "그": 583,
      "극": 584,
      "근": 585,
      "글": 586,
      "긅": 587,
      "금": 588,
      "급": 589,
      "긋": 590,
      "긍": 591,
      "긑": 592,
      "기": 593,
      "긱": 594,
      "긴": 595,
      "길": 596,
      "김": 597,
      "깁": 598,
      "깃": 599,
      "깅": 600,
      "깉": 601,
      "깊": 602,
      "까": 603,
      "깍": 604,
      "깐": 605,
      "깔": 606,
      "깜": 607,
      "깡": 608,
      "깨": 609,
      "깬": 610,
      "깻": 611,
      "깽": 612,
      "꺄": 613,
      "꺈": 614,
      "꺠": 615,
      "꺳": 616,
      "꺵": 617,
      "꺼": 618,
      "꺽": 619,
      "꺾": 620,
      "껌": 621,
      "껍": 622,
      "껏": 623,
      "껑": 624,
      "께": 625,
      "껨": 626,
      "껩": 627,
      "껭": 628,
      "껴": 629,
      "꼅": 630,
      "꼐": 631,
      "꼬": 632,
      "꼭": 633,
      "꼰": 634,
      "꼴": 635,
      "꼼": 636,
      "꼽": 637,
      "꼿": 638,
      "꽁": 639,
      "꽂": 640,
      "꽃": 641,
      "꽈": 642,
      "꽉": 643,
      "꽌": 644,
      "꽐": 645,
      "꽝": 646,
      "꽤": 647,
      "꽥": 648,
      "꾀": 649,
      "꾸": 650,
      "꾹": 651,
      "꾼": 652,
      "꿀": 653,
      "꿈": 654,
      "꿉": 655,
      "꿋": 656,
      "꿍": 657,
      "꿔": 658,
      "꿘": 659,
      "꿩": 660,
      "꿰": 661,
      "뀌": 662,
      "뀔": 663,
      "뀰": 664,
      "끄": 665,
      "끈": 666,
      "끊": 667,
      "끌": 668,
      "끓": 669,
      "끔": 670,
      "끕": 671,
      "끗": 672,
      "끛": 673,
      "끝": 674,
      "끼": 675,
      "끽": 676,
      "낀": 677,
      "낄": 678,
      "낌": 679,
      "낑": 680,
      "나": 681,
      "낙": 682,
      "낚": 683,
      "난": 684,
      "날": 685,
      "낡": 686,
      "남": 687,
      "납": 688,
      "낫": 689,
      "났": 690,
      "낭": 691,
      "낮": 692,
      "낯": 693,
      "낱": 694,
      "낳": 695,
      "내": 696,
      "낵": 697,
      "낸": 698,
      "낼": 699,
      "냄": 700,
      "냅": 701,
      "냉": 702,
      "냐": 703,
      "냑": 704,
      "냘": 705,
      "냠": 706,
      "냥": 707,
      "너": 708,
      "넉": 709,
      "넌": 710,
      "널": 711,
      "넓": 712,
      "넘": 713,
      "넙": 714,
      "넛": 715,
      "넝": 716,
      "넡": 717,
      "넣": 718,
      "네": 719,
      "넥": 720,
      "넨": 721,
      "넬": 722,
      "넴": 723,
      "넵": 724,
      "넷": 725,
      "넹": 726,
      "녀": 727,
      "녁": 728,
      "년": 729,
      "념": 730,
      "녑": 731,
      "녕": 732,
      "녘": 733,
      "녜": 734,
      "노": 735,
      "녹": 736,
      "논": 737,
      "녿": 738,
      "놀": 739,
      "놈": 740,
      "놉": 741,
      "놋": 742,
      "농": 743,
      "높": 744,
      "놓": 745,
      "뇌": 746,
      "뇨": 747,
      "뇩": 748,
      "뇰": 749,
      "뇽": 750,
      "누": 751,
      "눅": 752,
      "눈": 753,
      "눌": 754,
      "눔": 755,
      "눙": 756,
      "뉘": 757,
      "뉴": 758,
      "뉵": 759,
      "뉼": 760,
      "늄": 761,
      "늉": 762,
      "느": 763,
      "늑": 764,
      "는": 765,
      "늗": 766,
      "늘": 767,
      "늙": 768,
      "능": 769,
      "늦": 770,
      "늩": 771,
      "늬": 772,
      "니": 773,
      "닉": 774,
      "닌": 775,
      "닐": 776,
      "님": 777,
      "닙": 778,
      "닛": 779,
      "닝": 780,
      "다": 781,
      "닥": 782,
      "단": 783,
      "달": 784,
      "닭": 785,
      "닮": 786,
      "닳": 787,
      "담": 788,
      "답": 789,
      "닷": 790,
      "당": 791,
      "닾": 792,
      "대": 793,
      "댁": 794,
      "댄": 795,
      "댈": 796,
      "댓": 797,
      "댕": 798,
      "댜": 799,
      "댬": 800,
      "댸": 801,
      "더": 802,
      "덕": 803,
      "덖": 804,
      "던": 805,
      "덜": 806,
      "덟": 807,
      "덤": 808,
      "덥": 809,
      "덧": 810,
      "덩": 811,
      "덭": 812,
      "덮": 813,
      "데": 814,
      "덴": 815,
      "덷": 816,
      "델": 817,
      "덻": 818,
      "뎀": 819,
      "뎁": 820,
      "뎃": 821,
      "뎅": 822,
      "뎨": 823,
      "도": 824,
      "독": 825,
      "돈": 826,
      "돋": 827,
      "돌": 828,
      "돍": 829,
      "돏": 830,
      "돔": 831,
      "돕": 832,
      "돗": 833,
      "동": 834,
      "돚": 835,
      "돛": 836,
      "돝": 837,
      "돤": 838,
      "돼": 839,
      "됀": 840,
      "되": 841,
      "된": 842,
      "될": 843,
      "됨": 844,
      "됩": 845,
      "됫": 846,
      "두": 847,
      "둑": 848,
      "둔": 849,
      "둗": 850,
      "둘": 851,
      "둠": 852,
      "둣": 853,
      "둥": 854,
      "둬": 855,
      "둰": 856,
      "뒤": 857,
      "뒥": 858,
      "뒷": 859,
      "듀": 860,
      "듄": 861,
      "듈": 862,
      "듐": 863,
      "드": 864,
      "득": 865,
      "든": 866,
      "들": 867,
      "듦": 868,
      "듬": 869,
      "듭": 870,
      "듯": 871,
      "등": 872,
      "듳": 873,
      "디": 874,
      "딕": 875,
      "딘": 876,
      "딜": 877,
      "딝": 878,
      "딤": 879,
      "딥": 880,
      "딧": 881,
      "딩": 882,
      "딮": 883,
      "따": 884,
      "딱": 885,
      "딴": 886,
      "딸": 887,
      "딹": 888,
      "땀": 889,
      "땃": 890,
      "땅": 891,
      "땋": 892,
      "때": 893,
      "땍": 894,
      "땐": 895,
      "땜": 896,
      "땡": 897,
      "떄": 898,
      "떙": 899,
      "떠": 900,
      "떡": 901,
      "떢": 902,
      "떣": 903,
      "떨": 904,
      "떵": 905,
      "떼": 906,
      "뗀": 907,
      "뗄": 908,
      "뗌": 909,
      "뗴": 910,
      "뗼": 911,
      "똄": 912,
      "또": 913,
      "똑": 914,
      "똔": 915,
      "똘": 916,
      "똠": 917,
      "똥": 918,
      "똰": 919,
      "뚜": 920,
      "뚝": 921,
      "뚞": 922,
      "뚠": 923,
      "뚤": 924,
      "뚬": 925,
      "뚱": 926,
      "뛰": 927,
      "뛸": 928,
      "뜌": 929,
      "뜍": 930,
      "뜨": 931,
      "뜩": 932,
      "뜬": 933,
      "뜯": 934,
      "뜰": 935,
      "뜸": 936,
      "뜻": 937,
      "띄": 938,
      "띠": 939,
      "띤": 940,
      "띨": 941,
      "띰": 942,
      "띵": 943,
      "라": 944,
      "락": 945,
      "란": 946,
      "랃": 947,
      "랄": 948,
      "람": 949,
      "랍": 950,
      "랏": 951,
      "랑": 952,
      "랓": 953,
      "랗": 954,
      "래": 955,
      "랙": 956,
      "랜": 957,
      "랠": 958,
      "램": 959,
      "랩": 960,
      "랫": 961,
      "랭": 962,
      "랴": 963,
      "략": 964,
      "랸": 965,
      "럇": 966,
      "량": 967,
      "러": 968,
      "럭": 969,
      "런": 970,
      "럳": 971,
      "럴": 972,
      "럵": 973,
      "럼": 974,
      "럽": 975,
      "럿": 976,
      "렁": 977,
      "렇": 978,
      "레": 979,
      "렉": 980,
      "렌": 981,
      "렍": 982,
      "렐": 983,
      "렘": 984,
      "렙": 985,
      "렛": 986,
      "렝": 987,
      "렡": 988,
      "려": 989,
      "력": 990,
      "련": 991,
      "렬": 992,
      "렵": 993,
      "령": 994,
      "례": 995,
      "로": 996,
      "록": 997,
      "론": 998,
      "롤": 999,
      "롬": 1000,
      "롭": 1001,
      "롯": 1002,
      "롱": 1003,
      "롸": 1004,
      "뢰": 1005,
      "룁": 1006,
      "료": 1007,
      "룡": 1008,
      "룤": 1009,
      "루": 1010,
      "룩": 1011,
      "룬": 1012,
      "룰": 1013,
      "룸": 1014,
      "룹": 1015,
      "룻": 1016,
      "룽": 1017,
      "뤄": 1018,
      "뤌": 1019,
      "뤠": 1020,
      "뤨": 1021,
      "뤼": 1022,
      "뤽": 1023,
      "륀": 1024,
      "륄": 1025,
      "륏": 1026,
      "류": 1027,
      "륙": 1028,
      "륜": 1029,
      "률": 1030,
      "륭": 1031,
      "르": 1032,
      "륵": 1033,
      "른": 1034,
      "를": 1035,
      "름": 1036,
      "릅": 1037,
      "릇": 1038,
      "릉": 1039,
      "릌": 1040,
      "릎": 1041,
      "릐": 1042,
      "릠": 1043,
      "릣": 1044,
      "리": 1045,
      "릭": 1046,
      "린": 1047,
      "릴": 1048,
      "림": 1049,
      "립": 1050,
      "릿": 1051,
      "맀": 1052,
      "링": 1053,
      "맄": 1054,
      "맆": 1055,
      "마": 1056,
      "막": 1057,
      "만": 1058,
      "많": 1059,
      "말": 1060,
      "맑": 1061,
      "맓": 1062,
      "맘": 1063,
      "맙": 1064,
      "맛": 1065,
      "망": 1066,
      "맞": 1067,
      "맠": 1068,
      "맡": 1069,
      "매": 1070,
      "맥": 1071,
      "맨": 1072,
      "맬": 1073,
      "맴": 1074,
      "맵": 1075,
      "맷": 1076,
      "맹": 1077,
      "맼": 1078,
      "먀": 1079,
      "먁": 1080,
      "먄": 1081,
      "먕": 1082,
      "머": 1083,
      "먹": 1084,
      "먼": 1085,
      "멀": 1086,
      "멈": 1087,
      "멋": 1088,
      "멍": 1089,
      "메": 1090,
      "멕": 1091,
      "멘": 1092,
      "멜": 1093,
      "멤": 1094,
      "멧": 1095,
      "멩": 1096,
      "며": 1097,
      "멱": 1098,
      "면": 1099,
      "멵": 1100,
      "멸": 1101,
      "명": 1102,
      "몇": 1103,
      "모": 1104,
      "목": 1105,
      "몪": 1106,
      "몬": 1107,
      "몯": 1108,
      "몰": 1109,
      "몸": 1110,
      "못": 1111,
      "몽": 1112,
      "뫼": 1113,
      "묘": 1114,
      "묜": 1115,
      "무": 1116,
      "묵": 1117,
      "묶": 1118,
      "문": 1119,
      "묺": 1120,
      "묻": 1121,
      "물": 1122,
      "묾": 1123,
      "묿": 1124,
      "뭄": 1125,
      "뭇": 1126,
      "뭉": 1127,
      "뭋": 1128,
      "뭏": 1129,
      "뭐": 1130,
      "뭔": 1131,
      "뭥": 1132,
      "뮈": 1133,
      "뮌": 1134,
      "뮤": 1135,
      "뮬": 1136,
      "므": 1137,
      "믁": 1138,
      "믄": 1139,
      "믈": 1140,
      "믐": 1141,
      "믕": 1142,
      "미": 1143,
      "믹": 1144,
      "민": 1145,
      "믿": 1146,
      "밀": 1147,
      "밅": 1148,
      "밆": 1149,
      "밈": 1150,
      "밋": 1151,
      "밍": 1152,
      "및": 1153,
      "밑": 1154,
      "바": 1155,
      "박": 1156,
      "밖": 1157,
      "반": 1158,
      "받": 1159,
      "발": 1160,
      "밝": 1161,
      "밟": 1162,
      "밤": 1163,
      "밥": 1164,
      "밧": 1165,
      "방": 1166,
      "밭": 1167,
      "배": 1168,
      "백": 1169,
      "밲": 1170,
      "밴": 1171,
      "밸": 1172,
      "뱀": 1173,
      "뱃": 1174,
      "뱅": 1175,
      "뱝": 1176,
      "뱡": 1177,
      "버": 1178,
      "벅": 1179,
      "번": 1180,
      "벋": 1181,
      "벌": 1182,
      "범": 1183,
      "법": 1184,
      "벗": 1185,
      "벙": 1186,
      "벚": 1187,
      "벛": 1188,
      "베": 1189,
      "벡": 1190,
      "벤": 1191,
      "벨": 1192,
      "벱": 1193,
      "벳": 1194,
      "벵": 1195,
      "벼": 1196,
      "벽": 1197,
      "변": 1198,
      "별": 1199,
      "볍": 1200,
      "볏": 1201,
      "병": 1202,
      "볕": 1203,
      "볜": 1204,
      "보": 1205,
      "복": 1206,
      "볶": 1207,
      "본": 1208,
      "볼": 1209,
      "볾": 1210,
      "볿": 1211,
      "봁": 1212,
      "봄": 1213,
      "봅": 1214,
      "봇": 1215,
      "봉": 1216,
      "봌": 1217,
      "봐": 1218,
      "봤": 1219,
      "뵈": 1220,
      "부": 1221,
      "북": 1222,
      "분": 1223,
      "불": 1224,
      "붉": 1225,
      "붐": 1226,
      "붓": 1227,
      "붕": 1228,
      "붙": 1229,
      "붜": 1230,
      "붸": 1231,
      "뷔": 1232,
      "뷕": 1233,
      "뷘": 1234,
      "뷜": 1235,
      "뷰": 1236,
      "뷴": 1237,
      "뷸": 1238,
      "브": 1239,
      "븐": 1240,
      "블": 1241,
      "븡": 1242,
      "븥": 1243,
      "븨": 1244,
      "비": 1245,
      "빅": 1246,
      "빈": 1247,
      "빌": 1248,
      "빔": 1249,
      "빕": 1250,
      "빗": 1251,
      "빙": 1252,
      "빚": 1253,
      "빛": 1254,
      "빠": 1255,
      "빡": 1256,
      "빤": 1257,
      "빨": 1258,
      "빰": 1259,
      "빱": 1260,
      "빳": 1261,
      "빵": 1262,
      "빼": 1263,
      "빽": 1264,
      "뺀": 1265,
      "뺏": 1266,
      "뺑": 1267,
      "뺘": 1268,
      "뺴": 1269,
      "뺵": 1270,
      "뺸": 1271,
      "뻉": 1272,
      "뻐": 1273,
      "뻑": 1274,
      "뻔": 1275,
      "뻘": 1276,
      "뻤": 1277,
      "뻥": 1278,
      "뻬": 1279,
      "뼈": 1280,
      "뼌": 1281,
      "뼝": 1282,
      "뽀": 1283,
      "뽁": 1284,
      "뽂": 1285,
      "뽄": 1286,
      "뽈": 1287,
      "뽐": 1288,
      "뽑": 1289,
      "뽕": 1290,
      "뿅": 1291,
      "뿌": 1292,
      "뿍": 1293,
      "뿐": 1294,
      "뿔": 1295,
      "뿜": 1296,
      "뿡": 1297,
      "쁘": 1298,
      "쁙": 1299,
      "쁜": 1300,
      "쁠": 1301,
      "쁨": 1302,
      "삐": 1303,
      "삑": 1304,
      "삔": 1305,
      "삠": 1306,
      "삥": 1307,
      "사": 1308,
      "삭": 1309,
      "삯": 1310,
      "산": 1311,
      "살": 1312,
      "삶": 1313,
      "삷": 1314,
      "삺": 1315,
      "삼": 1316,
      "삽": 1317,
      "삿": 1318,
      "상": 1319,
      "샃": 1320,
      "새": 1321,
      "색": 1322,
      "샌": 1323,
      "샐": 1324,
      "샘": 1325,
      "샙": 1326,
      "샛": 1327,
      "생": 1328,
      "샤": 1329,
      "샥": 1330,
      "샨": 1331,
      "샬": 1332,
      "샴": 1333,
      "샵": 1334,
      "샷": 1335,
      "샹": 1336,
      "섀": 1337,
      "서": 1338,
      "석": 1339,
      "섞": 1340,
      "선": 1341,
      "설": 1342,
      "섬": 1343,
      "섭": 1344,
      "섯": 1345,
      "성": 1346,
      "세": 1347,
      "섹": 1348,
      "센": 1349,
      "셀": 1350,
      "셈": 1351,
      "셉": 1352,
      "셋": 1353,
      "셍": 1354,
      "셑": 1355,
      "셔": 1356,
      "셕": 1357,
      "션": 1358,
      "셜": 1359,
      "셞": 1360,
      "셡": 1361,
      "셥": 1362,
      "셧": 1363,
      "셩": 1364,
      "셰": 1365,
      "셸": 1366,
      "소": 1367,
      "속": 1368,
      "손": 1369,
      "솔": 1370,
      "솙": 1371,
      "솜": 1372,
      "솝": 1373,
      "솟": 1374,
      "송": 1375,
      "솣": 1376,
      "솥": 1377,
      "솦": 1378,
      "솨": 1379,
      "솬": 1380,
      "쇄": 1381,
      "쇠": 1382,
      "쇤": 1383,
      "쇼": 1384,
      "숀": 1385,
      "숄": 1386,
      "숍": 1387,
      "숏": 1388,
      "숑": 1389,
      "수": 1390,
      "숙": 1391,
      "순": 1392,
      "숟": 1393,
      "술": 1394,
      "숨": 1395,
      "숩": 1396,
      "숫": 1397,
      "숭": 1398,
      "숮": 1399,
      "숯": 1400,
      "숰": 1401,
      "숱": 1402,
      "숲": 1403,
      "숴": 1404,
      "쉐": 1405,
      "쉑": 1406,
      "쉔": 1407,
      "쉘": 1408,
      "쉠": 1409,
      "쉥": 1410,
      "쉬": 1411,
      "쉴": 1412,
      "쉽": 1413,
      "쉿": 1414,
      "슁": 1415,
      "슈": 1416,
      "슉": 1417,
      "슐": 1418,
      "슘": 1419,
      "슝": 1420,
      "스": 1421,
      "슨": 1422,
      "슬": 1423,
      "슭": 1424,
      "슴": 1425,
      "습": 1426,
      "슷": 1427,
      "승": 1428,
      "슻": 1429,
      "슽": 1430,
      "슾": 1431,
      "시": 1432,
      "식": 1433,
      "싟": 1434,
      "신": 1435,
      "싣": 1436,
      "실": 1437,
      "싫": 1438,
      "심": 1439,
      "십": 1440,
      "싯": 1441,
      "싱": 1442,
      "싴": 1443,
      "싶": 1444,
      "싸": 1445,
      "싹": 1446,
      "싼": 1447,
      "쌀": 1448,
      "쌁": 1449,
      "쌈": 1450,
      "쌉": 1451,
      "쌍": 1452,
      "쌓": 1453,
      "쌔": 1454,
      "쌕": 1455,
      "쌘": 1456,
      "쌤": 1457,
      "쌥": 1458,
      "쌩": 1459,
      "쌰": 1460,
      "쌴": 1461,
      "썅": 1462,
      "썡": 1463,
      "써": 1464,
      "썩": 1465,
      "썪": 1466,
      "썬": 1467,
      "썰": 1468,
      "썸": 1469,
      "썹": 1470,
      "썽": 1471,
      "쎄": 1472,
      "쎈": 1473,
      "쎙": 1474,
      "쎼": 1475,
      "쏘": 1476,
      "쏙": 1477,
      "쏜": 1478,
      "쏟": 1479,
      "쏠": 1480,
      "쏨": 1481,
      "쏭": 1482,
      "쏸": 1483,
      "쑈": 1484,
      "쑝": 1485,
      "쑤": 1486,
      "쑥": 1487,
      "쑨": 1488,
      "쑬": 1489,
      "쑵": 1490,
      "쑼": 1491,
      "쓰": 1492,
      "쓴": 1493,
      "쓸": 1494,
      "씀": 1495,
      "씁": 1496,
      "씨": 1497,
      "씩": 1498,
      "씬": 1499,
      "씰": 1500,
      "씸": 1501,
      "씹": 1502,
      "씻": 1503,
      "씽": 1504,
      "아": 1505,
      "악": 1506,
      "안": 1507,
      "앉": 1508,
      "않": 1509,
      "앋": 1510,
      "알": 1511,
      "앏": 1512,
      "앓": 1513,
      "암": 1514,
      "압": 1515,
      "앗": 1516,
      "았": 1517,
      "앙": 1518,
      "앝": 1519,
      "앞": 1520,
      "애": 1521,
      "액": 1522,
      "앤": 1523,
      "앨": 1524,
      "앰": 1525,
      "앱": 1526,
      "앲": 1527,
      "앳": 1528,
      "앵": 1529,
      "야": 1530,
      "약": 1531,
      "얀": 1532,
      "얄": 1533,
      "얇": 1534,
      "얊": 1535,
      "얌": 1536,
      "얍": 1537,
      "얏": 1538,
      "양": 1539,
      "얗": 1540,
      "얠": 1541,
      "어": 1542,
      "억": 1543,
      "언": 1544,
      "얹": 1545,
      "얼": 1546,
      "엁": 1547,
      "엄": 1548,
      "업": 1549,
      "없": 1550,
      "엇": 1551,
      "었": 1552,
      "엉": 1553,
      "엌": 1554,
      "엍": 1555,
      "엎": 1556,
      "에": 1557,
      "엑": 1558,
      "엔": 1559,
      "엘": 1560,
      "엠": 1561,
      "엡": 1562,
      "엣": 1563,
      "엥": 1564,
      "여": 1565,
      "역": 1566,
      "연": 1567,
      "열": 1568,
      "염": 1569,
      "엽": 1570,
      "영": 1571,
      "옆": 1572,
      "예": 1573,
      "옌": 1574,
      "옐": 1575,
      "옛": 1576,
      "옜": 1577,
      "오": 1578,
      "옥": 1579,
      "온": 1580,
      "올": 1581,
      "옭": 1582,
      "옳": 1583,
      "옴": 1584,
      "옵": 1585,
      "옷": 1586,
      "옹": 1587,
      "옻": 1588,
      "와": 1589,
      "왁": 1590,
      "완": 1591,
      "왈": 1592,
      "왐": 1593,
      "왓": 1594,
      "왔": 1595,
      "왕": 1596,
      "왜": 1597,
      "왤": 1598,
      "외": 1599,
      "왼": 1600,
      "욍": 1601,
      "요": 1602,
      "욕": 1603,
      "욘": 1604,
      "욜": 1605,
      "용": 1606,
      "우": 1607,
      "욱": 1608,
      "운": 1609,
      "울": 1610,
      "욺": 1611,
      "움": 1612,
      "웁": 1613,
      "웃": 1614,
      "웅": 1615,
      "워": 1616,
      "웍": 1617,
      "원": 1618,
      "월": 1619,
      "웜": 1620,
      "웡": 1621,
      "웨": 1622,
      "웬": 1623,
      "웰": 1624,
      "웹": 1625,
      "웻": 1626,
      "웽": 1627,
      "위": 1628,
      "윅": 1629,
      "윇": 1630,
      "윈": 1631,
      "윌": 1632,
      "윔": 1633,
      "윕": 1634,
      "윗": 1635,
      "윙": 1636,
      "유": 1637,
      "육": 1638,
      "윢": 1639,
      "윤": 1640,
      "율": 1641,
      "윰": 1642,
      "융": 1643,
      "으": 1644,
      "윽": 1645,
      "은": 1646,
      "을": 1647,
      "음": 1648,
      "읍": 1649,
      "응": 1650,
      "의": 1651,
      "읨": 1652,
      "이": 1653,
      "익": 1654,
      "인": 1655,
      "읻": 1656,
      "일": 1657,
      "잂": 1658,
      "임": 1659,
      "입": 1660,
      "잇": 1661,
      "있": 1662,
      "잉": 1663,
      "잌": 1664,
      "잍": 1665,
      "잎": 1666,
      "자": 1667,
      "작": 1668,
      "잔": 1669,
      "잖": 1670,
      "잘": 1671,
      "잠": 1672,
      "잡": 1673,
      "잣": 1674,
      "장": 1675,
      "잧": 1676,
      "재": 1677,
      "잭": 1678,
      "잰": 1679,
      "잼": 1680,
      "잽": 1681,
      "잿": 1682,
      "쟁": 1683,
      "쟈": 1684,
      "쟌": 1685,
      "쟝": 1686,
      "쟤": 1687,
      "저": 1688,
      "적": 1689,
      "전": 1690,
      "절": 1691,
      "젊": 1692,
      "점": 1693,
      "접": 1694,
      "젓": 1695,
      "정": 1696,
      "젖": 1697,
      "제": 1698,
      "젝": 1699,
      "젠": 1700,
      "젤": 1701,
      "젬": 1702,
      "젱": 1703,
      "져": 1704,
      "젼": 1705,
      "졀": 1706,
      "졔": 1707,
      "조": 1708,
      "족": 1709,
      "존": 1710,
      "졸": 1711,
      "좀": 1712,
      "좁": 1713,
      "종": 1714,
      "좋": 1715,
      "좌": 1716,
      "좨": 1717,
      "죄": 1718,
      "죈": 1719,
      "죠": 1720,
      "주": 1721,
      "죽": 1722,
      "준": 1723,
      "줄": 1724,
      "줌": 1725,
      "줍": 1726,
      "줏": 1727,
      "중": 1728,
      "줘": 1729,
      "줴": 1730,
      "쥐": 1731,
      "쥘": 1732,
      "쥬": 1733,
      "쥰": 1734,
      "쥴": 1735,
      "쥼": 1736,
      "즁": 1737,
      "즈": 1738,
      "즉": 1739,
      "즌": 1740,
      "즏": 1741,
      "즐": 1742,
      "즘": 1743,
      "즙": 1744,
      "증": 1745,
      "즞": 1746,
      "즡": 1747,
      "지": 1748,
      "직": 1749,
      "진": 1750,
      "질": 1751,
      "짐": 1752,
      "집": 1753,
      "짓": 1754,
      "징": 1755,
      "짖": 1756,
      "짚": 1757,
      "짜": 1758,
      "짝": 1759,
      "짠": 1760,
      "짤": 1761,
      "짧": 1762,
      "짬": 1763,
      "짭": 1764,
      "짱": 1765,
      "째": 1766,
      "짼": 1767,
      "쨈": 1768,
      "쨍": 1769,
      "쨔": 1770,
      "쨩": 1771,
      "쨰": 1772,
      "쩀": 1773,
      "쩌": 1774,
      "쩍": 1775,
      "쩐": 1776,
      "쩔": 1777,
      "쩡": 1778,
      "쩨": 1779,
      "쪄": 1780,
      "쪼": 1781,
      "쪽": 1782,
      "쫀": 1783,
      "쫄": 1784,
      "쫇": 1785,
      "쫌": 1786,
      "쫑": 1787,
      "쫘": 1788,
      "쭈": 1789,
      "쭉": 1790,
      "쭐": 1791,
      "쭘": 1792,
      "쭝": 1793,
      "쭤": 1794,
      "쮸": 1795,
      "쯔": 1796,
      "쯤": 1797,
      "쯩": 1798,
      "찌": 1799,
      "찍": 1800,
      "찐": 1801,
      "찔": 1802,
      "찜": 1803,
      "찝": 1804,
      "찡": 1805,
      "찢": 1806,
      "차": 1807,
      "착": 1808,
      "찬": 1809,
      "찮": 1810,
      "찰": 1811,
      "참": 1812,
      "찹": 1813,
      "찻": 1814,
      "창": 1815,
      "찾": 1816,
      "채": 1817,
      "책": 1818,
      "챔": 1819,
      "챕": 1820,
      "챗": 1821,
      "챙": 1822,
      "챠": 1823,
      "챤": 1824,
      "챰": 1825,
      "챱": 1826,
      "챼": 1827,
      "처": 1828,
      "척": 1829,
      "천": 1830,
      "철": 1831,
      "첨": 1832,
      "첩": 1833,
      "첫": 1834,
      "청": 1835,
      "첲": 1836,
      "체": 1837,
      "첵": 1838,
      "첸": 1839,
      "첼": 1840,
      "쳐": 1841,
      "쳔": 1842,
      "쳤": 1843,
      "쳥": 1844,
      "쳬": 1845,
      "초": 1846,
      "촉": 1847,
      "촌": 1848,
      "촐": 1849,
      "촙": 1850,
      "촛": 1851,
      "총": 1852,
      "촨": 1853,
      "촬": 1854,
      "촵": 1855,
      "최": 1856,
      "쵸": 1857,
      "춀": 1858,
      "추": 1859,
      "축": 1860,
      "춘": 1861,
      "출": 1862,
      "춤": 1863,
      "춥": 1864,
      "춧": 1865,
      "충": 1866,
      "춰": 1867,
      "취": 1868,
      "췻": 1869,
      "츄": 1870,
      "츅": 1871,
      "츈": 1872,
      "츌": 1873,
      "츠": 1874,
      "측": 1875,
      "츤": 1876,
      "츨": 1877,
      "츰": 1878,
      "층": 1879,
      "츼": 1880,
      "치": 1881,
      "칙": 1882,
      "친": 1883,
      "칠": 1884,
      "칡": 1885,
      "침": 1886,
      "칩": 1887,
      "칫": 1888,
      "칭": 1889,
      "칲": 1890,
      "카": 1891,
      "칵": 1892,
      "칸": 1893,
      "칼": 1894,
      "캄": 1895,
      "캅": 1896,
      "캇": 1897,
      "캉": 1898,
      "캌": 1899,
      "캐": 1900,
      "캔": 1901,
      "캘": 1902,
      "캠": 1903,
      "캡": 1904,
      "캣": 1905,
      "캥": 1906,
      "캪": 1907,
      "캬": 1908,
      "캰": 1909,
      "커": 1910,
      "컨": 1911,
      "컬": 1912,
      "컴": 1913,
      "컵": 1914,
      "컷": 1915,
      "컹": 1916,
      "케": 1917,
      "켁": 1918,
      "켄": 1919,
      "켈": 1920,
      "켐": 1921,
      "켑": 1922,
      "켓": 1923,
      "켙": 1924,
      "켜": 1925,
      "켤": 1926,
      "켸": 1927,
      "코": 1928,
      "콕": 1929,
      "콘": 1930,
      "콜": 1931,
      "콤": 1932,
      "콥": 1933,
      "콧": 1934,
      "콩": 1935,
      "콭": 1936,
      "콰": 1937,
      "콴": 1938,
      "콸": 1939,
      "쾅": 1940,
      "쾌": 1941,
      "쾨": 1942,
      "쾰": 1943,
      "쿄": 1944,
      "쿕": 1945,
      "쿠": 1946,
      "쿡": 1947,
      "쿤": 1948,
      "쿨": 1949,
      "쿰": 1950,
      "쿱": 1951,
      "쿵": 1952,
      "쿸": 1953,
      "쿼": 1954,
      "퀀": 1955,
      "퀄": 1956,
      "퀘": 1957,
      "퀴": 1958,
      "퀵": 1959,
      "퀸": 1960,
      "퀼": 1961,
      "큐": 1962,
      "큘": 1963,
      "크": 1964,
      "큰": 1965,
      "클": 1966,
      "큼": 1967,
      "킅": 1968,
      "킈": 1969,
      "키": 1970,
      "킥": 1971,
      "킨": 1972,
      "킬": 1973,
      "킴": 1974,
      "킵": 1975,
      "킷": 1976,
      "킹": 1977,
      "타": 1978,
      "탁": 1979,
      "탄": 1980,
      "탈": 1981,
      "탉": 1982,
      "탐": 1983,
      "탑": 1984,
      "탓": 1985,
      "탕": 1986,
      "태": 1987,
      "택": 1988,
      "탠": 1989,
      "탤": 1990,
      "탬": 1991,
      "탭": 1992,
      "탱": 1993,
      "탸": 1994,
      "턍": 1995,
      "터": 1996,
      "턱": 1997,
      "턴": 1998,
      "털": 1999,
      "텀": 2000,
      "텁": 2001,
      "텃": 2002,
      "텅": 2003,
      "테": 2004,
      "텍": 2005,
      "텐": 2006,
      "텑": 2007,
      "텔": 2008,
      "템": 2009,
      "텝": 2010,
      "텟": 2011,
      "텡": 2012,
      "토": 2013,
      "톡": 2014,
      "톤": 2015,
      "톨": 2016,
      "톰": 2017,
      "톱": 2018,
      "톳": 2019,
      "통": 2020,
      "톶": 2021,
      "톸": 2022,
      "퇘": 2023,
      "퇴": 2024,
      "툇": 2025,
      "투": 2026,
      "툭": 2027,
      "툰": 2028,
      "툴": 2029,
      "툼": 2030,
      "툽": 2031,
      "퉁": 2032,
      "튀": 2033,
      "튁": 2034,
      "튄": 2035,
      "튜": 2036,
      "튤": 2037,
      "트": 2038,
      "특": 2039,
      "튼": 2040,
      "틀": 2041,
      "틈": 2042,
      "틋": 2043,
      "틑": 2044,
      "틔": 2045,
      "티": 2046,
      "틱": 2047,
      "틴": 2048,
      "틸": 2049,
      "틹": 2050,
      "팀": 2051,
      "팁": 2052,
      "팃": 2053,
      "팅": 2054,
      "팉": 2055,
      "파": 2056,
      "팍": 2057,
      "판": 2058,
      "팓": 2059,
      "팔": 2060,
      "팛": 2061,
      "팜": 2062,
      "팝": 2063,
      "팟": 2064,
      "팡": 2065,
      "팢": 2066,
      "팣": 2067,
      "팥": 2068,
      "팦": 2069,
      "패": 2070,
      "팩": 2071,
      "팬": 2072,
      "팰": 2073,
      "팸": 2074,
      "팹": 2075,
      "팻": 2076,
      "팽": 2077,
      "퍄": 2078,
      "퍅": 2079,
      "퍈": 2080,
      "퍌": 2081,
      "퍙": 2082,
      "퍼": 2083,
      "퍽": 2084,
      "펀": 2085,
      "펃": 2086,
      "펄": 2087,
      "펌": 2088,
      "펍": 2089,
      "펑": 2090,
      "페": 2091,
      "펙": 2092,
      "펜": 2093,
      "펠": 2094,
      "펨": 2095,
      "펩": 2096,
      "펫": 2097,
      "펭": 2098,
      "편": 2099,
      "펼": 2100,
      "평": 2101,
      "폐": 2102,
      "포": 2103,
      "폭": 2104,
      "폰": 2105,
      "폴": 2106,
      "폼": 2107,
      "폿": 2108,
      "퐁": 2109,
      "퐈": 2110,
      "푀": 2111,
      "표": 2112,
      "푸": 2113,
      "푹": 2114,
      "푼": 2115,
      "풀": 2116,
      "품": 2117,
      "풋": 2118,
      "풍": 2119,
      "풔": 2120,
      "퓌": 2121,
      "퓔": 2122,
      "퓨": 2123,
      "퓰": 2124,
      "퓸": 2125,
      "프": 2126,
      "픈": 2127,
      "플": 2128,
      "픓": 2129,
      "픔": 2130,
      "픙": 2131,
      "픞": 2132,
      "픤": 2133,
      "피": 2134,
      "픽": 2135,
      "핀": 2136,
      "필": 2137,
      "핍": 2138,
      "핏": 2139,
      "핑": 2140,
      "핕": 2141,
      "하": 2142,
      "학": 2143,
      "한": 2144,
      "할": 2145,
      "함": 2146,
      "합": 2147,
      "핫": 2148,
      "항": 2149,
      "해": 2150,
      "핵": 2151,
      "핸": 2152,
      "핼": 2153,
      "햄": 2154,
      "햅": 2155,
      "햇": 2156,
      "했": 2157,
      "행": 2158,
      "햐": 2159,
      "햡": 2160,
      "향": 2161,
      "햼": 2162,
      "허": 2163,
      "헌": 2164,
      "헐": 2165,
      "험": 2166,
      "헙": 2167,
      "헛": 2168,
      "헝": 2169,
      "헤": 2170,
      "헥": 2171,
      "헨": 2172,
      "헬": 2173,
      "헴": 2174,
      "헵": 2175,
      "헷": 2176,
      "혀": 2177,
      "현": 2178,
      "혈": 2179,
      "협": 2180,
      "혓": 2181,
      "형": 2182,
      "혜": 2183,
      "호": 2184,
      "혹": 2185,
      "혼": 2186,
      "홀": 2187,
      "홈": 2188,
      "홉": 2189,
      "홋": 2190,
      "홍": 2191,
      "화": 2192,
      "확": 2193,
      "환": 2194,
      "활": 2195,
      "황": 2196,
      "회": 2197,
      "획": 2198,
      "횐": 2199,
      "횟": 2200,
      "횡": 2201,
      "효": 2202,
      "후": 2203,
      "훅": 2204,
      "훈": 2205,
      "훌": 2206,
      "훔": 2207,
      "훗": 2208,
      "훙": 2209,
      "훠": 2210,
      "훼": 2211,
      "휀": 2212,
      "휘": 2213,
      "휠": 2214,
      "휩": 2215,
      "휭": 2216,
      "휴": 2217,
      "휵": 2218,
      "흐": 2219,
      "흑": 2220,
      "흔": 2221,
      "흘": 2222,
      "흙": 2223,
      "흠": 2224,
      "흡": 2225,
      "흥": 2226,
      "흩": 2227,
      "희": 2228,
      "흰": 2229,
      "히": 2230,
      "힌": 2231,
      "힐": 2232,
      "힘": 2233,
      "힙": 2234,
      "힛": 2235,
      "金": 2236,
      "蘭": 2237,
      "冷": 2238,
      "樂": 2239,
      "＆": 2240,
      "（": 2241,
      "）": 2242,
      "＊": 2243,
      "＋": 2244,
      "．": 2245,
      "５": 2246,
      "６": 2247,
      "ｰ": 2248,
      "ﾋ": 2249,
      "ﾙ": 2250,
      "ﾞ": 2251,
      "##근": 2252,
      "##세": 2253,
      "##트": 2254,
      "##노": 2255,
      "##리": 2256,
      "##버": 2257,
      "##드": 2258,
      "##나": 2259,
      "##무": 2260,
      "##화": 2261,
      "##꽃": 2262,
      "##등": 2263,
      "##심": 2264,
      "##제": 2265,
      "##쉬": 2266,
      "##림": 2267,
      "##프": 2268,
      "##빠": 2269,
      "##네": 2270,
      "##막": 2271,
      "##육": 2272,
      "##개": 2273,
      "##장": 2274,
      "##어": 2275,
      "##복": 2276,
      "##찜": 2277,
      "##고": 2278,
      "##오": 2279,
      "##렌": 2280,
      "##지": 2281,
      "##에": 2282,
      "##이": 2283,
      "##코": 2284,
      "##미": 2285,
      "##니": 2286,
      "##한": 2287,
      "##스": 2288,
      "##카": 2289,
      "##르": 2290,
      "##포": 2291,
      "##블": 2292,
      "##루": 2293,
      "##레": 2294,
      "##몬": 2295,
      "##늘": 2296,
      "##토": 2297,
      "##로": 2298,
      "##게": 2299,
      "##법": 2300,
      "##량": 2301,
      "##피": 2302,
      "##갈": 2303,
      "##라": 2304,
      "##떼": 2305,
      "##죽": 2306,
      "##매": 2307,
      "##준": 2308,
      "##마": 2309,
      "##퍼": 2310,
      "##푸": 2311,
      "##딩": 2312,
      "##반": 2313,
      "##2": 2314,
      "##위": 2315,
      "##릭": 2316,
      "##치": 2317,
      "##킨": 2318,
      "##텔": 2319,
      "##랑": 2320,
      "##딱": 2321,
      "##항": 2322,
      "##정": 2323,
      "##문": 2324,
      "##주": 2325,
      "##땅": 2326,
      "##져": 2327,
      "##천": 2328,
      "##0": 2329,
      "##써": 2330,
      "##원": 2331,
      "##달": 2332,
      "##얼": 2333,
      "##짱": 2334,
      "##황": 2335,
      "##도": 2336,
      "##러": 2337,
      "##낙": 2338,
      "##추": 2339,
      "##가": 2340,
      "##닉": 2341,
      "##워": 2342,
      "##터": 2343,
      "##초": 2344,
      "##밥": 2345,
      "##7": 2346,
      "##아": 2347,
      "##유": 2348,
      "##욕": 2349,
      "##크": 2350,
      "##즈": 2351,
      "##샐": 2352,
      "##숯": 2353,
      "##돼": 2354,
      "##덮": 2355,
      "##중": 2356,
      "##전": 2357,
      "##통": 2358,
      "##칼": 2359,
      "##국": 2360,
      "##수": 2361,
      "##소": 2362,
      "##콘": 2363,
      "##뽕": 2364,
      "##차": 2365,
      "##돌": 2366,
      "##쌀": 2367,
      "##R": 2368,
      "##생": 2369,
      "##채": 2370,
      "##태": 2371,
      "##튀": 2372,
      "##각": 2373,
      "##시": 2374,
      "##식": 2375,
      "##야": 2376,
      "##품": 2377,
      "##디": 2378,
      "##테": 2379,
      "##기": 2380,
      "##빈": 2381,
      "##대": 2382,
      "##떡": 2383,
      "##케": 2384,
      "##쿠": 2385,
      "##키": 2386,
      "##슈": 2387,
      "##연": 2388,
      "##타": 2389,
      "##둑": 2390,
      "##비": 2391,
      "##살": 2392,
      "##닭": 2393,
      "##볶": 2394,
      "##음": 2395,
      "##던": 2396,
      "##하": 2397,
      "##자": 2398,
      "##과": 2399,
      "##학": 2400,
      "##불": 2401,
      "##벨": 2402,
      "##벳": 2403,
      "##요": 2404,
      "##엄": 2405,
      "##짬": 2406,
      "##o": 2407,
      "##e": 2408,
      "##란": 2409,
      "##양": 2410,
      "##사": 2411,
      "##백": 2412,
      "##5": 2413,
      "##4": 2414,
      "##g": 2415,
      "##념": 2416,
      "##묵": 2417,
      "##침": 2418,
      "##작": 2419,
      "##돈": 2420,
      "##까": 2421,
      "##뜰": 2422,
      "##1": 2423,
      "##푼": 2424,
      "##김": 2425,
      "##찌": 2426,
      "##운": 2427,
      "##물": 2428,
      "##왕": 2429,
      "##창": 2430,
      "##인": 2431,
      "##안": 2432,
      "##꾸": 2433,
      "##탕": 2434,
      "##찬": 2435,
      "##골": 2436,
      "##구": 2437,
      "##페": 2438,
      "##말": 2439,
      "##티": 2440,
      "##맥": 2441,
      "##센": 2442,
      "##슴": 2443,
      "##파": 2444,
      "##패": 2445,
      "##삼": 2446,
      "##겹": 2447,
      "##숙": 2448,
      "##또": 2449,
      "##동": 2450,
      "##빵": 2451,
      "##우": 2452,
      "##병": 2453,
      "##큼": 2454,
      "##찐": 2455,
      "##앙": 2456,
      "##모": 2457,
      "##젤": 2458,
      "##듬": 2459,
      "##호": 2460,
      "##K": 2461,
      "##c": 2462,
      "##h": 2463,
      "##f": 2464,
      "##r": 2465,
      "##t": 2466,
      "##8": 2467,
      "##만": 2468,
      "##두": 2469,
      "##샌": 2470,
      "##메": 2471,
      "##6": 2472,
      "##배": 2473,
      "##곱": 2474,
      "##곰": 2475,
      "##냠": 2476,
      "##폭": 2477,
      "##탄": 2478,
      "##쭈": 2479,
      "##쯔": 2480,
      "##A": 2481,
      "##N": 2482,
      "##C": 2483,
      "##E": 2484,
      "##T": 2485,
      "##새": 2486,
      "##면": 2487,
      "##윗": 2488,
      "##그": 2489,
      "##후": 2490,
      "##9": 2491,
      "##O": 2492,
      "##M": 2493,
      "##i": 2494,
      "##l": 2495,
      "##설": 2496,
      "##렁": 2497,
      "##부": 2498,
      "##I": 2499,
      "##D": 2500,
      "##커": 2501,
      "##플": 2502,
      "##섯": 2503,
      "##더": 2504,
      "##걸": 2505,
      "##핑": 2506,
      "##강": 2507,
      "##u": 2508,
      "##s": 2509,
      "##a": 2510,
      "##접": 2511,
      "##누": 2512,
      "##는": 2513,
      "##냉": 2514,
      "##갑": 2515,
      "##들": 2516,
      "##론": 2517,
      "##L": 2518,
      "##F": 2519,
      "##칡": 2520,
      "##바": 2521,
      "##브": 2522,
      "##잉": 2523,
      "##번": 2524,
      "##짐": 2525,
      "##징": 2526,
      "##종": 2527,
      "##산": 2528,
      "##송": 2529,
      "##둠": 2530,
      "##다": 2531,
      "##럭": 2532,
      "##k": 2533,
      "##클": 2534,
      "##린": 2535,
      "##와": 2536,
      "##갱": 2537,
      "##액": 2538,
      "##끝": 2539,
      "##내": 2540,
      "##교": 2541,
      "##꼬": 2542,
      "##은": 2543,
      "##편": 2544,
      "##합": 2545,
      "##귀": 2546,
      "##해": 2547,
      "##조": 2548,
      "##p": 2549,
      "##럽": 2550,
      "##콤": 2551,
      "##롤": 2552,
      "##J": 2553,
      "##U": 2554,
      "##G": 2555,
      "##의": 2556,
      "##박": 2557,
      "##믹": 2558,
      "##셋": 2559,
      "##녁": 2560,
      "##너": 2561,
      "##락": 2562,
      "##족": 2563,
      "##례": 2564,
      "##함": 2565,
      "##폐": 2566,
      "##셜": 2567,
      "##n": 2568,
      "##쌈": 2569,
      "##팽": 2570,
      "##뎅": 2571,
      "##섞": 2572,
      "##허": 2573,
      "##월": 2574,
      "##넛": 2575,
      "##베": 2576,
      "##글": 2577,
      "##닐": 2578,
      "##일": 2579,
      "##뼈": 2580,
      "##3": 2581,
      "##분": 2582,
      "##완": 2583,
      "##할": 2584,
      "##컨": 2585,
      "##밀": 2586,
      "##샤": 2587,
      "##춘": 2588,
      "##싹": 2589,
      "##계": 2590,
      "##굴": 2591,
      "##츄": 2592,
      "##덥": 2593,
      "##알": 2594,
      "##선": 2595,
      "##회": 2596,
      "##빔": 2597,
      "##짜": 2598,
      "##끼": 2599,
      "##흥": 2600,
      "##냄": 2601,
      "##먹": 2602,
      "##었": 2603,
      "##엑": 2604,
      "##상": 2605,
      "##랜": 2606,
      "##쓰": 2607,
      "##몽": 2608,
      "##둘": 2609,
      "##체": 2610,
      "##솥": 2611,
      "##순": 2612,
      "##성": 2613,
      "##m": 2614,
      "##b": 2615,
      "##질": 2616,
      "##여": 2617,
      "##판": 2618,
      "##츠": 2619,
      "##틴": 2620,
      "##히": 2621,
      "##멜": 2622,
      "##집": 2623,
      "##퐁": 2624,
      "##듀": 2625,
      "##곤": 2626,
      "##링": 2627,
      "##발": 2628,
      "##을": 2629,
      "##껍": 2630,
      "##앵": 2631,
      "##된": 2632,
      "##톤": 2633,
      "##즐": 2634,
      "##S": 2635,
      "##샬": 2636,
      "##B": 2637,
      "##큐": 2638,
      "##능": 2639,
      "##룬": 2640,
      "##턴": 2641,
      "##꿀": 2642,
      "##똥": 2643,
      "##덕": 2644,
      "##딸": 2645,
      "##잔": 2646,
      "##랙": 2647,
      "##홍": 2648,
      "##쇼": 2649,
      "##콜": 2650,
      "##취": 2651,
      "##깔": 2652,
      "##임": 2653,
      "##청": 2654,
      "##맑": 2655,
      "##공": 2656,
      "##움": 2657,
      "##텐": 2658,
      "##잼": 2659,
      "##잡": 2660,
      "##날": 2661,
      "##뱅": 2662,
      "##필": 2663,
      "##숭": 2664,
      "##빙": 2665,
      "##Y": 2666,
      "##콩": 2667,
      "##있": 2668,
      "##H": 2669,
      "##슨": 2670,
      "##샷": 2671,
      "##투": 2672,
      "##직": 2673,
      "##보": 2674,
      "##델": 2675,
      "##역": 2676,
      "##콕": 2677,
      "##롯": 2678,
      "##랩": 2679,
      "##당": 2680,
      "##렐": 2681,
      "##길": 2682,
      "##˚": 2683,
      "##깐": 2684,
      "##거": 2685,
      "##삭": 2686,
      "##d": 2687,
      "##입": 2688,
      "##머": 2689,
      "##름": 2690,
      "##볼": 2691,
      "##깨": 2692,
      "##를": 2693,
      "##뇽": 2694,
      "##철": 2695,
      "##봄": 2696,
      "##런": 2697,
      "##외": 2698,
      "##켓": 2699,
      "##퀴": 2700,
      "##핫": 2701,
      "##간": 2702,
      "##섬": 2703,
      "##뜨": 2704,
      "##킹": 2705,
      "##석": 2706,
      "##래": 2707,
      "##닝": 2708,
      "##흐": 2709,
      "##헤": 2710,
      "##단": 2711,
      "##저": 2712,
      "##띠": 2713,
      "##술": 2714,
      "##칠": 2715,
      "##씨": 2716,
      "##진": 2717,
      "##룽": 2718,
      "##엔": 2719,
      "##칩": 2720,
      "##쿨": 2721,
      "##핀": 2722,
      "##감": 2723,
      "##귤": 2724,
      "##울": 2725,
      "##V": 2726,
      "##뉴": 2727,
      "##범": 2728,
      "##벅": 2729,
      "##X": 2730,
      "##랭": 2731,
      "##딥": 2732,
      "##꼼": 2733,
      "##씬": 2734,
      "##팟": 2735,
      "##잌": 2736,
      "##본": 2737,
      "##컵": 2738,
      "##탑": 2739,
      "##깡": 2740,
      "##칭": 2741,
      "##윙": 2742,
      "##방": 2743,
      "##뿍": 2744,
      "##딘": 2745,
      "##민": 2746,
      "##류": 2747,
      "##데": 2748,
      "##풍": 2749,
      "##년": 2750,
      "##올": 2751,
      "##잎": 2752,
      "##꼽": 2753,
      "##별": 2754,
      "##특": 2755,
      "##팥": 2756,
      "##점": 2757,
      "##냐": 2758,
      "##v": 2759,
      "##숲": 2760,
      "##절": 2761,
      "##든": 2762,
      "##쇠": 2763,
      "##짖": 2764,
      "##받": 2765,
      "##남": 2766,
      "##경": 2767,
      "##약": 2768,
      "##봉": 2769,
      "##염": 2770,
      "##줄": 2771,
      "##밤": 2772,
      "##틀": 2773,
      "##궈": 2774,
      "##얌": 2775,
      "##옥": 2776,
      "##맛": 2777,
      "##꿔": 2778,
      "##W": 2779,
      "##쥬": 2780,
      "##관": 2781,
      "##벙": 2782,
      "##슉": 2783,
      "##몰": 2784,
      "##낚": 2785,
      "##눈": 2786,
      "##료": 2787,
      "##큰": 2788,
      "##팡": 2789,
      "##흑": 2790,
      "##실": 2791,
      "##쟁": 2792,
      "##쫄": 2793,
      "##향": 2794,
      "##뤼": 2795,
      "##꼐": 2796,
      "##따": 2797,
      "##뭉": 2798,
      "##숑": 2799,
      "##표": 2800,
      "##쉘": 2801,
      "##벤": 2802,
      "##색": 2803,
      "##젠": 2804,
      "##쉐": 2805,
      "##신": 2806,
      "##훈": 2807,
      "##촌": 2808,
      "##w": 2809,
      "##Z": 2810,
      "##y": 2811,
      "##잇": 2812,
      "##언": 2813,
      "##촉": 2814,
      "##펄": 2815,
      "##참": 2816,
      "##규": 2817,
      "##업": 2818,
      "##폼": 2819,
      "##칸": 2820,
      "##난": 2821,
      "##익": 2822,
      "##냑": 2823,
      "##빼": 2824,
      "##님": 2825,
      "##용": 2826,
      "##땡": 2827,
      "##른": 2828,
      "##썸": 2829,
      "##퀸": 2830,
      "##햄": 2831,
      "##팬": 2832,
      "##애": 2833,
      "##뚜": 2834,
      "##넬": 2835,
      "##퓨": 2836,
      "##렉": 2837,
      "##꼴": 2838,
      "##룸": 2839,
      "##뭇": 2840,
      "##암": 2841,
      "##펀": 2842,
      "##틱": 2843,
      "##겟": 2844,
      "##켈": 2845,
      "##찹": 2846,
      "##금": 2847,
      "##싱": 2848,
      "##랏": 2849,
      "##냥": 2850,
      "##솔": 2851,
      "##빕": 2852,
      "##망": 2853,
      "##홉": 2854,
      "##P": 2855,
      "##급": 2856,
      "##램": 2857,
      "##엘": 2858,
      "##곡": 2859,
      "##뗴": 2860,
      "##균": 2861,
      "##속": 2862,
      "##헬": 2863,
      "##빌": 2864,
      "##릿": 2865,
      "##릉": 2866,
      "##펜": 2867,
      "##험": 2868,
      "##북": 2869,
      "##튜": 2870,
      "##붕": 2871,
      "##손": 2872,
      "##혼": 2873,
      "##셀": 2874,
      "##열": 2875,
      "##껑": 2876,
      "##력": 2877,
      "##팔": 2878,
      "##좋": 2879,
      "##릴": 2880,
      "##죠": 2881,
      "##논": 2882,
      "##캅": 2883,
      "##썬": 2884,
      "##증": 2885,
      "##느": 2886,
      "##븐": 2887,
      "##풀": 2888,
      "##젓": 2889,
      "##쵸": 2890,
      "##찔": 2891,
      "##악": 2892,
      "##멘": 2893,
      "##캐": 2894,
      "##낸": 2895,
      "##룡": 2896,
      "##솟": 2897,
      "##쉑": 2898,
      "##쳐": 2899,
      "##팰": 2900,
      "##걀": 2901,
      "##영": 2902,
      "##효": 2903,
      "##께": 2904,
      "##겐": 2905,
      "##므": 2906,
      "##놀": 2907,
      "##뚝": 2908,
      "##변": 2909,
      "##적": 2910,
      "##툴": 2911,
      "##샥": 2912,
      "##쪼": 2913,
      "##z": 2914,
      "##샘": 2915,
      "##폴": 2916,
      "##온": 2917,
      "##펠": 2918,
      "##빛": 2919,
      "##갓": 2920,
      "##ㆍ": 2921,
      "##군": 2922,
      "##챠": 2923,
      "##친": 2924,
      "##션": 2925,
      "##뱃": 2926,
      "##x": 2927,
      "##샹": 2928,
      "##슬": 2929,
      "##렛": 2930,
      "##찰": 2931,
      "##행": 2932,
      "##농": 2933,
      "##널": 2934,
      "##롱": 2935,
      "##밍": 2936,
      "##첨": 2937,
      "##책": 2938,
      "##댄": 2939,
      "##서": 2940,
      "##벼": 2941,
      "##즌": 2942,
      "##쩌": 2943,
      "##빅": 2944,
      "##튤": 2945,
      "##립": 2946,
      "##팀": 2947,
      "##뇨": 2948,
      "##엽": 2949,
      "##건": 2950,
      "##é": 2951,
      "##벽": 2952,
      "##객": 2953,
      "##결": 2954,
      "##셔": 2955,
      "##뿔": 2956,
      "##혜": 2957,
      "##켸": 2958,
      "##쁘": 2959,
      "##광": 2960,
      "##썅": 2961,
      "##뤄": 2962,
      "##득": 2963,
      "##쫑": 2964,
      "##뿌": 2965,
      "##격": 2966,
      "##멧": 2967,
      "##긴": 2968,
      "##녕": 2969,
      "##얏": 2970,
      "##목": 2971,
      "##맨": 2972,
      "##돗": 2973,
      "##웃": 2974,
      "##즉": 2975,
      "##팩": 2976,
      "##둣": 2977,
      "##뽀": 2978,
      "##팝": 2979,
      "##싼": 2980,
      "##충": 2981,
      "##쥴": 2982,
      "##컬": 2983,
      "##뀌": 2984,
      "##옻": 2985,
      "##얀": 2986,
      "##처": 2987,
      "##평": 2988,
      "##끌": 2989,
      "##첸": 2990,
      "##텝": 2991,
      "##밸": 2992,
      "##팸": 2993,
      "##팅": 2994,
      "##ワ": 2995,
      "##ビ": 2996,
      "##쌥": 2997,
      "##밭": 2998,
      "##뗄": 2999,
      "##려": 3000,
      "##견": 3001,
      "##탁": 3002,
      "##령": 3003,
      "##곁": 3004,
      "##최": 3005,
      "##뺀": 3006,
      "##짝": 3007,
      "##록": 3008,
      "##탱": 3009,
      "##먄": 3010,
      "##펌": 3011,
      "##j": 3012,
      "##빨": 3013,
      "##픽": 3014,
      "##펙": 3015,
      "##펫": 3016,
      "##탈": 3017,
      "##앤": 3018,
      "##삽": 3019,
      "##덜": 3020,
      "##형": 3021,
      "##잣": 3022,
      "##룹": 3023,
      "##첼": 3024,
      "##쌍": 3025,
      "##텁": 3026,
      "##찝": 3027,
      "##랄": 3028,
      "##겁": 3029,
      "##벡": 3030,
      "##멀": 3031,
      "##즙": 3032,
      "##줏": 3033,
      "##뒤": 3034,
      "##꽈": 3035,
      "##명": 3036,
      "##궁": 3037,
      "##쁨": 3038,
      "##똑": 3039,
      "##담": 3040,
      "##앞": 3041,
      "##닷": 3042,
      "##람": 3043,
      "##돔": 3044,
      "##쑥": 3045,
      "##셰": 3046,
      "##재": 3047,
      "##톡": 3048,
      "##뮤": 3049,
      "##숫": 3050,
      "##샵": 3051,
      "##컷": 3052,
      "##콧": 3053,
      "##것": 3054,
      "##틸": 3055,
      "##켜": 3056,
      "##끈": 3057,
      "##멸": 3058,
      "##옹": 3059,
      "##옐": 3060,
      "##휴": 3061,
      "##헨": 3062,
      "##쏙": 3063,
      "##엣": 3064,
      "##릇": 3065,
      "##납": 3066,
      "##흘": 3067,
      "##굿": 3068,
      "##깍": 3069,
      "##뽈": 3070,
      "##엉": 3071,
      "##앗": 3072,
      "##희": 3073,
      "##휘": 3074,
      "##딕": 3075,
      "##칫": 3076,
      "##뿡": 3077,
      "##환": 3078,
      "##넣": 3079,
      "##Q": 3080,
      "##폰": 3081,
      "##현": 3082,
      "##닥": 3083,
      "##독": 3084,
      "##으": 3085,
      "##웨": 3086,
      "##딜": 3087,
      "##´": 3088,
      "##뇌": 3089,
      "##얄": 3090,
      "##딤": 3091,
      "##믈": 3092,
      "##깃": 3093,
      "##맞": 3094,
      "##싸": 3095,
      "##ㄷ": 3096,
      "##쎈": 3097,
      "##쥐": 3098,
      "##꽁": 3099,
      "##율": 3100,
      "##권": 3101,
      "##녹": 3102,
      "##낫": 3103,
      "##넘": 3104,
      "##쏘": 3105,
      "##뜻": 3106,
      "##쁠": 3107,
      "##륄": 3108,
      "##덩": 3109,
      "##련": 3110,
      "##댕": 3111,
      "##홀": 3112,
      "##녀": 3113,
      "##촛": 3114,
      "##윈": 3115,
      "##멍": 3116,
      "##롬": 3117,
      "##숄": 3118,
      "##짠": 3119,
      "##휠": 3120,
      "##뷰": 3121,
      "##덤": 3122,
      "##겨": 3123,
      "##낑": 3124,
      "##왈": 3125,
      "##둔": 3126,
      "##벌": 3127,
      "##랫": 3128,
      "##맵": 3129,
      "##존": 3130,
      "##삐": 3131,
      "##했": 3132,
      "##않": 3133,
      "##맬": 3134,
      "##늗": 3135,
      "##챔": 3136,
      "##럿": 3137,
      "##졸": 3138,
      "##낭": 3139,
      "##멕": 3140,
      "##럼": 3141,
      "##엠": 3142,
      "##퀘": 3143,
      "##쪽": 3144,
      "##뀔": 3145,
      "##엥": 3146,
      "##쫀": 3147,
      "##씩": 3148,
      "##쓸": 3149,
      "##햇": 3150,
      "##뉘": 3151,
      "##캔": 3152,
      "##썰": 3153,
      "##뻬": 3154,
      "##습": 3155,
      "##좌": 3156,
      "##둥": 3157,
      "##쨈": 3158,
      "##럴": 3159,
      "##섭": 3160,
      "##쿱": 3161,
      "##룻": 3162,
      "##먼": 3163,
      "##잭": 3164,
      "##×": 3165,
      "##튼": 3166,
      "##택": 3167,
      "##넌": 3168,
      "##붐": 3169,
      "##혈": 3170,
      "##예": 3171,
      "##콥": 3172,
      "##큘": 3173,
      "##꺠": 3174,
      "##돍": 3175,
      "##퀵": 3176,
      "##팜": 3177,
      "##핵": 3178,
      "##층": 3179,
      "##켄": 3180,
      "##총": 3181,
      "##놈": 3182,
      "##뮬": 3183,
      "##십": 3184,
      "##룩": 3185,
      "##꿍": 3186,
      "##뢰": 3187,
      "##잠": 3188,
      "##킷": 3189,
      "##잧": 3190,
      "##뒷": 3191,
      "##숟": 3192,
      "##펭": 3193,
      "##착": 3194,
      "##엎": 3195,
      "##없": 3196,
      "##억": 3197,
      "##닛": 3198,
      "##출": 3199,
      "##묿": 3200,
      "##짤": 3201,
      "##햐": 3202,
      "##뽁": 3203,
      "##랍": 3204,
      "##칲": 3205,
      "##슷": 3206,
      "##웅": 3207,
      "##컴": 3208,
      "##돤": 3209,
      "##덴": 3210,
      "##붜": 3211,
      "##펨": 3212,
      "##끄": 3213,
      "##뭋": 3214,
      "##끔": 3215,
      "##솬": 3216,
      "##릐": 3217,
      "##뚱": 3218,
      "##때": 3219,
      "##옌": 3220,
      "##뮈": 3221,
      "##되": 3222,
      "##극": 3223,
      "##흔": 3224,
      "##활": 3225,
      "##긋": 3226,
      "##킬": 3227,
      "##깻": 3228,
      "##º": 3229,
      "##쇄": 3230,
      "##뻤": 3231,
      "##낵": 3232,
      "##팍": 3233,
      "##탠": 3234,
      "##뷔": 3235,
      "##렘": 3236,
      "##댓": 3237,
      "##풋": 3238,
      "##캡": 3239,
      "##숴": 3240,
      "##헌": 3241,
      "##펩": 3242,
      "##°": 3243,
      "##캬": 3244,
      "##캣": 3245,
      "##윢": 3246,
      "##뵈": 3247,
      "##찍": 3248,
      "##빗": 3249,
      "##힘": 3250,
      "##킥": 3251,
      "##꽌": 3252,
      "##멤": 3253,
      "##싯": 3254,
      "##싣": 3255,
      "##캉": 3256,
      "##넷": 3257,
      "##갤": 3258,
      "##많": 3259,
      "##붓": 3260,
      "##픈": 3261,
      "##맡": 3262,
      "##퓸": 3263,
      "##쨔": 3264,
      "##쿼": 3265,
      "##렙": 3266,
      "##짚": 3267,
      "##눌": 3268,
      "##쿡": 3269,
      "##옵": 3270,
      "##늑": 3271,
      "##좀": 3272,
      "##혀": 3273,
      "##쌩": 3274,
      "##똠": 3275,
      "##봇": 3276,
      "##략": 3277,
      "##텍": 3278,
      "##찡": 3279,
      "##톨": 3280,
      "##쥰": 3281,
      "##낄": 3282,
      "##슐": 3283,
      "##톰": 3284,
      "##곷": 3285,
      "##옛": 3286,
      "##툼": 3287,
      "##쿤": 3288,
      "##뽂": 3289,
      "##㎖": 3290,
      "##똔": 3291,
      "##흰": 3292,
      "##칵": 3293,
      "##탐": 3294,
      "##™": 3295,
      "##ℓ": 3296,
      "##q": 3297,
      "##춤": 3298,
      "##룰": 3299,
      "##Ⅱ": 3300,
      "##캘": 3301,
      "##쏭": 3302,
      "##쟈": 3303,
      "##벗": 3304,
      "##뎀": 3305,
      "##쫇": 3306,
      "##왁": 3307,
      "##즘": 3308,
      "##퇴": 3309,
      "##끓": 3310,
      "##뚤": 3311,
      "##륏": 3312,
      "##잘": 3313,
      "##꿈": 3314,
      "##뤠": 3315,
      "##킴": 3316,
      "##밴": 3317,
      "##읻": 3318,
      "##푀": 3319,
      "##셉": 3320,
      "##텃": 3321,
      "##웰": 3322,
      "##꼰": 3323,
      "##썽": 3324,
      "##승": 3325,
      "##씽": 3326,
      "##®": 3327,
      "##쎄": 3328,
      "##늄": 3329,
      "##왓": 3330,
      "##릅": 3331,
      "##훼": 3332,
      "##껨": 3333,
      "##랴": 3334,
      "##띨": 3335,
      "##솜": 3336,
      "##쭘": 3337,
      "##뤌": 3338,
      "##맹": 3339,
      "##릎": 3340,
      "##줘": 3341,
      "##쌉": 3342,
      "##럳": 3343,
      "##첵": 3344,
      "##꺼": 3345,
      "##꽉": 3346,
      "##숀": 3347,
      "##쭉": 3348,
      "##맘": 3349,
      "##덻": 3350,
      "##핍": 3351,
      "##얹": 3352,
      "##쾰": 3353,
      "##넥": 3354,
      "##렝": 3355,
      "##콰": 3356,
      "##밖": 3357,
      "##ㄹ": 3358,
      "##떙": 3359,
      "##챱": 3360,
      "##ㅍ": 3361,
      "##븡": 3362,
      "##텡": 3363,
      "##늬": 3364,
      "##퀄": 3365,
      "##욱": 3366,
      "##팦": 3367,
      "##섹": 3368,
      "##곻": 3369,
      "##밋": 3370,
      "##꺽": 3371,
      "##＋": 3372,
      "##못": 3373,
      "##낮": 3374,
      "##첫": 3375,
      "##훠": 3376,
      "##괴": 3377,
      "##쑤": 3378,
      "##엇": 3379,
      "##읍": 3380,
      "##쏠": 3381,
      "##삔": 3382,
      "##벵": 3383,
      "##꽐": 3384,
      "##째": 3385,
      "##녜": 3386,
      "##힌": 3387,
      "##템": 3388,
      "##촨": 3389,
      "##젝": 3390,
      "##ù": 3391,
      "##밧": 3392,
      "##헛": 3393,
      "##갯": 3394,
      "##톳": 3395,
      "##륜": 3396,
      "##캌": 3397,
      "##넨": 3398,
      "##둬": 3399,
      "##쿵": 3400,
      "##볏": 3401,
      "##툰": 3402,
      "##튁": 3403,
      "##è": 3404,
      "##벋": 3405,
      "##떢": 3406,
      "##쨰": 3407,
      "##딹": 3408,
      "##윤": 3409,
      "##쑝": 3410,
      "##촐": 3411,
      "##롭": 3412,
      "##펑": 3413,
      "##싟": 3414,
      "##씸": 3415,
      "##놋": 3416,
      "##Ⅰ": 3417,
      "##붸": 3418,
      "##낼": 3419,
      "##및": 3420,
      "##핼": 3421,
      "##∙": 3422,
      "##젖": 3423,
      "##촬": 3424,
      "##멋": 3425,
      "##찾": 3426,
      "##협": 3427,
      "##흙": 3428,
      "##ㅑ": 3429,
      "##ㄴ": 3430,
      "##펍": 3431,
      "##닮": 3432,
      "##℃": 3433,
      "##윌": 3434,
      "##퍄": 3435,
      "##값": 3436,
      "##빽": 3437,
      "##갸": 3438,
      "##녘": 3439,
      "##랗": 3440,
      "##겠": 3441,
      "##겔": 3442,
      "##챙": 3443,
      "##핸": 3444,
      "##같": 3445,
      "##②": 3446,
      "##킈": 3447,
      "##헝": 3448,
      "##떨": 3449,
      "##쳬": 3450,
      "##짓": 3451,
      "##띰": 3452,
      "##톱": 3453,
      "##힐": 3454,
      "##빤": 3455,
      "##흡": 3456,
      "##검": 3457,
      "##확": 3458,
      "##춧": 3459,
      "##챗": 3460,
      "##맷": 3461,
      "##롸": 3462,
      "##났": 3463,
      "##뿅": 3464,
      "##돋": 3465,
      "##돕": 3466,
      "##뚠": 3467,
      "##멵": 3468,
      "##깬": 3469,
      "##굽": 3470,
      "##뻐": 3471,
      "##축": 3472,
      "##쌕": 3473,
      "##걔": 3474,
      "##틔": 3475,
      "##딴": 3476,
      "##첩": 3477,
      "##솣": 3478,
      "##렇": 3479,
      "##픔": 3480,
      "##껌": 3481,
      "##뽐": 3482,
      "##も": 3483,
      "##や": 3484,
      "##し": 3485,
      "##잽": 3486,
      "##몸": 3487,
      "##척": 3488,
      "##쿄": 3489,
      "##륭": 3490,
      "##걉": 3491,
      "##빚": 3492,
      "##묜": 3493,
      "##깜": 3494,
      "##턱": 3495,
      "##괜": 3496,
      "##찮": 3497,
      "##켤": 3498,
      "##넓": 3499,
      "##꿋": 3500,
      "##쩡": 3501,
      "##쩍": 3502,
      "##½": 3503,
      "##뭐": 3504,
      "##뻥": 3505,
      "##똘": 3506,
      "##쉔": 3507,
      "##옴": 3508,
      "##봤": 3509,
      "##펃": 3510,
      "##댜": 3511,
      "##짭": 3512,
      "##엡": 3513,
      "##낌": 3514,
      "##릌": 3515,
      "##붉": 3516,
      "##묘": 3517,
      "##틑": 3518,
      "##춰": 3519,
      "##둰": 3520,
      "##훌": 3521,
      "##숰": 3522,
      "##늉": 3523,
      "##퉁": 3524,
      "##웜": 3525,
      "##궤": 3526,
      "##셥": 3527,
      "##ㅇ": 3528,
      "##곶": 3529,
      "##졀": 3530,
      "##쑈": 3531,
      "##륀": 3532,
      "##헥": 3533,
      "##팁": 3534,
      "##쁜": 3535,
      "##뇩": 3536,
      "##춥": 3537,
      "##웍": 3538,
      "##뇰": 3539,
      "##퍈": 3540,
      "##뜸": 3541,
      "##쁙": 3542,
      "##텀": 3543,
      "##땀": 3544,
      "##뭄": 3545,
      "##굷": 3546,
      "##겅": 3547,
      "##곹": 3548,
      "##뺴": 3549,
      "##왔": 3550,
      "##홈": 3551,
      "##숨": 3552,
      "##퇘": 3553,
      "##힙": 3554,
      "##깁": 3555,
      "##벚": 3556,
      "##셈": 3557,
      "##냘": 3558,
      "##봐": 3559,
      "##띵": 3560,
      "##륙": 3561,
      "##쾌": 3562,
      "##샨": 3563,
      "##툭": 3564,
      "##젼": 3565,
      "##줍": 3566,
      "##밑": 3567,
      "##맄": 3568,
      "##압": 3569,
      "##꾹": 3570,
      "##헷": 3571,
      "##혹": 3572,
      "##맆": 3573,
      "##퓰": 3574,
      "##쿰": 3575,
      "##껩": 3576,
      "##퓌": 3577,
      "##±": 3578,
      "##멈": 3579,
      "##샃": 3580,
      "##せ": 3581,
      "##쟝": 3582,
      "##땐": 3583,
      "##듯": 3584,
      "##닌": 3585,
      "##컹": 3586,
      "##맀": 3587,
      "##뺘": 3588,
      "##응": 3589,
      "##뻔": 3590,
      "##답": 3591,
      "##뜌": 3592,
      "##듭": 3593,
      "##È": 3594,
      "##굑": 3595,
      "##쩨": 3596,
      "##줌": 3597,
      "##♥": 3598,
      "##뽑": 3599,
      "##듳": 3600,
      "##뷜": 3601,
      "##캠": 3602,
      "##밆": 3603,
      "##걋": 3604,
      "##뛰": 3605,
      "##숏": 3606,
      "##뺸": 3607,
      "##꼭": 3608,
      "##ㅋ": 3609,
      "##셍": 3610,
      "##셸": 3611,
      "##쉥": 3612,
      "##뗌": 3613,
      "##딧": 3614,
      "##릠": 3615,
      "##괄": 3616,
      "##삶": 3617,
      "##슾": 3618,
      "##랸": 3619,
      "##팻": 3620,
      "##떠": 3621,
      "##닙": 3622,
      "##긍": 3623,
      "##Û": 3624,
      "##É": 3625,
      "##얗": 3626,
      "##５": 3627,
      "##젱": 3628,
      "##깉": 3629,
      "##픙": 3630,
      "##빰": 3631,
      "##쩔": 3632,
      "##탭": 3633,
      "##쩀": 3634,
      "##ᆞ": 3635,
      "##팃": 3636,
      "##봌": 3637,
      "##ㄲ": 3638,
      "##햡": 3639,
      "##융": 3640,
      "##겸": 3641,
      "##꾼": 3642,
      "##슝": 3643,
      "##삿": 3644,
      "##흠": 3645,
      "##뺑": 3646,
      "##털": 3647,
      "##욜": 3648,
      "##삺": 3649,
      "##슭": 3650,
      "##썩": 3651,
      "##렬": 3652,
      "##꽂": 3653,
      "##삠": 3654,
      "##슘": 3655,
      "##긅": 3656,
      "##덧": 3657,
      "##밝": 3658,
      "##뭏": 3659,
      "##뜯": 3660,
      "##먀": 3661,
      "##횟": 3662,
      "##쥘": 3663,
      "##쳤": 3664,
      "##텟": 3665,
      "##퍽": 3666,
      "##ä": 3667,
      "##캄": 3668,
      "##ㄱ": 3669,
      "##웹": 3670,
      "##졔": 3671,
      "##늩": 3672,
      "##굯": 3673,
      "##뻘": 3674,
      "##★": 3675,
      "##멱": 3676,
      "##껏": 3677,
      "##톸": 3678,
      "##겉": 3679,
      "##숩": 3680,
      "##ㅅ": 3681,
      "##꺄": 3682,
      "##썪": 3683,
      "##쯩": 3684,
      "##샴": 3685,
      "##ㄺ": 3686,
      "##륵": 3687,
      "##렵": 3688,
      "##퀼": 3689,
      "##힛": 3690,
      "##끊": 3691,
      "##풔": 3692,
      "##걱": 3693,
      "##았": 3694,
      "##û": 3695,
      "##겜": 3696,
      "##쿸": 3697,
      "##슽": 3698,
      "##맴": 3699,
      "##믄": 3700,
      "##될": 3701,
      "##켑": 3702,
      "##닾": 3703,
      "##쏟": 3704,
      "##솦": 3705,
      "##핏": 3706,
      "##쏨": 3707,
      "##쫘": 3708,
      "##쌘": 3709,
      "##멩": 3710,
      "##굼": 3711,
      "##킅": 3712,
      "##넝": 3713,
      "##눔": 3714,
      "##썹": 3715,
      "##넵": 3716,
      "##잍": 3717,
      "##앨": 3718,
      "##츼": 3719,
      "##끗": 3720,
      "##텅": 3721,
      "##넉": 3722,
      "##볍": 3723,
      "##맠": 3724,
      "##똰": 3725,
      "##땃": 3726,
      "##궐": 3727,
      "##훙": 3728,
      "##렡": 3729,
      "##씰": 3730,
      "##윽": 3731,
      "##삥": 3732,
      "##덷": 3733,
      "##댁": 3734,
      "##찻": 3735,
      "##녑": 3736,
      "##ﾞ": 3737,
      "##ｰ": 3738,
      "##ﾙ": 3739,
      "##눅": 3740,
      "##걷": 3741,
      "##벱": 3742,
      "##퀀": 3743,
      "##듄": 3744,
      "##쾅": 3745,
      "##츨": 3746,
      "##떵": 3747,
      "##뼌": 3748,
      "##씻": 3749,
      "##읨": 3750,
      "##겡": 3751,
      "##쟌": 3752,
      "##윅": 3753,
      "##윔": 3754,
      "##꺾": 3755,
      "##틹": 3756,
      "##낡": 3757,
      "##볿": 3758,
      "##며": 3759,
      "##겆": 3760,
      "##칙": 3761,
      "##옭": 3762,
      "##쉴": 3763,
      "##틋": 3764,
      "##싶": 3765,
      "##웽": 3766,
      "##앋": 3767,
      "##팣": 3768,
      "##쉽": 3769,
      "##옷": 3770,
      "##뗼": 3771,
      "##넙": 3772,
      "##팉": 3773,
      "##ま": 3774,
      "##き": 3775,
      "##ゅ": 3776,
      "##う": 3777,
      "##り": 3778,
      "##땜": 3779,
      "##뽄": 3780,
      "##뤨": 3781,
      "##①": 3782,
      "##룁": 3783,
      "##겥": 3784,
      "##꿩": 3785,
      "##→": 3786,
      "##샙": 3787,
      "##률": 3788,
      "##꽥": 3789,
      "##룤": 3790,
      "##낱": 3791,
      "##휭": 3792,
      "##퐈": 3793,
      "##빳": 3794,
      "##돏": 3795,
      "##엌": 3796,
      "##슁": 3797,
      "##웬": 3798,
      "##●": 3799,
      "##퍅": 3800,
      "##챤": 3801,
      "##몪": 3802,
      "##６": 3803,
      "##솝": 3804,
      "##됨": 3805,
      "##뤽": 3806,
      "##뷸": 3807,
      "##쯤": 3808,
      "##삷": 3809,
      "##ㅢ": 3810,
      "##먕": 3811,
      "##헐": 3812,
      "##즡": 3813,
      "##욘": 3814,
      "##귄": 3815,
      "##뭥": 3816,
      "##짼": 3817,
      "##듦": 3818,
      "##앏": 3819,
      "##쌰": 3820,
      "##ん": 3821,
      "##믁": 3822,
      "##갬": 3823,
      "##탤": 3824,
      "##뱝": 3825,
      "##믕": 3826,
      "##툽": 3827,
      "##깅": 3828,
      "##왼": 3829,
      "##ㅗ": 3830,
      "##췻": 3831,
      "##앉": 3832,
      "##ㅔ": 3833,
      "##죈": 3834,
      "##듐": 3835,
      "##볜": 3836,
      "##팢": 3837,
      "##깊": 3838,
      "##팓": 3839,
      "##뱡": 3840,
      "##촵": 3841,
      "##캰": 3842,
      "##뉵": 3843,
      "##듈": 3844,
      "##ㅐ": 3845,
      "##ー": 3846,
      "##メ": 3847,
      "##ン": 3848,
      "##릣": 3849,
      "##됩": 3850,
      "##밟": 3851,
      "##봅": 3852,
      "##ㅣ": 3853,
      "##쨩": 3854,
      "##밲": 3855,
      "##렍": 3856,
      "##밈": 3857,
      "##럇": 3858,
      "##켙": 3859,
      "##랠": 3860,
      "##ャ": 3861,
      "##シ": 3862,
      "##ュ": 3863,
      "##쭤": 3864,
      "##탬": 3865,
      "##낳": 3866,
      "##픞": 3867,
      "##탸": 3868,
      "##숍": 3869,
      "##젊": 3870,
      "##잖": 3871,
      "##캇": 3872,
      "##럵": 3873,
      "##빡": 3874,
      "##푹": 3875,
      "##틈": 3876,
      "##깽": 3877,
      "##둗": 3878,
      "##셞": 3879,
      "##꼅": 3880,
      "##츰": 3881,
      "##츤": 3882,
      "##끽": 3883,
      "##획": 3884,
      "##앱": 3885,
      "##긑": 3886,
      "##셡": 3887,
      "##갛": 3888,
      "##낀": 3889,
      "##믐": 3890,
      "##묶": 3891,
      "##헵": 3892,
      "##쏸": 3893,
      "##뿐": 3894,
      "##갍": 3895,
      "##솨": 3896,
      "##즏": 3897,
      "##쑨": 3898,
      "##팛": 3899,
      "##뎨": 3900,
      "##싫": 3901,
      "##휀": 3902,
      "##끛": 3903,
      "##ㅁ": 3904,
      "##슻": 3905,
      "##띤": 3906,
      "##넡": 3907,
      "##껴": 3908,
      "##꿉": 3909,
      "##윇": 3910,
      "##뫼": 3911,
      "##즞": 3912,
      "##먁": 3913,
      "##폿": 3914,
      "##Â": 3915,
      "##앰": 3916,
      "##ㅡ": 3917,
      "##뷴": 3918,
      "##꼿": 3919,
      "##덟": 3920,
      "##뿜": 3921,
      "##욺": 3922,
      "##븥": 3923,
      "##떄": 3924,
      "##셕": 3925,
      "##넹": 3926,
      "##뜬": 3927,
      "##헴": 3928,
      "##뉼": 3929,
      "##0g": 3930,
      "##라떼": 3931,
      "##고기": 3932,
      "##ml": 3933,
      "##볶음": 3934,
      "치즈": 3935,
      "##CE": 3936,
      "ICE": 3937,
      "1인": 3938,
      "##이드": 3939,
      "##0ml": 3940,
      "##찌개": 3941,
      "##국수": 3942,
      "##00g": 3943,
      "##OT": 3944,
      "카페": 3945,
      "##구이": 3946,
      "##이스": 3947,
      "2인": 3948,
      "HOT": 3949,
      "##갈비": 3950,
      "세트": 3951,
      "##이크": 3952,
      "##치킨": 3953,
      "김치": 3954,
      "##치즈": 3955,
      "라떼": 3956,
      "##튀김": 3957,
      "##메리": 3958,
      "##ot": 3959,
      "해물": 3960,
      "##카노": 3961,
      "##메리카노": 3962,
      "##만두": 3963,
      "##새우": 3964,
      "소주": 3965,
      "새우": 3966,
      "아메리카노": 3967,
      "레몬": 3968,
      "##50g": 3969,
      "##세트": 3970,
      "##추가": 3971,
      "##덮밥": 3972,
      "매운": 3973,
      "##메뉴": 3974,
      "##피자": 3975,
      "맥주": 3976,
      "1인분": 3977,
      "##ar": 3978,
      "치킨": 3979,
      "모듬": 3980,
      "##수육": 3981,
      "자몽": 3982,
      "##볶이": 3983,
      "##마리": 3984,
      "##러드": 3985,
      "##정식": 3986,
      "##냉면": 3987,
      "##사리": 3988,
      "한우": 3989,
      "음료": 3990,
      "##까스": 3991,
      "##00ml": 3992,
      "##베리": 3993,
      "##짬뽕": 3994,
      "##ce": 3995,
      "##전골": 3996,
      "아이스": 3997,
      "##이트": 3998,
      "##닐라": 3999,
      "추가": 4000,
      "##스타": 4001,
      "##징어": 4002,
      "##김밥": 4003,
      "##두부": 4004,
      "200g": 4005,
      "크림": 4006,
      "바닐라": 4007,
      "##기밥": 4008,
      "순살": 4009,
      "##치노": 4010,
      "공기밥": 4011,
      "비빔": 4012,
      "##에이드": 4013,
      "##크림": 4014,
      "##걸리": 4015,
      "딸기": 4016,
      "볶음": 4017,
      "150g": 4018,
      "##무디": 4019,
      "##볶음밥": 4020,
      "계란": 4021,
      "수제": 4022,
      "##라멜": 4023,
      "##불고기": 4024,
      "##겹살": 4025,
      "##le": 4026,
      "18": 4027,
      "청하": 4028,
      "##김치": 4029,
      "##맥주": 4030,
      "10": 4031,
      "감자": 4032,
      "##테이크": 4033,
      "카페라떼": 4034,
      "##비빔": 4035,
      "세트메뉴": 4036,
      "에이드": 4037,
      "##푸치노": 4038,
      "카라멜": 4039,
      "밀크": 4040,
      "3인": 4041,
      "##거트": 4042,
      "##우동": 4043,
      "ICED": 4044,
      "##이상": 4045,
      "콜라": 4046,
      "참치": 4047,
      "초코": 4048,
      "양념": 4049,
      "##장찌개": 4050,
      "##프레": 4051,
      "소고기": 4052,
      "연어": 4053,
      "블루": 4054,
      "12": 4055,
      "돼지": 4056,
      "##pc": 4057,
      "##스트": 4058,
      "오징어": 4059,
      "샐러드": 4060,
      "음료수": 4061,
      "##이다": 4062,
      "##구마": 4063,
      "##al": 4064,
      "블랙": 4065,
      "삼선": 4066,
      "막걸리": 4067,
      "##비빔밥": 4068,
      "##초밥": 4069,
      "##마토": 4070,
      "볶음밥": 4071,
      "오리": 4072,
      "고추": 4073,
      "##레이": 4074,
      "파스타": 4075,
      "180g": 4076,
      "##pcs": 4077,
      "에스": 4078,
      "##모카": 4079,
      "2인이상": 4080,
      "##프레소": 4081,
      "갈비": 4082,
      "피자": 4083,
      "차돌": 4084,
      "##떡볶이": 4085,
      "##라면": 4086,
      "4인": 4087,
      "낙지": 4088,
      "사이다": 4089,
      "에스프레소": 4090,
      "##00": 4091,
      "##무침": 4092,
      "##다리": 4093,
      "망고": 4094,
      "고구마": 4095,
      "카푸치노": 4096,
      "제육": 4097,
      "프라": 4098,
      "야채": 4099,
      "500ml": 4100,
      "##5ml": 4101,
      "콜드": 4102,
      "밀크티": 4103,
      "토마토": 4104,
      "베이": 4105,
      "유자": 4106,
      "##렌지": 4107,
      "##ge": 4108,
      "##ott": 4109,
      "##la": 4110,
      "전복": 4111,
      "##50ml": 4112,
      "##말이": 4113,
      "##eg": 4114,
      "광어": 4115,
      "블루베리": 4116,
      "그린": 4117,
      "Ice": 4118,
      "##ul": 4119,
      "깐풍": 4120,
      "우동": 4121,
      "라면": 4122,
      "##아또": 4123,
      "##돈까스": 4124,
      "스테이크": 4125,
      "##짜장": 4126,
      "녹차": 4127,
      "##시미": 4128,
      "##ottle": 4129,
      "##그레이": 4130,
      "##et": 4131,
      "허니": 4132,
      "김치찌개": 4133,
      "##in": 4134,
      "##ET": 4135,
      "불고기": 4136,
      "순대": 4137,
      "##브루": 4138,
      "##스무디": 4139,
      "페퍼": 4140,
      "얼그레이": 4141,
      "##ular": 4142,
      "##egular": 4143,
      "된장찌개": 4144,
      "##나나": 4145,
      "카페모카": 4146,
      "##배기": 4147,
      "간장": 4148,
      "요거트": 4149,
      "##조림": 4150,
      "모카": 4151,
      "##족발": 4152,
      "과일": 4153,
      "##er": 4154,
      "##페셜": 4155,
      "##프라": 4156,
      "##분자": 4157,
      "##마일": 4158,
      "버섯": 4159,
      "오렌지": 4160,
      "00": 4161,
      "바닐라라떼": 4162,
      "##탕수육": 4163,
      "##주스": 4164,
      "Hot": 4165,
      "##콜릿": 4166,
      "콜드브루": 4167,
      "매콤": 4168,
      "##초코": 4169,
      "##모마일": 4170,
      "만두": 4171,
      "얼큰": 4172,
      "##an": 4173,
      "##룽지": 4174,
      "##arge": 4175,
      "짬뽕": 4176,
      "ice": 4177,
      "##카레": 4178,
      "탕수육": 4179,
      "##샐러드": 4180,
      "화이트": 4181,
      "정식": 4182,
      "베이컨": 4183,
      "스무디": 4184,
      "Regular": 4185,
      "##라이드": 4186,
      "##감자": 4187,
      "고기": 4188,
      "플레": 4189,
      "두부": 4190,
      "30": 4191,
      "복분자": 4192,
      "##꼬치": 4193,
      "##AR": 4194,
      "계절": 4195,
      "11": 4196,
      "카스": 4197,
      "##라이스": 4198,
      "마늘": 4199,
      "##라우": 4200,
      "##삼겹살": 4201,
      "##꾸미": 4202,
      "##ss": 4203,
      "점심": 4204,
      "##등심": 4205,
      "매운맛": 4206,
      "##끼아또": 4207,
      "##국밥": 4208,
      "##매운": 4209,
      "##민트": 4210,
      "##먹밥": 4211,
      "##삼겹": 4212,
      "##all": 4213,
      "##소스": 4214,
      "##버거": 4215,
      "스파": 4216,
      "생맥주": 4217,
      "SET": 4218,
      "Large": 4219,
      "##곱창": 4220,
      "##보쌈": 4221,
      "##ea": 4222,
      "##양념": 4223,
      "아이스티": 4224,
      "##드위": 4225,
      "##드위치": 4226,
      "돈까스": 4227,
      "##on": 4228,
      "그린티": 4229,
      "##순대": 4230,
      "떡볶이": 4231,
      "아구": 4232,
      "냉면": 4233,
      "##장국": 4234,
      "##cc": 4235,
      "hot": 4236,
      "##칼국수": 4237,
      "##개장": 4238,
      "##뱅이": 4239,
      "제주": 4240,
      "##테이": 4241,
      "보쌈": 4242,
      "##포도": 4243,
      "Bottle": 4244,
      "허브": 4245,
      "삼겹살": 4246,
      "##과일": 4247,
      "##낙지": 4248,
      "초콜릿": 4249,
      "15": 4250,
      "##세주": 4251,
      "2인분": 4252,
      "##이슬": 4253,
      "##테이토": 4254,
      "##숭아": 4255,
      "오뎅": 4256,
      "백세주": 4257,
      "##오리": 4258,
      "##밀크": 4259,
      "##커피": 4260,
      "계란찜": 4261,
      "짜장": 4262,
      "커피": 4263,
      "플레인": 4264,
      "등심": 4265,
      "순두부": 4266,
      "칠리": 4267,
      "하이": 4268,
      "##해물": 4269,
      "비빔냉면": 4270,
      "페퍼민트": 4271,
      "##오징어": 4272,
      "오리지": 4273,
      "더블": 4274,
      "물냉면": 4275,
      "##버섯": 4276,
      "##닭발": 4277,
      "100g": 4278,
      "스페셜": 4279,
      "로제": 4280,
      "바나나": 4281,
      "##모듬": 4282,
      "튀김": 4283,
      "청포도": 4284,
      "동태": 4285,
      "미니": 4286,
      "후라이드": 4287,
      "##림프": 4288,
      "민트": 4289,
      "##돼지": 4290,
      "반반": 4291,
      "부대": 4292,
      "##lass": 4293,
      "육회": 4294,
      "클라우": 4295,
      "##케이크": 4296,
      "복숭아": 4297,
      "레드": 4298,
      "##해장국": 4299,
      "화요": 4300,
      "클라우드": 4301,
      "##이즐": 4302,
      "##량주": 4303,
      "##요거트": 4304,
      "##스테이크": 4305,
      "사리": 4306,
      "16": 4307,
      "테라": 4308,
      "헤이즐": 4309,
      "##리탕": 4310,
      "##사시미": 4311,
      "참이슬": 4312,
      "한마리": 4313,
      "##콜라": 4314,
      "##라이": 4315,
      "##산물": 4316,
      "##잡채": 4317,
      "##마요": 4318,
      "새우튀김": 4319,
      "250g": 4320,
      "13": 4321,
      "##마이": 4322,
      "##코스": 4323,
      "평일": 4324,
      "14": 4325,
      "##박이": 4326,
      "##찜닭": 4327,
      "##전복": 4328,
      "카라멜마": 4329,
      "연태": 4330,
      "##한맛": 4331,
      "캐모마일": 4332,
      "##게티": 4333,
      "마라": 4334,
      "##계란": 4335,
      "우럭": 4336,
      "##야채": 4337,
      "##카츠": 4338,
      "누룽지": 4339,
      "##리오": 4340,
      "##레몬": 4341,
      "750ml": 4342,
      "17": 4343,
      "헤이즐넛": 4344,
      "쭈꾸미": 4345,
      "##산슬": 4346,
      "제육볶음": 4347,
      "해산물": 4348,
      "##계탕": 4349,
      "##데기": 4350,
      "곱창": 4351,
      "사천": 4352,
      "##파스타": 4353,
      "기본": 4354,
      "모둠": 4355,
      "수육": 4356,
      "##막걸리": 4357,
      "##등어": 4358,
      "갈릭": 4359,
      "##단계": 4360,
      "처음": 4361,
      "골뱅이": 4362,
      "##기준": 4363,
      "##리미": 4364,
      "오리지널": 4365,
      "##en": 4366,
      "돌솥": 4367,
      "##아게": 4368,
      "##처럼": 4369,
      "샌드위치": 4370,
      "##샤브": 4371,
      "처음처럼": 4372,
      "생선": 4373,
      "##순두부": 4374,
      "##20ml": 4375,
      "육개장": 4376,
      "##가스": 4377,
      "뚝배기": 4378,
      "##세지": 4379,
      "ON": 4380,
      "##고량주": 4381,
      "300g": 4382,
      "##로니": 4383,
      "##조또": 4384,
      "##LY": 4385,
      "감자튀김": 4386,
      "카레": 4387,
      "##애플": 4388,
      "##치알": 4389,
      "##만두국": 4390,
      "단품": 4391,
      "문어": 4392,
      "25": 4393,
      "##은지": 4394,
      "애플": 4395,
      "##러플": 4396,
      "##mall": 4397,
      "##라아게": 4398,
      "##카페": 4399,
      "산낙지": 4400,
      "보통": 4401,
      "메밀": 4402,
      "##호박": 4403,
      "황태": 4404,
      "차돌박이": 4405,
      "##밀크티": 4406,
      "코코": 4407,
      "ONLY": 4408,
      "홍어": 4409,
      "부대찌개": 4410,
      "##송이": 4411,
      "흑당": 4412,
      "##스파": 4413,
      "##베큐": 4414,
      "##빙수": 4415,
      "##갈비살": 4416,
      "철판": 4417,
      "37": 4418,
      "##쥬스": 4419,
      "순한맛": 4420,
      "트러플": 4421,
      "##나물": 4422,
      "20": 4423,
      "프라페": 4424,
      "##ly": 4425,
      "매화": 4426,
      "해삼": 4427,
      "##갈비찜": 4428,
      "##보스": 4429,
      "라면사리": 4430,
      "라조": 4431,
      "쉬림프": 4432,
      "720ml": 4433,
      "##야끼": 4434,
      "유산슬": 4435,
      "직화": 4436,
      "족발": 4437,
      "##이보스": 4438,
      "##도리탕": 4439,
      "##or": 4440,
      "고등어": 4441,
      "한라": 4442,
      "##김치찌개": 4443,
      "쟁반": 4444,
      "깐풍기": 4445,
      "주스": 4446,
      "##장피": 4447,
      "잡채": 4448,
      "##이즈": 4449,
      "사시미": 4450,
      "##스틱": 4451,
      "마파": 4452,
      "더치": 4453,
      "매화수": 4454,
      "375ml": 4455,
      "##조각": 4456,
      "##볶음탕": 4457,
      "33": 4458,
      "##ch": 4459,
      "묵은지": 4460,
      "홍차": 4461,
      "아포": 4462,
      "굽네": 4463,
      "##AN": 4464,
      "포테이토": 4465,
      "##it": 4466,
      "칼국수": 4467,
      "양장피": 4468,
      "레몬에이드": 4469,
      "대구": 4470,
      "파인": 4471,
      "##nly": 4472,
      "비프": 4473,
      "##비뇽": 4474,
      "##베르": 4475,
      "토닉": 4476,
      "##토리": 4477,
      "고추잡채": 4478,
      "안심": 4479,
      "##어탕": 4480,
      "초코라떼": 4481,
      "##접시": 4482,
      "##매운탕": 4483,
      "##버터": 4484,
      "계란말이": 4485,
      "##비스": 4486,
      "리얼": 4487,
      "카라멜마끼아또": 4488,
      "##트로": 4489,
      "##된장찌개": 4490,
      "루이보스": 4491,
      "##레드": 4492,
      "##렐라": 4493,
      "35": 4494,
      "날치알": 4495,
      "##모밀": 4496,
      "생과일": 4497,
      "키위": 4498,
      "아이스크림": 4499,
      "주먹밥": 4500,
      "비빔밥": 4501,
      "초밥": 4502,
      "##커스": 4503,
      "##강정": 4504,
      "##00cc": 4505,
      "##파전": 4506,
      "에그": 4507,
      "명란": 4508,
      "갈비탕": 4509,
      "아구찜": 4510,
      "크림치즈": 4511,
      "녹차라떼": 4512,
      "##가지": 4513,
      "옛날": 4514,
      "마파두부": 4515,
      "하이볼": 4516,
      "진로": 4517,
      "어묵": 4518,
      "Glass": 4519,
      "연유": 4520,
      "##르보": 4521,
      "리조또": 4522,
      "##ou": 4523,
      "##짜렐라": 4524,
      "##르곤": 4525,
      "##페너": 4526,
      "국물": 4527,
      "1개": 4528,
      "코다리": 4529,
      "##at": 4530,
      "쌀국수": 4531,
      "##베이": 4532,
      "##리스": 4533,
      "3개": 4534,
      "세트메뉴1": 4535,
      "숯불": 4536,
      "##주먹밥": 4537,
      "찹쌀": 4538,
      "##막국수": 4539,
      "##카도": 4540,
      "##백숙": 4541,
      "말차": 4542,
      "##LE": 4543,
      "크로": 4544,
      "##가리": 4545,
      "Small": 4546,
      "왕새우": 4547,
      "덮밥": 4548,
      "자몽에이드": 4549,
      "유자차": 4550,
      "감자탕": 4551,
      "부추": 4552,
      "단호박": 4553,
      "팔보": 4554,
      "##비스커스": 4555,
      "##인슈": 4556,
      "##목살": 4557,
      "허브티": 4558,
      "양념치킨": 4559,
      "##갈릭": 4560,
      "일품": 4561,
      "##곰탕": 4562,
      "교촌": 4563,
      "##보카도": 4564,
      "##치국수": 4565,
      "구이": 4566,
      "게살": 4567,
      "##라미": 4568,
      "##국장": 4569,
      "##ER": 4570,
      "먹태": 4571,
      "##시락": 4572,
      "330ml": 4573,
      "##정살": 4574,
      "목살": 4575,
      "고르곤": 4576,
      "스프라": 4577,
      "##리아": 4578,
      "RE": 4579,
      "버터": 4580,
      "아인슈": 4581,
      "쫄면": 4582,
      "스프라이트": 4583,
      "2개": 4584,
      "3인분": 4585,
      "##졸라": 4586,
      "##육회": 4587,
      "오후": 4588,
      "알탕": 4589,
      "프라푸치노": 4590,
      "팔보채": 4591,
      "##EA": 4592,
      "##머리": 4593,
      "5개": 4594,
      "준마이": 4595,
      "355ml": 4596,
      "도미": 4597,
      "##고추": 4598,
      "당면": 4599,
      "산사": 4600,
      "장어": 4601,
      "물만두": 4602,
      "닭볶음탕": 4603,
      "##IN": 4604,
      "##장어": 4605,
      "연태고량주": 4606,
      "산사춘": 4607,
      "##네이": 4608,
      "##로케": 4609,
      "버블": 4610,
      "##냉채": 4611,
      "프리미": 4612,
      "##골드": 4613,
      "생삼겹살": 4614,
      "##코타": 4615,
      "우삼겹": 4616,
      "##수제": 4617,
      "코코넛": 4618,
      "##아이스": 4619,
      "까르보": 4620,
      "삼선짬뽕": 4621,
      "콩국수": 4622,
      "##UL": 4623,
      "##지락": 4624,
      "히비스커스": 4625,
      "##간장": 4626,
      "와인": 4627,
      "##가토": 4628,
      "##워터": 4629,
      "##된장": 4630,
      "로얄": 4631,
      "계절메뉴": 4632,
      "고르곤졸라": 4633,
      "골드": 4634,
      "##므라이스": 4635,
      "##프라페": 4636,
      "자연": 4637,
      "##나베": 4638,
      "##es": 4639,
      "##누룽지": 4640,
      "아보카도": 4641,
      "스파게티": 4642,
      "소스": 4643,
      "##똥집": 4644,
      "두부김치": 4645,
      "블렌": 4646,
      "스팸": 4647,
      "##ps": 4648,
      "오뎅탕": 4649,
      "아인슈페너": 4650,
      "마끼아또": 4651,
      "##시지": 4652,
      "탄산": 4653,
      "##와이": 4654,
      "bottle": 4655,
      "##마늘": 4656,
      "##콤보": 4657,
      "##연어": 4658,
      "##자몽": 4659,
      "##제육": 4660,
      "##GE": 4661,
      "낙지볶음": 4662,
      "set": 4663,
      "##ed": 4664,
      "##바나나": 4665,
      "토피": 4666,
      "파인애플": 4667,
      "닭도리탕": 4668,
      "##사비": 4669,
      "우유": 4670,
      "회덮밥": 4671,
      "한라산": 4672,
      "600g": 4673,
      "청국장": 4674,
      "##나라": 4675,
      "쇠고기": 4676,
      "##르트": 4677,
      "송이": 4678,
      "타코": 4679,
      "##가니": 4680,
      "변경": 4681,
      "열무": 4682,
      "잡탕": 4683,
      "##르츠": 4684,
      "플랫": 4685,
      "환타": 4686,
      "##갈비탕": 4687,
      "해물파전": 4688,
      "토닉워터": 4689,
      "##ic": 4690,
      "떡만두국": 4691,
      "Iced": 4692,
      "리코타": 4693,
      "##한마리": 4694,
      "새우볶음밥": 4695,
      "##쌀국수": 4696,
      "##부대": 4697,
      "##소주": 4698,
      "병맥주": 4699,
      "순두부찌개": 4700,
      "프리미엄": 4701,
      "##GUL": 4702,
      "##순살": 4703,
      "REGUL": 4704,
      "REGULAR": 4705,
      "비빔국수": 4706,
      "고구마라떼": 4707,
      "쉐이크": 4708,
      "##um": 4709,
      "##까지": 4710,
      "케이크": 4711,
      "##스터": 4712,
      "꼬막": 4713,
      "생강": 4714,
      "##ol": 4715,
      "##ig": 4716,
      "군만두": 4717,
      "꽃게": 4718,
      "700ml": 4719,
      "한방": 4720,
      "##카롱": 4721,
      "##가주": 4722,
      "##거지": 4723,
      "항정살": 4724,
      "##베르네": 4725,
      "내장": 4726,
      "##숙회": 4727,
      "김치볶음밥": 4728,
      "##우스": 4729,
      "130g": 4730,
      "깐쇼": 4731,
      "##돌뼈": 4732,
      "페퍼로니": 4733,
      "##ARGE": 4734,
      "수제비": 4735,
      "LARGE": 4736,
      "바지락": 4737,
      "잔치국수": 4738,
      "##긴죠": 4739,
      "유린": 4740,
      "세트메뉴2": 4741,
      "##철판": 4742,
      "공부": 4743,
      "돌체": 4744,
      "갈치": 4745,
      "##리브": 4746,
      "##금구이": 4747,
      "후식": 4748,
      "모짜렐라": 4749,
      "아포가토": 4750,
      "Set": 4751,
      "전골": 4752,
      "Ch": 4753,
      "반마리": 4754,
      "##로우": 4755,
      "##ran": 4756,
      "공부가주": 4757,
      "##오뎅": 4758,
      "##내장": 4759,
      "글렌": 4760,
      "##리쉬": 4761,
      "##미자": 4762,
      "패션": 4763,
      "##진로": 4764,
      "오징어볶음": 4765,
      "가지": 4766,
      "런치": 4767,
      "##후라이": 4768,
      "숙성": 4769,
      "##슴살": 4770,
      "##꼬시": 4771,
      "##de": 4772,
      "XL": 4773,
      "여름": 4774,
      "민트초코": 4775,
      "순대국": 4776,
      "그릴": 4777,
      "##레오": 4778,
      "닭고기": 4779,
      "소세지": 4780,
      "브루": 4781,
      "##딸기": 4782,
      "도가니": 4783,
      "스트로": 4784,
      "##쉐이크": 4785,
      "##AL": 4786,
      "##누룽지탕": 4787,
      "##스페셜": 4788,
      "잡채밥": 4789,
      "콩나물": 4790,
      "##렁탕": 4791,
      "##소바": 4792,
      "스트로베리": 4793,
      "일품진로": 4794,
      "2pcs": 4795,
      "제육덮밥": 4796,
      "멍게": 4797,
      "예약": 4798,
      "##클링": 4799,
      "티라미": 4800,
      "돼지갈비": 4801,
      "##기농": 4802,
      "##키아또": 4803,
      "##음료": 4804,
      "##삼계탕": 4805,
      "자바": 4806,
      "능이": 4807,
      "##블랙": 4808,
      "돌솥비빔밥": 4809,
      "코스": 4810,
      "한치": 4811,
      "##가슴살": 4812,
      "라임": 4813,
      "##포테이토": 4814,
      "훈제": 4815,
      "##나몬": 4816,
      "돼지고기": 4817,
      "250ml": 4818,
      "카모마일": 4819,
      "유린기": 4820,
      "##스민": 4821,
      "짜장면": 4822,
      "##수제비": 4823,
      "##어묵": 4824,
      "고추장": 4825,
      "김치전": 4826,
      "##kg": 4827,
      "블랑": 4828,
      "유기농": 4829,
      "싱글": 4830,
      "##디아": 4831,
      "레몬차": 4832,
      "까르보나라": 4833,
      "조개": 4834,
      "160g": 4835,
      "##텔라": 4836,
      "##카페인": 4837,
      "1마리": 4838,
      "삼겹": 4839,
      "피치": 4840,
      "500g": 4841,
      "샤브": 4842,
      "저녁": 4843,
      "4개": 4844,
      "##il": 4845,
      "코카": 4846,
      "##어회": 4847,
      "##하이": 4848,
      "어린": 4849,
      "##가사": 4850,
      "##파이": 4851,
      "##팔로": 4852,
      "토스트": 4853,
      "##스카": 4854,
      "오돌뼈": 4855,
      "케이": 4856,
      "##am": 4857,
      "##래식": 4858,
      "##통닭": 4859,
      "##리스피": 4860,
      "쿠키": 4861,
      "##샌드위치": 4862,
      "##막창": 4863,
      "도다리": 4864,
      "디카페인": 4865,
      "Tall": 4866,
      "된장": 4867,
      "##oz": 4868,
      "##니언": 4869,
      "곱창전골": 4870,
      "##가든": 4871,
      "##is": 4872,
      "##hot": 4873,
      "##특선": 4874,
      "갈비살": 4875,
      "바베큐": 4876,
      "스타": 4877,
      "냉모밀": 4878,
      "오늘": 4879,
      "##바스": 4880,
      "##000": 4881,
      "##도그": 4882,
      "##물회": 4883,
      "##re": 4884,
      "##그니": 4885,
      "김밥": 4886,
      "코카콜라": 4887,
      "들깨": 4888,
      "하우스": 4889,
      "10개": 4890,
      "##이시": 4891,
      "##시까지": 4892,
      "푸라": 4893,
      "##ie": 4894,
      "201": 4895,
      "보리": 4896,
      "##as": 4897,
      "소면": 4898,
      "자몽차": 4899,
      "사천탕수육": 4900,
      "떡갈비": 4901,
      "오므라이스": 4902,
      "##렌치": 4903,
      "5인": 4904,
      "##디드": 4905,
      "깐쇼새우": 4906,
      "##요거트스무디": 4907,
      "##그리": 4908,
      "우동사리": 4909,
      "##게장": 4910,
      "우거지": 4911,
      "4인분": 4912,
      "녹두": 4913,
      "##바베큐": 4914,
      "##리비": 4915,
      "##토마토": 4916,
      "##피스": 4917,
      "왕만두": 4918,
      "달콤": 4919,
      "진저": 4920,
      "케이준": 4921,
      "CO": 4922,
      "##고구마": 4923,
      "홍합": 4924,
      "라조기": 4925,
      "무뼈": 4926,
      "##가루": 4927,
      "##탕면": 4928,
      "나가사": 4929,
      "##사디아": 4930,
      "버거": 4931,
      "스프": 4932,
      "##소고기": 4933,
      "##임자": 4934,
      "##후르츠": 4935,
      "한우육회": 4936,
      "겨울": 4937,
      "닭발": 4938,
      "마키아또": 4939,
      "호가든": 4940,
      "##몬드": 4941,
      "##짬뽕밥": 4942,
      "알밥": 4943,
      "##요리": 4944,
      "닭가슴살": 4945,
      "티라미수": 4946,
      "사과": 4947,
      "유부": 4948,
      "일반": 4949,
      "눈꽃": 4950,
      "바질": 4951,
      "##가츠": 4952,
      "구운": 4953,
      "##ing": 4954,
      "스파클링": 4955,
      "##쇠고기": 4956,
      "Only": 4957,
      "라이스": 4958,
      "클래식": 4959,
      "##el": 4960,
      "##고나": 4961,
      "##ra": 4962,
      "##따오": 4963,
      "베리": 4964,
      "토종": 4965,
      "##짜면": 4966,
      "##참치": 4967,
      "소갈비살": 4968,
      "시그니": 4969,
      "시럽": 4970,
      "##화이트": 4971,
      "##가라아게": 4972,
      "치즈돈까스": 4973,
      "##매운맛": 4974,
      "닭똥집": 4975,
      "흑임자": 4976,
      "21": 4977,
      "소시지": 4978,
      "주말": 4979,
      "황도": 4980,
      "##루치": 4981,
      "##쿠키": 4982,
      "##포탕": 4983,
      "마르": 4984,
      "##에일": 4985,
      "칭따오": 4986,
      "해물찜": 4987,
      "가리비": 4988,
      "국내": 4989,
      "어향": 4990,
      "##중새우": 4991,
      "술국": 4992,
      "##순대국": 4993,
      "##조개": 4994,
      "##엔나": 4995,
      "##아메리카노": 4996,
      "보통맛": 4997,
      "어린이": 4998,
      "2p": 4999,
      "##초콜릿": 5000,
      "자연송이": 5001,
      "##감자탕": 5002,
      "##생맥주": 5003,
      "라조육": 5004,
      "토피넛": 5005,
      "##버블": 5006,
      "##대구": 5007,
      "까베르네": 5008,
      "##라스": 5009,
      "6개": 5010,
      "만두국": 5011,
      "##매기": 5012,
      "크리스피": 5013,
      "##와사비": 5014,
      "오늘의": 5015,
      "생굴": 5016,
      "##차돌": 5017,
      "##AT": 5018,
      "모듬회": 5019,
      "##백반": 5020,
      "빙수": 5021,
      "##쌈밥": 5022,
      "그린티라떼": 5023,
      "##ti": 5024,
      "##쟁반": 5025,
      "레몬티": 5026,
      "1인기준": 5027,
      "소불고기": 5028,
      "하이네": 5029,
      "##지리": 5030,
      "##니니": 5031,
      "연유라떼": 5032,
      "국내산": 5033,
      "프로": 5034,
      "##ON": 5035,
      "어니언": 5036,
      "생크림": 5037,
      "샷추가": 5038,
      "아구탕": 5039,
      "잡탕밥": 5040,
      "##수수": 5041,
      "##25": 5042,
      "매운탕": 5043,
      "##전복죽": 5044,
      "특선": 5045,
      "돈가스": 5046,
      "##루치기": 5047,
      "##소세지": 5048,
      "하이네켄": 5049,
      "스노": 5050,
      "500cc": 5051,
      "사골": 5052,
      "##퍼스트": 5053,
      "짬뽕밥": 5054,
      "##베이컨": 5055,
      "프렌치": 5056,
      "##네이션": 5057,
      "##라운": 5058,
      "체리": 5059,
      "##와플": 5060,
      "##생크림": 5061,
      "##후라이드": 5062,
      "##이긴죠": 5063,
      "##se": 5064,
      "##히또": 5065,
      "##빼기": 5066,
      "크로플": 5067,
      "##브리": 5068,
      "##와인": 5069,
      "고등어구이": 5070,
      "감바스": 5071,
      "도토리": 5072,
      "오미자": 5073,
      "##비네이션": 5074,
      "달고나": 5075,
      "로즈": 5076,
      "스윗": 5077,
      "##가능": 5078,
      "헤이즐넛라떼": 5079,
      "번데기": 5080,
      "##리플": 5081,
      "1kg": 5082,
      "닭갈비": 5083,
      "##쭈꾸미": 5084,
      "120g": 5085,
      "only": 5086,
      "막창": 5087,
      "주문": 5088,
      "##닭갈비": 5089,
      "하와이": 5090,
      "##거스": 5091,
      "감자전": 5092,
      "##돈가스": 5093,
      "##안주": 5094,
      "사케": 5095,
      "잉글": 5096,
      "##케익": 5097,
      "##물럭": 5098,
      "##게트": 5099,
      "400g": 5100,
      "로스": 5101,
      "후라이드치킨": 5102,
      "##생이": 5103,
      "##파닭": 5104,
      "와플": 5105,
      "##도시락": 5106,
      "10pcs": 5107,
      "시그니처": 5108,
      "과일차": 5109,
      "##망고": 5110,
      "갈치조림": 5111,
      "햄치즈": 5112,
      "함박": 5113,
      "동태탕": 5114,
      "##타이": 5115,
      "##te": 5116,
      "물회": 5117,
      "누룽지탕": 5118,
      "곱배기": 5119,
      "##가복": 5120,
      "요거트스무디": 5121,
      "뚝배기불고기": 5122,
      "##토스트": 5123,
      "##셋트": 5124,
      "푸라반": 5125,
      "##러스트": 5126,
      "##안심": 5127,
      "##AS": 5128,
      "glass": 5129,
      "가라아게": 5130,
      "##날개": 5131,
      "패션후르츠": 5132,
      "##뚝배기": 5133,
      "야끼": 5134,
      "##무스": 5135,
      "참치김밥": 5136,
      "노가리": 5137,
      "##라피": 5138,
      "300ml": 5139,
      "국수": 5140,
      "삼계탕": 5141,
      "서울": 5142,
      "##솥밥": 5143,
      "10p": 5144,
      "떡사리": 5145,
      "간짜장": 5146,
      "##도로": 5147,
      "해물탕": 5148,
      "##리필": 5149,
      "땅콩": 5150,
      "전가복": 5151,
      "오징어덮밥": 5152,
      "우렁": 5153,
      "세트메뉴3": 5154,
      "농어": 5155,
      "##고로케": 5156,
      "##텐더": 5157,
      "##라멘": 5158,
      "간장새우": 5159,
      "900ml": 5160,
      "##ri": 5161,
      "오레오": 5162,
      "히레": 5163,
      "##치살": 5164,
      "##문어": 5165,
      "##ru": 5166,
      "##완스": 5167,
      "##런치": 5168,
      "##아이스티": 5169,
      "스파이시": 5170,
      "아몬드": 5171,
      "##우럭": 5172,
      "시나몬": 5173,
      "삼선볶음밥": 5174,
      "170g": 5175,
      "블렌디드": 5176,
      "22": 5177,
      "양푼": 5178,
      "해물순두부": 5179,
      "##레쉬": 5180,
      "##별도": 5181,
      "##숫가루": 5182,
      "왕새우튀김": 5183,
      "냉채": 5184,
      "산토리": 5185,
      "생연어": 5186,
      "이상": 5187,
      "##자완스": 5188,
      "깐풍육": 5189,
      "뼈해장국": 5190,
      "쟁반짜장": 5191,
      "무침": 5192,
      "트리플": 5193,
      "##야또": 5194,
      "##SET": 5195,
      "알리오": 5196,
      "##취순": 5197,
      "##계란말이": 5198,
      "Ca": 5199,
      "##육개장": 5200,
      "##스핀": 5201,
      "##om": 5202,
      "영양": 5203,
      "똥집": 5204,
      "오향": 5205,
      "오곡": 5206,
      "##리에": 5207,
      "##스파게티": 5208,
      "자스민": 5209,
      "오일": 5210,
      "떡국": 5211,
      "매취순": 5212,
      "아이": 5213,
      "특대": 5214,
      "##짬뽕탕": 5215,
      "곱빼기": 5216,
      "##프리": 5217,
      "12년": 5218,
      "생강차": 5219,
      "##바이트": 5220,
      "##절미": 5221,
      "##한리필": 5222,
      "설렁탕": 5223,
      "양지": 5224,
      "하프": 5225,
      "오전": 5226,
      "한접시": 5227,
      "##곱창전골": 5228,
      "막국수": 5229,
      "##이노": 5230,
      "사리추가": 5231,
      "골뱅이무침": 5232,
      "Gran": 5233,
      "SI": 5234,
      "윙콤보": 5235,
      "##주볶음": 5236,
      "치즈김밥": 5237,
      "##로스": 5238,
      "##박스": 5239,
      "##껍데기": 5240,
      "생대구": 5241,
      "옥수수": 5242,
      "미트": 5243,
      "매생이": 5244,
      "##우유": 5245,
      "##11": 5246,
      "##구로": 5247,
      "Sp": 5248,
      "도시락": 5249,
      "매실": 5250,
      "고기추가": 5251,
      "##삼합": 5252,
      "##끼야또": 5253,
      "포도": 5254,
      "마카롱": 5255,
      "##장육": 5256,
      "치즈볼": 5257,
      "딸기라떼": 5258,
      "쇼비뇽": 5259,
      "한정": 5260,
      "명품": 5261,
      "버팔로": 5262,
      "2마리": 5263,
      "현미": 5264,
      "##CH": 5265,
      "부추전": 5266,
      "한돈": 5267,
      "##매기살": 5268,
      "##케이노": 5269,
      "##벅스": 5270,
      "##양념치킨": 5271,
      "##000cc": 5272,
      "채끝": 5273,
      "동태찌개": 5274,
      "27": 5275,
      "올리브": 5276,
      "##관자": 5277,
      "중새우": 5278,
      "##루트": 5279,
      "##해삼": 5280,
      "갈비찜": 5281,
      "소비뇽": 5282,
      "쥐포": 5283,
      "순살치킨": 5284,
      "##토닉": 5285,
      "스타벅스": 5286,
      "추어": 5287,
      "자몽티": 5288,
      "##라피뇨": 5289,
      "명태": 5290,
      "에비": 5291,
      "##커리": 5292,
      "##위트": 5293,
      "##래터": 5294,
      "##골레": 5295,
      "##브레드": 5296,
      "관자": 5297,
      "커리": 5298,
      "##회덮밥": 5299,
      "찹쌀탕수육": 5300,
      "##타르트": 5301,
      "##bo": 5302,
      "##감자튀김": 5303,
      "중국": 5304,
      "##다귀": 5305,
      "##먹는": 5306,
      "##카페라떼": 5307,
      "##치스": 5308,
      "##ta": 5309,
      "잉글리쉬": 5310,
      "계란탕": 5311,
      "타코와사비": 5312,
      "꽃빵": 5313,
      "콤비네이션": 5314,
      "베이글": 5315,
      "국물떡볶이": 5316,
      "난자완스": 5317,
      "모히또": 5318,
      "##비아": 5319,
      "##칠리": 5320,
      "11시": 5321,
      "이베리": 5322,
      "파닭": 5323,
      "##왕갈비": 5324,
      "##ES": 5325,
      "##부추": 5326,
      "고로케": 5327,
      "##ine": 5328,
      "40": 5329,
      "청귤": 5330,
      "토핑": 5331,
      "당면사리": 5332,
      "##모둠": 5333,
      "##래기": 5334,
      "##절기": 5335,
      "##스파라": 5336,
      "비엔나": 5337,
      "꽃등심": 5338,
      "대추": 5339,
      "공기밥별도": 5340,
      "라볶이": 5341,
      "마른": 5342,
      "와규": 5343,
      "##OTT": 5344,
      "차돌된장찌개": 5345,
      "믹스": 5346,
      "핫치킨": 5347,
      "##소면": 5348,
      "깐풍새우": 5349,
      "##our": 5350,
      "이베리코": 5351,
      "석류": 5352,
      "포장": 5353,
      "핫초코": 5354,
      "##EW": 5355,
      "치즈스틱": 5356,
      "##set": 5357,
      "##뱃살": 5358,
      "플랫화이트": 5359,
      "다크": 5360,
      "##퀘사디아": 5361,
      "12y": 5362,
      "19": 5363,
      "쥬스": 5364,
      "##푸드": 5365,
      "웰치스": 5366,
      "대구탕": 5367,
      "CH": 5368,
      "대창": 5369,
      "##드레": 5370,
      "짜장밥": 5371,
      "메밀전": 5372,
      "##12": 5373,
      "민물": 5374,
      "##국물": 5375,
      "##50": 5376,
      "##골뱅이": 5377,
      "화요25": 5378,
      "##부대찌개": 5379,
      "##세꼬시": 5380,
      "##리안": 5381,
      "미숫가루": 5382,
      "##드카": 5383,
      "##주문": 5384,
      "볼케이노": 5385,
      "봉골레": 5386,
      "홍게": 5387,
      "##pp": 5388,
      "삼선우동": 5389,
      "25L": 5390,
      "PM": 5391,
      "##피아": 5392,
      "##라탕": 5393,
      "##라또": 5394,
      "핸드": 5395,
      "유산슬밥": 5396,
      "뼈다귀": 5397,
      "하이트": 5398,
      "##ck": 5399,
      "오븐": 5400,
      "어묵탕": 5401,
      "Grande": 5402,
      "닭강정": 5403,
      "2인기준": 5404,
      "##야채죽": 5405,
      "##블랑": 5406,
      "##게리": 5407,
      "36": 5408,
      "꼬치": 5409,
      "소금구이": 5410,
      "##네스": 5411,
      "##EN": 5412,
      "##PA": 5413,
      "하와이안": 5414,
      "##un": 5415,
      "##콩국수": 5416,
      "갑오징어": 5417,
      "꿔바": 5418,
      "##한판": 5419,
      "참치마요": 5420,
      "메로": 5421,
      "할라피뇨": 5422,
      "##AND": 5423,
      "데리": 5424,
      "##유자": 5425,
      "##자미": 5426,
      "##메밀": 5427,
      "슈퍼": 5428,
      "인절미": 5429,
      "오삼": 5430,
      "요거": 5431,
      "즉석": 5432,
      "##로제": 5433,
      "##랜드": 5434,
      "육회비빔밥": 5435,
      "##나무": 5436,
      "해물누룽지탕": 5437,
      "##브리살": 5438,
      "BOTT": 5439,
      "김말이": 5440,
      "무뼈닭발": 5441,
      "마파두부밥": 5442,
      "도토리묵": 5443,
      "##바이트피자": 5444,
      "살치살": 5445,
      "스텔라": 5446,
      "수제청": 5447,
      "연어초밥": 5448,
      "탄산수": 5449,
      "##반반": 5450,
      "멕시": 5451,
      "##치아": 5452,
      "청포도에이드": 5453,
      "NEW": 5454,
      "##치즈볼": 5455,
      "8개": 5456,
      "##이즈백": 5457,
      "##하이볼": 5458,
      "##스파라거스": 5459,
      "BOTTLE": 5460,
      "불족발": 5461,
      "아사": 5462,
      "우니": 5463,
      "페리에": 5464,
      "##러스": 5465,
      "##없는": 5466,
      "탄산음료": 5467,
      "##프림": 5468,
      "사이즈": 5469,
      "모듬튀김": 5470,
      "머리": 5471,
      "무한리필": 5472,
      "바삭": 5473,
      "아주": 5474,
      "진로이즈백": 5475,
      "##다랑": 5476,
      "치즈떡볶이": 5477,
      "LA": 5478,
      "Sa": 5479,
      "라즈": 5480,
      "바게트": 5481,
      "##오뎅탕": 5482,
      "23": 5483,
      "연포탕": 5484,
      "##스프": 5485,
      "##ZE": 5486,
      "불닭": 5487,
      "##보리": 5488,
      "치즈추가": 5489,
      "##버섯죽": 5490,
      "닭다리": 5491,
      "땡초": 5492,
      "체다": 5493,
      "##르바": 5494,
      "##훈제": 5495,
      "##레몬에이드": 5496,
      "빨간": 5497,
      "청양": 5498,
      "한상": 5499,
      "허브차": 5500,
      "칠리새우": 5501,
      "생과일주스": 5502,
      "떡라면": 5503,
      "불낙": 5504,
      "##소금구이": 5505,
      "플레이트": 5506,
      "염통": 5507,
      "우롱": 5508,
      "##co": 5509,
      "전복죽": 5510,
      "안동": 5511,
      "##피딕": 5512,
      "오리지날": 5513,
      "더치커피": 5514,
      "치킨가라아게": 5515,
      "##팥죽": 5516,
      "##카레라이스": 5517,
      "기네스": 5518,
      "##허니": 5519,
      "##old": 5520,
      "마르게리": 5521,
      "##lan": 5522,
      "##리얼": 5523,
      "##테일": 5524,
      "##다랑어": 5525,
      "##미역": 5526,
      "##변경": 5527,
      "모듬전": 5528,
      "47": 5529,
      "내장탕": 5530,
      "굴짬뽕": 5531,
      "##포함": 5532,
      "##에그": 5533,
      "SIZE": 5534,
      "프레": 5535,
      "##블루": 5536,
      "##꼴라": 5537,
      "두마리": 5538,
      "씨푸드": 5539,
      "##오피아": 5540,
      "##주물럭": 5541,
      "##RI": 5542,
      "활어": 5543,
      "Co": 5544,
      "육전": 5545,
      "중간": 5546,
      "카츠": 5547,
      "##쉬룸": 5548,
      "로스트": 5549,
      "샤브샤브": 5550,
      "삼치": 5551,
      "##추리": 5552,
      "##크러스트": 5553,
      "##굴비": 5554,
      "##움바": 5555,
      "##간짜장": 5556,
      "로얄밀크티": 5557,
      "##오렌지": 5558,
      "##한우": 5559,
      "##라프": 5560,
      "계란후라이": 5561,
      "점심특선": 5562,
      "##추어탕": 5563,
      "블랙티": 5564,
      "2인분이상": 5565,
      "멸치": 5566,
      "앱솔": 5567,
      "향라": 5568,
      "##리또": 5569,
      "##도네": 5570,
      "iced": 5571,
      "작은": 5572,
      "지리": 5573,
      "호두": 5574,
      "##그린": 5575,
      "간장게장": 5576,
      "꿔바로우": 5577,
      "추어탕": 5578,
      "타로": 5579,
      "##로나": 5580,
      "##짬면": 5581,
      "이과": 5582,
      "##10": 5583,
      "크림새우": 5584,
      "카라멜라떼": 5585,
      "##오리지": 5586,
      "소라": 5587,
      "##스토": 5588,
      "##카토": 5589,
      "##천왕": 5590,
      "##생선": 5591,
      "##알밥": 5592,
      "##치즈케이크": 5593,
      "지평": 5594,
      "##파인": 5595,
      "##enti": 5596,
      "제로": 5597,
      "##스키": 5598,
      "##루아": 5599,
      "##마이다": 5600,
      "##ite": 5601,
      "부산": 5602,
      "뼈없는": 5603,
      "스위트": 5604,
      "크리미": 5605,
      "##ff": 5606,
      "##ber": 5607,
      "4pcs": 5608,
      "껍데기": 5609,
      "반상": 5610,
      "##UR": 5611,
      "토피넛라떼": 5612,
      "번데기탕": 5613,
      "##쿠리": 5614,
      "나가사끼": 5615,
      "##메기": 5616,
      "치킨텐더": 5617,
      "##ign": 5618,
      "아사히": 5619,
      "1pcs": 5620,
      "갈매기살": 5621,
      "아귀": 5622,
      "한판": 5623,
      "##라타": 5624,
      "세트메뉴4": 5625,
      "열무국수": 5626,
      "멕시칸": 5627,
      "45ml": 5628,
      "shot": 5629,
      "시래기": 5630,
      "쿨피스": 5631,
      "##토핑": 5632,
      "##도네이": 5633,
      "치즈라면": 5634,
      "Jum": 5635,
      "스콘": 5636,
      "##채살": 5637,
      "##ur": 5638,
      "##프트": 5639,
      "##RA": 5640,
      "##쫄면": 5641,
      "전통": 5642,
      "##쟁반짜장": 5643,
      "Jumbo": 5644,
      "24": 5645,
      "보드카": 5646,
      "##식빵": 5647,
      "가마": 5648,
      "##ad": 5649,
      "##바타": 5650,
      "##뼈찜": 5651,
      "간장치킨": 5652,
      "생선구이": 5653,
      "스노우": 5654,
      "앱솔루트": 5655,
      "맑은": 5656,
      "세꼬시": 5657,
      "굴전": 5658,
      "##오븐": 5659,
      "##len": 5660,
      "루꼴라": 5661,
      "##두주": 5662,
      "##배추": 5663,
      "그릴드": 5664,
      "350ml": 5665,
      "브레드": 5666,
      "##30": 5667,
      "라즈베리": 5668,
      "2단계": 5669,
      "팥빙수": 5670,
      "편육": 5671,
      "##사케": 5672,
      "##플레": 5673,
      "꽁치": 5674,
      "반건": 5675,
      "소금": 5676,
      "##iz": 5677,
      "12pcs": 5678,
      "야채김밥": 5679,
      "1단계": 5680,
      "휘핑": 5681,
      "딸기바나나": 5682,
      "등심돈까스": 5683,
      "regular": 5684,
      "곤드레": 5685,
      "소머리": 5686,
      "스시": 5687,
      "3단계": 5688,
      "후레쉬": 5689,
      "##대떡": 5690,
      "##다끼": 5691,
      "28": 5692,
      "돈카츠": 5693,
      "##ec": 5694,
      "12p": 5695,
      "##마이다이긴죠": 5696,
      "AM": 5697,
      "메뉴": 5698,
      "황금": 5699,
      "##초무침": 5700,
      "오곡라떼": 5701,
      "가브리살": 5702,
      "머쉬룸": 5703,
      "플래터": 5704,
      "##라뗴": 5705,
      "##비프": 5706,
      "##od": 5707,
      "##동주": 5708,
      "##라우니": 5709,
      "통새우": 5710,
      "리코타치즈": 5711,
      "메밀전병": 5712,
      "나쵸": 5713,
      "함흥": 5714,
      "##도우": 5715,
      "큐브": 5716,
      "혼마": 5717,
      "흑돼지": 5718,
      "##마끼": 5719,
      "##파육": 5720,
      "글렌피딕": 5721,
      "도가니탕": 5722,
      "셋트": 5723,
      "울면": 5724,
      "치즈피자": 5725,
      "##돼지갈비": 5726,
      "브라운": 5727,
      "통영": 5728,
      "##카세": 5729,
      "##ee": 5730,
      "##ro": 5731,
      "고르곤졸라피자": 5732,
      "꼬리": 5733,
      "발렌": 5734,
      "수박": 5735,
      "##화차": 5736,
      "##타인": 5737,
      "##TE": 5738,
      "##울면": 5739,
      "고량주": 5740,
      "버드": 5741,
      "커플": 5742,
      "##드립": 5743,
      "##그리아": 5744,
      "생등심": 5745,
      "설원": 5746,
      "##품은": 5747,
      "##ium": 5748,
      "5L": 5749,
      "섞어": 5750,
      "##핫도그": 5751,
      "김치전골": 5752,
      "더블치즈": 5753,
      "토종닭": 5754,
      "##즐링": 5755,
      "냉채족발": 5756,
      "2P": 5757,
      "##스면": 5758,
      "##요일": 5759,
      "깔라": 5760,
      "##불백": 5761,
      "##꼬막": 5762,
      "문어숙회": 5763,
      "##러쉬": 5764,
      "##3ml": 5765,
      "##콜렛": 5766,
      "마약": 5767,
      "생목살": 5768,
      "##두루치기": 5769,
      "125ml": 5770,
      "생선까스": 5771,
      "아포카토": 5772,
      "쇼콜라": 5773,
      "해장": 5774,
      "버블티": 5775,
      "자바칩": 5776,
      "함박스테이크": 5777,
      "기스면": 5778,
      "생고기": 5779,
      "프라이": 5780,
      "Venti": 5781,
      "꼬마": 5782,
      "대하": 5783,
      "앵그리": 5784,
      "육포": 5785,
      "##품냉채": 5786,
      "##비지": 5787,
      "##창살": 5788,
      "차이": 5789,
      "통오징어": 5790,
      "##리조또": 5791,
      "##한상": 5792,
      "1호": 5793,
      "곁들": 5794,
      "샤도네이": 5795,
      "월남": 5796,
      "웨지": 5797,
      "##니아": 5798,
      "##밀리": 5799,
      "마라탕": 5800,
      "##샤브샤브": 5801,
      "보리굴비": 5802,
      "가츠": 5803,
      "조기": 5804,
      "참다랑어": 5805,
      "김치만두": 5806,
      "김치말이": 5807,
      "핑크": 5808,
      "##지해장국": 5809,
      "##uv": 5810,
      "##카레우동": 5811,
      "##ourse": 5812,
      "이과두주": 5813,
      "곡물": 5814,
      "##불닭": 5815,
      "##IC": 5816,
      "##프레제": 5817,
      "짬뽕탕": 5818,
      "간바": 5819,
      "에티": 5820,
      "##사발": 5821,
      "##랜베리": 5822,
      "2ps": 5823,
      "더덕": 5824,
      "##생강": 5825,
      "270g": 5826,
      "발렌타인": 5827,
      "부채살": 5828,
      "양고기": 5829,
      "해물라면": 5830,
      "##스카토": 5831,
      "생대구탕": 5832,
      "뉴욕": 5833,
      "메이": 5834,
      "473ml": 5835,
      "콤보": 5836,
      "##파리": 5837,
      "##술국": 5838,
      "##올리오": 5839,
      "불고기피자": 5840,
      "Wh": 5841,
      "도쿠리": 5842,
      "동파육": 5843,
      "시저": 5844,
      "##라즈": 5845,
      "사이즈업": 5846,
      "##라임": 5847,
      "##우육": 5848,
      "##김치전": 5849,
      "##부추전": 5850,
      "포크": 5851,
      "홍소": 5852,
      "##삼선": 5853,
      "##샥스핀": 5854,
      "후식냉면": 5855,
      "디너": 5856,
      "##니엘": 5857,
      "##부위": 5858,
      "##김치볶음밥": 5859,
      "에티오피아": 5860,
      "##버드": 5861,
      "##20": 5862,
      "##콩나물": 5863,
      "드립": 5864,
      "피노": 5865,
      "##ith": 5866,
      "민물장어": 5867,
      "건두부": 5868,
      "스페": 5869,
      "타이": 5870,
      "##돈카츠": 5871,
      "##숙주볶음": 5872,
      "꽃게탕": 5873,
      "양파": 5874,
      "육사시미": 5875,
      "##베이크": 5876,
      "##올리브": 5877,
      "오리진": 5878,
      "고기만두": 5879,
      "월남쌈": 5880,
      "부라타": 5881,
      "오이": 5882,
      "칵테일": 5883,
      "##오겹살": 5884,
      "##모짜렐라": 5885,
      "##당면": 5886,
      "##휴일": 5887,
      "혼마구로": 5888,
      "랍스터": 5889,
      "와사비": 5890,
      "##로네": 5891,
      "##회무침": 5892,
      "매운갈비찜": 5893,
      "삼선짬뽕밥": 5894,
      "Tea": 5895,
      "위스키": 5896,
      "호박": 5897,
      "##마카롱": 5898,
      "마늘간장": 5899,
      "자연산": 5900,
      "골든": 5901,
      "파니니": 5902,
      "##깃밥": 5903,
      "##노미": 5904,
      "##껍질": 5905,
      "##데이": 5906,
      "말차라떼": 5907,
      "궁중": 5908,
      "##떡갈비": 5909,
      "삼선간짜장": 5910,
      "코다리조림": 5911,
      "앵그리버드": 5912,
      "1L": 5913,
      "large": 5914,
      "가자미": 5915,
      "공깃밥": 5916,
      "소곱창": 5917,
      "##소시지": 5918,
      "세트1": 5919,
      "만두라면": 5920,
      "반반치킨": 5921,
      "핸드드립": 5922,
      "반건조": 5923,
      "ST": 5924,
      "악마": 5925,
      "##CS": 5926,
      "모듬수육": 5927,
      "##내장죽": 5928,
      "바다": 5929,
      "올리오": 5930,
      "은행": 5931,
      "조니": 5932,
      "##귤러": 5933,
      "마른안주": 5934,
      "면사리": 5935,
      "몬테": 5936,
      "##대창": 5937,
      "##베니": 5938,
      "##아이스크림": 5939,
      "나가사키": 5940,
      "##준마이": 5941,
      "한라봉": 5942,
      "모밀": 5943,
      "이탈": 5944,
      "##폴리": 5945,
      "오향장육": 5946,
      "양갈비": 5947,
      "##UN": 5948,
      "##ble": 5949,
      "한우차돌": 5950,
      "자두": 5951,
      "##사이": 5952,
      "모듬초밥": 5953,
      "쟁반막국수": 5954,
      "##품은죽": 5955,
      "오겹살": 5956,
      "##제르바": 5957,
      "##오무": 5958,
      "##사삭": 5959,
      "220g": 5960,
      "버드와이": 5961,
      "모과": 5962,
      "찐만두": 5963,
      "카프레제": 5964,
      "해파리": 5965,
      "##둣국": 5966,
      "삼선울면": 5967,
      "과일주스": 5968,
      "해삼탕": 5969,
      "B코스": 5970,
      "발베니": 5971,
      "41": 5972,
      "아마": 5973,
      "크랜베리": 5974,
      "##쉬림프": 5975,
      "##한정": 5976,
      "##ke": 5977,
      "카라멜마끼야또": 5978,
      "small": 5979,
      "제철": 5980,
      "##오므라이스": 5981,
      "##LD": 5982,
      "라구": 5983,
      "핫도그": 5984,
      "##버그": 5985,
      "##치오": 5986,
      "##식혜": 5987,
      "##인치": 5988,
      "12Y": 5989,
      "곁들인": 5990,
      "##트남": 5991,
      "##아즈": 5992,
      "해물짬뽕": 5993,
      "오징어튀김": 5994,
      "갈비만두": 5995,
      "모짜렐라치즈": 5996,
      "##iece": 5997,
      "##이브": 5998,
      "##워커": 5999,
      "##수부위": 6000,
      "##ard": 6001,
      "케냐": 6002,
      "##앤크": 6003,
      "##edium": 6004,
      "주문가능": 6005,
      "메기": 6006,
      "##복분자": 6007,
      "눈꽃치즈": 6008,
      "필라프": 6009,
      "##스티": 6010,
      "##점심": 6011,
      "##양념구이": 6012,
      "보쌈정식": 6013,
      "##ignon": 6014,
      "3pcs": 6015,
      "석화": 6016,
      "안주": 6017,
      "윙봉": 6018,
      "조림": 6019,
      "##라워": 6020,
      "##소라": 6021,
      "##OR": 6022,
      "쭈꾸미볶음": 6023,
      "아메리": 6024,
      "##ter": 6025,
      "##해물찜": 6026,
      "##설렁탕": 6027,
      "낙지찜": 6028,
      "아이리쉬": 6029,
      "3시": 6030,
      "##설빙": 6031,
      "##청주": 6032,
      "##래미": 6033,
      "100": 6034,
      "코다리찜": 6035,
      "##라볶이": 6036,
      "참치회": 6037,
      "오삼불고기": 6038,
      "콘치즈": 6039,
      "홍게품은죽": 6040,
      "Glen": 6041,
      "기준": 6042,
      "베트남": 6043,
      "별도": 6044,
      "쿠앤크": 6045,
      "패밀리": 6046,
      "##ay": 6047,
      "대패": 6048,
      "황제": 6049,
      "##도리": 6050,
      "##명태": 6051,
      "복숭아아이스티": 6052,
      "홍어삼합": 6053,
      "민트초코라떼": 6054,
      "갈비천왕": 6055,
      "야채곱창": 6056,
      "##ING": 6057,
      "페퍼로니피자": 6058,
      "##내장탕": 6059,
      "닭날개": 6060,
      "두루치기": 6061,
      "솥밥": 6062,
      "쿠보": 6063,
      "프랑": 6064,
      "##rea": 6065,
      "양념반": 6066,
      "##ger": 6067,
      "##버블티": 6068,
      "데리야끼": 6069,
      "생우럭": 6070,
      "양꼬치": 6071,
      "천진": 6072,
      "##빈대떡": 6073,
      "##li": 6074,
      "##ag": 6075,
      "##비빔냉면": 6076,
      "만두전골": 6077,
      "##ASS": 6078,
      "시원": 6079,
      "통다리": 6080,
      "##또상": 6081,
      "##64": 6082,
      "##그리노": 6083,
      "닭한마리": 6084,
      "##페리얼": 6085,
      "##망베르": 6086,
      "대추차": 6087,
      "당근": 6088,
      "봄베이": 6089,
      "참돔": 6090,
      "##사과": 6091,
      "##만시": 6092,
      "##바닐라": 6093,
      "고구마피자": 6094,
      "25도": 6095,
      "마르게리따": 6096,
      "버드와이저": 6097,
      "TEA": 6098,
      "식사": 6099,
      "참치김치찌개": 6100,
      "마늘치킨": 6101,
      "##atte": 6102,
      "Shot": 6103,
      "오마": 6104,
      "##장조림": 6105,
      "##페퍼": 6106,
      "##글이": 6107,
      "##제육볶음": 6108,
      "해쉬": 6109,
      "##SE": 6110,
      "황태해장국": 6111,
      "조개탕": 6112,
      "A코스": 6113,
      "조각": 6114,
      "오후3": 6115,
      "##unch": 6116,
      "GR": 6117,
      "St": 6118,
      "셀프": 6119,
      "##코츠": 6120,
      "##소다": 6121,
      "##말라": 6122,
      "##크림라떼": 6123,
      "점심메뉴": 6124,
      "##포테이토피자": 6125,
      "레귤러": 6126,
      "삼계": 6127,
      "양배추": 6128,
      "##나고": 6129,
      "##한방": 6130,
      "##40ml": 6131,
      "##듬뿍": 6132,
      "with": 6133,
      "##나리": 6134,
      "##라시": 6135,
      "##닭강정": 6136,
      "##그라스": 6137,
      "##us": 6138,
      "초코롱": 6139,
      "3마리": 6140,
      "IPA": 6141,
      "공휴일": 6142,
      "성게": 6143,
      "안창살": 6144,
      "##르도네": 6145,
      "##OU": 6146,
      "##부리": 6147,
      "신선": 6148,
      "##타오": 6149,
      "##cm": 6150,
      "광어회": 6151,
      "고등어조림": 6152,
      "송이덮밥": 6153,
      "중간맛": 6154,
      "##탕이": 6155,
      "세트2": 6156,
      "Red": 6157,
      "보틀": 6158,
      "##레그리노": 6159,
      "##ML": 6160,
      "##보샤": 6161,
      "360ml": 6162,
      "초콜렛": 6163,
      "카프리": 6164,
      "콩비지": 6165,
      "##일드": 6166,
      "##직화": 6167,
      "##alf": 6168,
      "머리고기": 6169,
      "500": 6170,
      "규동": 6171,
      "에일": 6172,
      "월계": 6173,
      "자색": 6174,
      "소고기김밥": 6175,
      "도가니수육": 6176,
      "장수": 6177,
      "칭타오": 6178,
      "세트메뉴5": 6179,
      "##초코라떼": 6180,
      "##ALL": 6181,
      "##노미야끼": 6182,
      "조니워커": 6183,
      "진짜": 6184,
      "파전": 6185,
      "평양": 6186,
      "##비드": 6187,
      "김치김밥": 6188,
      "홍차라떼": 6189,
      "월계관": 6190,
      "샤또": 6191,
      "페페": 6192,
      "하몽": 6193,
      "##부터": 6194,
      "삼선짜장": 6195,
      "바지락칼국수": 6196,
      "빨간찜닭": 6197,
      "미소": 6198,
      "숭어": 6199,
      "접시": 6200,
      "##보기": 6201,
      "김치찜": 6202,
      "연어사시미": 6203,
      "돼지껍데기": 6204,
      "순대곱창": 6205,
      "플랫치노": 6206,
      "아주매운맛": 6207,
      "Ro": 6208,
      "산미": 6209,
      "죽엽": 6210,
      "##TA": 6211,
      "##LA": 6212,
      "소고기탕수육": 6213,
      "황태구이": 6214,
      "Sh": 6215,
      "삼합": 6216,
      "연어회": 6217,
      "방어": 6218,
      "보해": 6219,
      "숙주": 6220,
      "##해장": 6221,
      "해물볶음": 6222,
      "800g": 6223,
      "동절기": 6224,
      "모스카토": 6225,
      "인삼": 6226,
      "전주": 6227,
      "##트리": 6228,
      "##스크": 6229,
      "##슈토": 6230,
      "##더버거": 6231,
      "##김치찜": 6232,
      "##inch": 6233,
      "##ARD": 6234,
      "애플망고": 6235,
      "##uvignon": 6236,
      "45": 6237,
      "450g": 6238,
      "##물냉면": 6239,
      "##ac": 6240,
      "##엔탈": 6241,
      "10P": 6242,
      "##레몬티": 6243,
      "##em": 6244,
      "삼선누룽지탕": 6245,
      "삼치구이": 6246,
      "지평막걸리": 6247,
      "과테": 6248,
      "매드": 6249,
      "브뤼": 6250,
      "차슈": 6251,
      "##한접시": 6252,
      "##땅콩": 6253,
      "##크로": 6254,
      "##소리": 6255,
      "##왕만두": 6256,
      "##만찜닭": 6257,
      "##크림치즈": 6258,
      "허니버터": 6259,
      "계절과일": 6260,
      "연태고": 6261,
      "##버터구이": 6262,
      "이탈리안": 6263,
      "해파리냉채": 6264,
      "찜닭": 6265,
      "코로나": 6266,
      "##HOT": 6267,
      "치즈케이크": 6268,
      "6pcs": 6269,
      "아스파라거스": 6270,
      "파불": 6271,
      "표고": 6272,
      "##미니": 6273,
      "##돌솥": 6274,
      "##양념갈비": 6275,
      "##계란찜": 6276,
      "깔라만시": 6277,
      "동동주": 6278,
      "##날치알": 6279,
      "치즈오븐": 6280,
      "그레이": 6281,
      "빠네": 6282,
      "일본": 6283,
      "후라이": 6284,
      "모듬사시미": 6285,
      "오리엔탈": 6286,
      "##오리백숙": 6287,
      "과테말라": 6288,
      "백반": 6289,
      "볼로네": 6290,
      "양송이": 6291,
      "찌개": 6292,
      "##컵밥": 6293,
      "김치우동": 6294,
      "밀크폼": 6295,
      "16oz": 6296,
      "소막창": 6297,
      "##머핀": 6298,
      "한우등심": 6299,
      "오리훈제": 6300,
      "광어초밥": 6301,
      "동태전": 6302,
      "고추잡채밥": 6303,
      "날개": 6304,
      "준마이다이긴죠": 6305,
      "치아": 6306,
      "콜롬": 6307,
      "호세": 6308,
      "##고등어": 6309,
      "##스노": 6310,
      "단호박죽": 6311,
      "##미역죽": 6312,
      "6인": 6313,
      "숙회": 6314,
      "투움바": 6315,
      "##버팔로": 6316,
      "##구르트": 6317,
      "##ry": 6318,
      "쟁반국수": 6319,
      "포테이토피자": 6320,
      "날치알주먹밥": 6321,
      "1P": 6322,
      "가능": 6323,
      "다즐링": 6324,
      "브리": 6325,
      "브라우니": 6326,
      "아나고": 6327,
      "짬짜면": 6328,
      "회냉면": 6329,
      "##4g": 6330,
      "##플러": 6331,
      "로즈마리": 6332,
      "5pcs": 6333,
      "6p": 6334,
      "Lunch": 6335,
      "라벤": 6336,
      "리제르바": 6337,
      "##오일": 6338,
      "##lo": 6339,
      "##럭스": 6340,
      "##청귤": 6341,
      "하얼": 6342,
      "##카오": 6343,
      "##시나몬": 6344,
      "##믈렛": 6345,
      "치즈떡": 6346,
      "1000ml": 6347,
      "플레인요거트": 6348,
      "1p": 6349,
      "100ml": 6350,
      "곰탕": 6351,
      "다이긴죠": 6352,
      "닭껍질": 6353,
      "류산슬": 6354,
      "샤르도네": 6355,
      "수비드": 6356,
      "##구엘": 6357,
      "##알콜": 6358,
      "추가시": 6359,
      "Sauvignon": 6360,
      "천진고량주": 6361,
      "콜롬비아": 6362,
      "대방": 6363,
      "미역": 6364,
      "북어": 6365,
      "왕갈비탕": 6366,
      "##인더버거": 6367,
      "비빔막국수": 6368,
      "##야채볶음": 6369,
      "80g": 6370,
      "시즌": 6371,
      "##사이다": 6372,
      "모듬순대": 6373,
      "차돌된장": 6374,
      "프로슈토": 6375,
      "스노윙": 6376,
      "##그린티": 6377,
      "하얼빈": 6378,
      "고급": 6379,
      "나베": 6380,
      "스모": 6381,
      "##육슬": 6382,
      "##피치": 6383,
      "##경채": 6384,
      "##비빔국수": 6385,
      "돌솥밥": 6386,
      "1잔": 6387,
      "A세트": 6388,
      "B세트": 6389,
      "깻잎": 6390,
      "부리또": 6391,
      "##누아": 6392,
      "##링크": 6393,
      "3인기준": 6394,
      "웨지감자": 6395,
      "전어": 6396,
      "##라다": 6397,
      "블렌딩": 6398,
      "다리": 6399,
      "선지해장국": 6400,
      "##ir": 6401,
      "##IL": 6402,
      "##파이어": 6403,
      "사케동": 6404,
      "약간": 6405,
      "##2인": 6406,
      "생과일쥬스": 6407,
      "##철판볶음": 6408,
      "##쇠고기장조림": 6409,
      "김치말이국수": 6410,
      "2000cc": 6411,
      "개불": 6412,
      "묵사발": 6413,
      "원조": 6414,
      "해장국": 6415,
      "##오미자": 6416,
      "##러시": 6417,
      "##야시": 6418,
      "##티니": 6419,
      "##룡해삼": 6420,
      "##뿌라": 6421,
      "##새우튀김": 6422,
      "볶음짬뽕": 6423,
      "연어샐러드": 6424,
      "야채추가": 6425,
      "##순살치킨": 6426,
      "버팔로윙": 6427,
      "##UNCH": 6428,
      "8pcs": 6429,
      "생갈비": 6430,
      "서더": 6431,
      "젤라또": 6432,
      "##연포탕": 6433,
      "추억": 6434,
      "##슬라이스": 6435,
      "##파인애플": 6436,
      "Am": 6437,
      "시골": 6438,
      "##다니엘": 6439,
      "낙지덮밥": 6440,
      "과메기": 6441,
      "유니": 6442,
      "특초밥": 6443,
      "##육수": 6444,
      "##2배": 6445,
      "##가체": 6446,
      "##돌솥밥": 6447,
      "##41": 6448,
      "##LASS": 6449,
      "##큐브": 6450,
      "##녹차": 6451,
      "프라이즈": 6452,
      "순대국밥": 6453,
      "죽엽청주": 6454,
      "떠먹는": 6455,
      "선택": 6456,
      "포르": 6457,
      "하얀": 6458,
      "##게살": 6459,
      "##시살": 6460,
      "##OP": 6461,
      "치즈사리": 6462,
      "2인세트": 6463,
      "고구마치즈": 6464,
      "콤비네이션피자": 6465,
      "LA갈비": 6466,
      "페페로니": 6467,
      "400ml": 6468,
      "나폴리": 6469,
      "병어": 6470,
      "뼈추가": 6471,
      "샹그리아": 6472,
      "카야": 6473,
      "##AM": 6474,
      "##ice": 6475,
      "차돌짬뽕": 6476,
      "##enu": 6477,
      "COLD": 6478,
      "멘보샤": 6479,
      "짐빔": 6480,
      "특수부위": 6481,
      "쿠보타": 6482,
      "치아바타": 6483,
      "##까만찜닭": 6484,
      "##운드": 6485,
      "##완자": 6486,
      "##저브": 6487,
      "양념갈비": 6488,
      "##콜라다": 6489,
      "평일점심": 6490,
      "##or까만찜닭": 6491,
      "5인분": 6492,
      "##ingle": 6493,
      "크리미언": 6494,
      "오마카세": 6495,
      "자색고구마": 6496,
      "빨간찜닭or까만찜닭": 6497,
      "640ml": 6498,
      "캬라멜": 6499,
      "특양": 6500,
      "후르츠": 6501,
      "##숯불": 6502,
      "바닐라빈": 6503,
      "어묵우동": 6504,
      "마스카": 6505,
      "원두": 6506,
      "임페리얼": 6507,
      "##장면": 6508,
      "##스콘": 6509,
      "##he": 6510,
      "##ut": 6511,
      "딸기요거트": 6512,
      "유자에이드": 6513,
      "홍어회": 6514,
      "대구포": 6515,
      "##ese": 6516,
      "돈코츠": 6517,
      "라지": 6518,
      "쌈밥": 6519,
      "우리": 6520,
      "잭다니엘": 6521,
      "##치니": 6522,
      "##IP": 6523,
      "메이플": 6524,
      "머핀": 6525,
      "하절기": 6526,
      "##코코": 6527,
      "##야키": 6528,
      "##떡국": 6529,
      "##볶밥": 6530,
      "##크림파스타": 6531,
      "골뱅이소면": 6532,
      "열무냉면": 6533,
      "현미베이크": 6534,
      "##ize": 6535,
      "그랑": 6536,
      "진토닉": 6537,
      "키조개": 6538,
      "홍시": 6539,
      "모카라떼": 6540,
      "튀김만두": 6541,
      "##어묵탕": 6542,
      "하우스와인": 6543,
      "제로콜라": 6544,
      "통영굴": 6545,
      "1팩": 6546,
      "대파": 6547,
      "리치": 6548,
      "삶은": 6549,
      "포함": 6550,
      "##차림": 6551,
      "밀크쉐이크": 6552,
      "##ish": 6553,
      "NEW모짜렐라": 6554,
      "체다치즈": 6555,
      "NEW모짜렐라인더버거": 6556,
      "초코칩": 6557,
      "화요41": 6558,
      "140g": 6559,
      "훈제오리": 6560,
      "산미구엘": 6561,
      "5도": 6562,
      "냄비": 6563,
      "따뜻": 6564,
      "케익": 6565,
      "트로": 6566,
      "##포네": 6567,
      "##항정살": 6568,
      "##황도": 6569,
      "##크랩": 6570,
      "##키지": 6571,
      "##ia": 6572,
      "오렌지주스": 6573,
      "트러플버팔로": 6574,
      "알리오올리오": 6575,
      "아메리칸": 6576,
      "상하이": 6577,
      "소바": 6578,
      "##마살": 6579,
      "##만둣국": 6580,
      "##두리": 6581,
      "##OM": 6582,
      "세트3": 6583,
      "마늘보쌈": 6584,
      "납작": 6585,
      "대만": 6586,
      "드라이": 6587,
      "마리": 6588,
      "중화": 6589,
      "하쿠": 6590,
      "##750": 6591,
      "##ial": 6592,
      "##ne": 6593,
      "후라이드반": 6594,
      "건강": 6595,
      "국밥": 6596,
      "그릭": 6597,
      "맥스": 6598,
      "민어": 6599,
      "쉬라즈": 6600,
      "연탄": 6601,
      "카르": 6602,
      "##갈찜": 6603,
      "##아구": 6604,
      "##래집": 6605,
      "순살파닭": 6606,
      "전복회": 6607,
      "더치라떼": 6608,
      "라벤더": 6609,
      "##가체프": 6610,
      "스카": 6611,
      "##니쉬": 6612,
      "##닭죽": 6613,
      "##더블": 6614,
      "딸기스무디": 6615,
      "돌체라떼": 6616,
      "어향가지": 6617,
      "메로구이": 6618,
      "White": 6619,
      "1접시": 6620,
      "1박스": 6621,
      "LUNCH": 6622,
      "참복": 6623,
      "치즈계란말이": 6624,
      "버섯불고기": 6625,
      "콜드브루라떼": 6626,
      "##제육덮밥": 6627,
      "##11시": 6628,
      "280g": 6629,
      "39": 6630,
      "꼼장어": 6631,
      "나마": 6632,
      "소이": 6633,
      "예거": 6634,
      "##치미": 6635,
      "##홍차": 6636,
      "오렌지에이드": 6637,
      "매콤한": 6638,
      "카레덮밥": 6639,
      "국물닭발": 6640,
      "녹두전": 6641,
      "홍합탕": 6642,
      "La": 6643,
      "놀부": 6644,
      "소갈비찜": 6645,
      "풍기": 6646,
      "##오레": 6647,
      "##포크": 6648,
      "##디션": 6649,
      "##닭볶음탕": 6650,
      "##말차": 6651,
      "##EL": 6652,
      "##엘보": 6653,
      "한우불고기": 6654,
      "사천식": 6655,
      "추어튀김": 6656,
      "59": 6657,
      "Course": 6658,
      "랍스타": 6659,
      "촉촉": 6660,
      "##나콜라다": 6661,
      "##심이": 6662,
      "##쿠라": 6663,
      "##슈프림": 6664,
      "##단품": 6665,
      "##금치": 6666,
      "순살후라이드": 6667,
      "양념구이": 6668,
      "추억의": 6669,
      "Medium": 6670,
      "가오리": 6671,
      "흑당라떼": 6672,
      "##asta": 6673,
      "불낙전골": 6674,
      "350g": 6675,
      "3000cc": 6676,
      "국산": 6677,
      "산펠": 6678,
      "슈림프": 6679,
      "오소리": 6680,
      "초새우": 6681,
      "한입": 6682,
      "##네이드": 6683,
      "##티드": 6684,
      "##곱새": 6685,
      "##OL": 6686,
      "##BQ": 6687,
      "게살볶음밥": 6688,
      "꼬막비빔밥": 6689,
      "베리베리": 6690,
      "마스카포네": 6691,
      "나초": 6692,
      "소갈비": 6693,
      "##교자": 6694,
      "##싹불고기": 6695,
      "##알리오": 6696,
      "##띠아": 6697,
      "매생이굴": 6698,
      "미나리": 6699,
      "점보": 6700,
      "지삼선": 6701,
      "퀘사디아": 6702,
      "##프치노": 6703,
      "##lack": 6704,
      "홍어무침": 6705,
      "##가리타": 6706,
      "##ANDARD": 6707,
      "STANDARD": 6708,
      "38": 6709,
      "5p": 6710,
      "Mar": 6711,
      "검은": 6712,
      "멜론": 6713,
      "브라": 6714,
      "숙주볶음": 6715,
      "##블렌": 6716,
      "##매실": 6717,
      "##군만두": 6718,
      "3인용": 6719,
      "새우튀김우동": 6720,
      "##쇠고기죽": 6721,
      "누텔라": 6722,
      "모닝": 6723,
      "소곱창전골": 6724,
      "아라": 6725,
      "##와다": 6726,
      "치즈크러스트": 6727,
      "##ouble": 6728,
      "성게알": 6729,
      "웰빙": 6730,
      "줄돔": 6731,
      "##켈란": 6732,
      "숯불구이": 6733,
      "##추리알": 6734,
      "##오리지널": 6735,
      "##30분": 6736,
      "##생강차": 6737,
      "대방어": 6738,
      "3종": 6739,
      "탄두리": 6740,
      "퐁듀": 6741,
      "##시아": 6742,
      "과일티": 6743,
      "연태고량": 6744,
      "소프트": 6745,
      "스튜": 6746,
      "슬라이스": 6747,
      "탕볶밥": 6748,
      "##노베": 6749,
      "##1ml": 6750,
      "모듬소세지": 6751,
      "Bru": 6752,
      "마요": 6753,
      "스크": 6754,
      "##석류": 6755,
      "##데침": 6756,
      "아이스초코": 6757,
      "돼지김치찌개": 6758,
      "##and": 6759,
      "장어덮밥": 6760,
      "까망베르": 6761,
      "사이": 6762,
      "##꽃등심": 6763,
      "##복숭아": 6764,
      "##포장": 6765,
      "##IG": 6766,
      "##net": 6767,
      "##엣지": 6768,
      "##프라이": 6769,
      "##블랙티": 6770,
      "시원한": 6771,
      "생새우": 6772,
      "슈프림": 6773,
      "콰트로": 6774,
      "클럽": 6775,
      "##얼큰": 6776,
      "##EE": 6777,
      "얼그레이티": 6778,
      "1664": 6779,
      "크로크": 6780,
      "해장라면": 6781,
      "냉콩국수": 6782,
      "스틱": 6783,
      "아쌈": 6784,
      "오믈렛": 6785,
      "탕짜면": 6786,
      "##노와다": 6787,
      "##소떡": 6788,
      "##벨벳": 6789,
      "레몬그라스": 6790,
      "치킨마요": 6791,
      "블랙퍼스트": 6792,
      "##전복내장죽": 6793,
      "소떡": 6794,
      "토시살": 6795,
      "##함박": 6796,
      "##죠조": 6797,
      "치킨까스": 6798,
      "블루레몬에이드": 6799,
      "##ano": 6800,
      "15y": 6801,
      "##해물전골": 6802,
      "채끝등심": 6803,
      "4조각": 6804,
      "Al": 6805,
      "시금치": 6806,
      "온면": 6807,
      "팟타이": 6808,
      "##타다끼": 6809,
      "레몬슬라이스": 6810,
      "수제돈까스": 6811,
      "밀크티라떼": 6812,
      "자연송이쇠고기죽": 6813,
      "함흥냉면": 6814,
      "꼬마김밥": 6815,
      "##ream": 6816,
      "생우럭탕": 6817,
      "591ml": 6818,
      "4p": 6819,
      "To": 6820,
      "바이": 6821,
      "선물": 6822,
      "##식용": 6823,
      "##모도로": 6824,
      "##TRA": 6825,
      "##ich": 6826,
      "##이스터": 6827,
      "##카레덮밥": 6828,
      "트러플전복죽": 6829,
      "##ato": 6830,
      "##퀘사디아피자": 6831,
      "230g": 6832,
      "##bernet": 6833,
      "미역국": 6834,
      "주물럭": 6835,
      "카카오": 6836,
      "##이치": 6837,
      "##닭백숙": 6838,
      "##일랜드": 6839,
      "##앤크림": 6840,
      "세트메뉴6": 6841,
      "단호박식혜": 6842,
      "트로피": 6843,
      "디아": 6844,
      "스지": 6845,
      "##카고": 6846,
      "##하게": 6847,
      "##FF": 6848,
      "##브라운": 6849,
      "모듬구이": 6850,
      "돼지왕갈비": 6851,
      "야채비빔밥": 6852,
      "##계란탕": 6853,
      "에그타르트": 6854,
      "꽃게찜": 6855,
      "닭다리살": 6856,
      "치즈오븐스파게티": 6857,
      "제임": 6858,
      "착즙": 6859,
      "코젤": 6860,
      "통마늘": 6861,
      "##리시": 6862,
      "##블링": 6863,
      "##학생": 6864,
      "##1인": 6865,
      "매운족발": 6866,
      "레드벨벳": 6867,
      "##고추장": 6868,
      "홍합짬뽕": 6869,
      "안동소주": 6870,
      "볼로네제": 6871,
      "Half": 6872,
      "다이": 6873,
      "멸치국수": 6874,
      "물막국수": 6875,
      "새송이": 6876,
      "소다": 6877,
      "쟈스민": 6878,
      "##노가리": 6879,
      "##리퐁": 6880,
      "##떡만두국": 6881,
      "##비큐": 6882,
      "##으로": 6883,
      "##홀릭": 6884,
      "##해물탕": 6885,
      "콩나물국밥": 6886,
      "시럽추가": 6887,
      "##ecial": 6888,
      "4마리": 6889,
      "Menu": 6890,
      "낫또": 6891,
      "볶짜면": 6892,
      "##카라멜": 6893,
      "##불족발": 6894,
      "##츄리": 6895,
      "##ang": 6896,
      "마라샹": 6897,
      "##자몽티": 6898,
      "##부대전골": 6899,
      "오미자차": 6900,
      "똥집튀김": 6901,
      "가츠동": 6902,
      "산펠레그리노": 6903,
      "2호": 6904,
      "3시까지": 6905,
      "8조각": 6906,
      "뿌링": 6907,
      "수정": 6908,
      "왕갈비": 6909,
      "텐더": 6910,
      "##연유": 6911,
      "장어구이": 6912,
      "롱블랙": 6913,
      "북경": 6914,
      "숯불고기": 6915,
      "크레": 6916,
      "##슈가": 6917,
      "##사골": 6918,
      "##ICE": 6919,
      "허니브레드": 6920,
      "EX": 6921,
      "가정식": 6922,
      "참소라": 6923,
      "청도": 6924,
      "##소불고기": 6925,
      "##17": 6926,
      "##동고": 6927,
      "##KE": 6928,
      "##들렌": 6929,
      "치즈토핑": 6930,
      "##오리진": 6931,
      "도다리세꼬시": 6932,
      "##국물떡볶이": 6933,
      "##오리지날": 6934,
      "딥치즈": 6935,
      "매움": 6936,
      "요리": 6937,
      "탕짬면": 6938,
      "##아이": 6939,
      "##바사삭": 6940,
      "##와상": 6941,
      "##콜드": 6942,
      "공기밥포함": 6943,
      "10꼬치": 6944,
      "짬뽕라면": 6945,
      "피노누아": 6946,
      "마라샹궈": 6947,
      "700g": 6948,
      "가쿠": 6949,
      "메론": 6950,
      "생태": 6951,
      "생딸기": 6952,
      "##제비": 6953,
      "##페스토": 6954,
      "##우거지": 6955,
      "##메이드": 6956,
      "##id": 6957,
      "##렉퍼스트": 6958,
      "칠리탕수육": 6959,
      "왕족발": 6960,
      "정종": 6961,
      "##무슈": 6962,
      "##레스트": 6963,
      "##악마": 6964,
      "##명란": 6965,
      "새우링": 6966,
      "크림라떼": 6967,
      "##주문가능": 6968,
      "Cold": 6969,
      "Double": 6970,
      "Single": 6971,
      "깔루아": 6972,
      "먹물": 6973,
      "베지": 6974,
      "쥰마이": 6975,
      "크러스트": 6976,
      "##라썸": 6977,
      "##아스파라거스": 6978,
      "##폭탄": 6979,
      "##AD": 6980,
      "##바오": 6981,
      "치즈라볶이": 6982,
      "고추짬뽕": 6983,
      "EXTRA": 6984,
      "34": 6985,
      "GLASS": 6986,
      "리저브": 6987,
      "볶짬면": 6988,
      "오룡해삼": 6989,
      "잔술": 6990,
      "초등": 6991,
      "회무침": 6992,
      "##마끼아또": 6993,
      "##반상": 6994,
      "##판매": 6995,
      "##히요": 6996,
      "##래커": 6997,
      "망고스무디": 6998,
      "##ick": 6999,
      "##가츠동": 7000,
      "No": 7001,
      "대게": 7002,
      "매장": 7003,
      "아르": 7004,
      "카이": 7005,
      "캐러": 7006,
      "한정식": 7007,
      "##라지": 7008,
      "##ner": 7009,
      "오리로스": 7010,
      "블렌드": 7011,
      "유부초밥": 7012,
      "야끼만두": 7013,
      "반건조오징어": 7014,
      "모과차": 7015,
      "GRAND": 7016,
      "떡닭": 7017,
      "모찌": 7018,
      "찹스테이크": 7019,
      "한우차돌박이": 7020,
      "서더리탕": 7021,
      "마구로": 7022,
      "마끼야또": 7023,
      "쌍화차": 7024,
      "화랑": 7025,
      "##매콤": 7026,
      "##테라": 7027,
      "##양갈비": 7028,
      "##퐁듀": 7029,
      "##있는": 7030,
      "##래떡": 7031,
      "##만두전골": 7032,
      "딸기요거트스무디": 7033,
      "참치초밥": 7034,
      "##one": 7035,
      "##베이글": 7036,
      "교촌레드": 7037,
      "2019": 7038,
      "막창구이": 7039,
      "Cabernet": 7040,
      "##명태조림": 7041,
      "450ml": 7042,
      "BBQ": 7043,
      "Car": 7044,
      "두유": 7045,
      "베이크": 7046,
      "요구르트": 7047,
      "참숯": 7048,
      "카라아게": 7049,
      "펩시": 7050,
      "##이타": 7051,
      "순대볶음": 7052,
      "제주청귤": 7053,
      "멜팅": 7054,
      "생오리": 7055,
      "지존": 7056,
      "##이버섯": 7057,
      "##러미": 7058,
      "##AA": 7059,
      "##꼬노미야끼": 7060,
      "##알탕": 7061,
      "##느러미": 7062,
      "##농탕": 7063,
      "##재미": 7064,
      "블루베리요거트": 7065,
      "##erv": 7066,
      "만두사리": 7067,
      "제임슨": 7068,
      "##리어": 7069,
      "##꼬마": 7070,
      "##흑돼지": 7071,
      "치즈볶음밥": 7072,
      "4인기준": 7073,
      "생선초밥": 7074,
      "날치알볶음밥": 7075,
      "Che": 7076,
      "신선한": 7077,
      "부르": 7078,
      "파이": 7079,
      "햄사리": 7080,
      "흑미": 7081,
      "##루묵": 7082,
      "##to": 7083,
      "##OC": 7084,
      "##IS": 7085,
      "##바이": 7086,
      "##다크": 7087,
      "##범벅": 7088,
      "새우장": 7089,
      "블루레몬": 7090,
      "제육쌈밥": 7091,
      "##sso": 7092,
      "조개찜": 7093,
      "들깨칼국수": 7094,
      "##콜드브루": 7095,
      "경장육": 7096,
      "생삼겹": 7097,
      "활어회": 7098,
      "##노이": 7099,
      "##리포": 7100,
      "##피오": 7101,
      "##hi": 7102,
      "블루문": 7103,
      "플레인요거트스무디": 7104,
      "사천탕면": 7105,
      "스프링": 7106,
      "Latte": 7107,
      "tea": 7108,
      "칠성": 7109,
      "피스타": 7110,
      "##자냐": 7111,
      "##바게트": 7112,
      "##체다": 7113,
      "##머스": 7114,
      "카페오레": 7115,
      "고추마요": 7116,
      "##다리살": 7117,
      "반반족발": 7118,
      "30ml": 7119,
      "닭곰탕": 7120,
      "닭안심": 7121,
      "브런치": 7122,
      "성인": 7123,
      "오도로": 7124,
      "페일": 7125,
      "##RU": 7126,
      "##찌게": 7127,
      "##특밥": 7128,
      "해물죽": 7129,
      "해물부추전": 7130,
      "한우생": 7131,
      "##크림카레": 7132,
      "Black": 7133,
      "CA": 7134,
      "굴보쌈": 7135,
      "금문": 7136,
      "반접시": 7137,
      "순한": 7138,
      "짜파": 7139,
      "피나콜라다": 7140,
      "하나": 7141,
      "##리부": 7142,
      "##아리": 7143,
      "##비엔나": 7144,
      "##im": 7145,
      "##av": 7146,
      "블랙알리오": 7147,
      "크로크무슈": 7148,
      "피스타치오": 7149,
      "그라탕": 7150,
      "시샤": 7151,
      "예가체프": 7152,
      "##라테": 7153,
      "##진저": 7154,
      "김치라면": 7155,
      "블랙악마": 7156,
      "마늘족발": 7157,
      "서울의": 7158,
      "드립커피": 7159,
      "Wine": 7160,
      "냉동": 7161,
      "피넛": 7162,
      "##sp": 7163,
      "##쇼비뇽": 7164,
      "새우죽": 7165,
      "##ini": 7166,
      "부대전골": 7167,
      "도미머리": 7168,
      "메기매운탕": 7169,
      "장수막걸리": 7170,
      "150ml": 7171,
      "7개": 7172,
      "덴뿌라": 7173,
      "리필": 7174,
      "면추가": 7175,
      "크런치": 7176,
      "피망": 7177,
      "##리터": 7178,
      "##리즈": 7179,
      "##도후": 7180,
      "##다버그": 7181,
      "해물짬뽕탕": 7182,
      "참치찌개": 7183,
      "연어덮밥": 7184,
      "블랙마요": 7185,
      "오리주물럭": 7186,
      "##버섯전골": 7187,
      "준마이750": 7188,
      "글렌리": 7189,
      "고추장불고기": 7190,
      "##바베큐피자": 7191,
      "##야시라이스": 7192,
      "시샤모": 7193,
      "페스토": 7194,
      "필스": 7195,
      "##리카": 7196,
      "##살라": 7197,
      "##멜로": 7198,
      "##찹쌀": 7199,
      "##광어": 7200,
      "##웨이브": 7201,
      "매운양념": 7202,
      "유부우동": 7203,
      "##한방삼계탕": 7204,
      "7세": 7205,
      "SM": 7206,
      "말리부": 7207,
      "뱅쇼": 7208,
      "제너": 7209,
      "##스츄리": 7210,
      "##레어": 7211,
      "##ood": 7212,
      "##숙성": 7213,
      "##청국장": 7214,
      "##김치죽": 7215,
      "고추덮밥": 7216,
      "깐풍중새우": 7217,
      "##eric": 7218,
      "여름메뉴": 7219,
      "간바레오": 7220,
      "몬테스": 7221,
      "##사과즙": 7222,
      "보해복분자": 7223,
      "드링크": 7224,
      "빅웨이브": 7225,
      "양갈비살": 7226,
      "##마고": 7227,
      "모듬감자튀김": 7228,
      "볶음면": 7229,
      "15년": 7230,
      "##레몬차": 7231,
      "기본맛": 7232,
      "찹쌀순대": 7233,
      "크리스피치킨": 7234,
      "미트볼": 7235,
      "양배추사과즙": 7236,
      "1대": 7237,
      "1ea": 7238,
      "VIP": 7239,
      "마티니": 7240,
      "베르": 7241,
      "##달콤": 7242,
      "##가재": 7243,
      "##모네이드": 7244,
      "##IT": 7245,
      "##해산물": 7246,
      "참치볶음밥": 7247,
      "12개": 7248,
      "스테이크피자": 7249,
      "##카페모카": 7250,
      "버터구이": 7251,
      "40도": 7252,
      "##리포니아": 7253,
      "##크림카레파스타": 7254,
      "배추": 7255,
      "시카고": 7256,
      "햇반": 7257,
      "##애호박": 7258,
      "카레라이스": 7259,
      "묵은지찜닭": 7260,
      "옛날통닭": 7261,
      "##INN": 7262,
      "쿠키앤크림": 7263,
      "양푼이": 7264,
      "유니짜장": 7265,
      "아라비아": 7266,
      "750": 7267,
      "고노와다": 7268,
      "구워": 7269,
      "니트로": 7270,
      "도루묵": 7271,
      "본오미자": 7272,
      "스키": 7273,
      "핫윙": 7274,
      "##시스": 7275,
      "##CC": 7276,
      "해물된장찌개": 7277,
      "양념게장": 7278,
      "오렌지쥬스": 7279,
      "초콜릿라떼": 7280,
      "먹태구이": 7281,
      "능이버섯": 7282,
      "핫치킨피자": 7283,
      "본오미자골드": 7284,
      "Fr": 7285,
      "또띠아": 7286,
      "반찬": 7287,
      "분다버그": 7288,
      "샥스핀": 7289,
      "콘파": 7290,
      "훠궈": 7291,
      "##화과": 7292,
      "##아토": 7293,
      "##양식": 7294,
      "세트4": 7295,
      "베이비": 7296,
      "대구뽈": 7297,
      "초등학생": 7298,
      "Mo": 7299,
      "di": 7300,
      "간식용": 7301,
      "마들렌": 7302,
      "말벡": 7303,
      "알뜰": 7304,
      "엄청": 7305,
      "##믹스": 7306,
      "##너츠": 7307,
      "해물쟁반짜장": 7308,
      "크림소스": 7309,
      "10y": 7310,
      "등심탕수육": 7311,
      "교촌허니": 7312,
      "##생크림케이크": 7313,
      "히레사케": 7314,
      "중국냉면": 7315,
      "캐러멜": 7316,
      "글렌리벳": 7317,
      "제너럴": 7318,
      "50": 7319,
      "꽃살": 7320,
      "떡만두": 7321,
      "본매실": 7322,
      "산채": 7323,
      "짜조": 7324,
      "쫄볶이": 7325,
      "하노이": 7326,
      "##모어": 7327,
      "##rig": 7328,
      "##진밥": 7329,
      "##팥빵": 7330,
      "치즈폼": 7331,
      "해물떡볶이": 7332,
      "얼큰이": 7333,
      "##미역국": 7334,
      "본매실골드": 7335,
      "C코스": 7336,
      "감성": 7337,
      "기린": 7338,
      "반미": 7339,
      "얼음": 7340,
      "##중매": 7341,
      "##15": 7342,
      "##탕탕이": 7343,
      "##뼈닭발": 7344,
      "##팥빙수": 7345,
      "##PCS": 7346,
      "##멍게": 7347,
      "해물칼국수": 7348,
      "허브치킨": 7349,
      "17년": 7350,
      "##블랙퍼스트": 7351,
      "##lanc": 7352,
      "스페니쉬": 7353,
      "청도맥주": 7354,
      "구워먹는": 7355,
      "2시": 7356,
      "등갈비": 7357,
      "본쇠고기장조림": 7358,
      "쇼킹": 7359,
      "실버": 7360,
      "##기름": 7361,
      "##배즙": 7362,
      "##그랑": 7363,
      "##투움바": 7364,
      "##핫치킨": 7365,
      "해물모듬": 7366,
      "냉면사리": 7367,
      "파불로": 7368,
      "200ml": 7369,
      "50g": 7370,
      "광동": 7371,
      "도이치": 7372,
      "뚝불고기": 7373,
      "라자냐": 7374,
      "베스트": 7375,
      "산타": 7376,
      "청경채": 7377,
      "피쉬": 7378,
      "##육전": 7379,
      "##지오": 7380,
      "##에디션": 7381,
      "##시카": 7382,
      "##기단계": 7383,
      "##ole": 7384,
      "모듬사리": 7385,
      "야채튀김": 7386,
      "토마토아스파라거스": 7387,
      "두부전골": 7388,
      "스페셜티": 7389,
      "카레우동": 7390,
      "꼬막무침": 7391,
      "갈치구이": 7392,
      "한우육회비빔밥": 7393,
      "오븐구이": 7394,
      "참치마요김밥": 7395,
      "2조각": 7396,
      "WH": 7397,
      "al": 7398,
      "도로": 7399,
      "몬스터": 7400,
      "비건": 7401,
      "좋은": 7402,
      "##가득": 7403,
      "##비어": 7404,
      "##묵은지": 7405,
      "##바지락": 7406,
      "##냄비": 7407,
      "##투스": 7408,
      "##깐풍": 7409,
      "##깃머리": 7410,
      "새우살": 7411,
      "돼지불백": 7412,
      "##eak": 7413,
      "소머리국밥": 7414,
      "자색고구마라떼": 7415,
      "1리터": 7416,
      "Mon": 7417,
      "Sal": 7418,
      "cold": 7419,
      "곱도리탕": 7420,
      "네이": 7421,
      "설중매": 7422,
      "캘리포니아": 7423,
      "코스타": 7424,
      "피스": 7425,
      "##프로": 7426,
      "##구리": 7427,
      "##투아": 7428,
      "모듬꼬치": 7429,
      "미니우동": 7430,
      "해삼쥬스": 7431,
      "황금올리브": 7432,
      "##콩나물국밥": 7433,
      "크리미언반": 7434,
      "브라질": 7435,
      "지존단계": 7436,
      "마가리타": 7437,
      "싸이": 7438,
      "알콜": 7439,
      "특정식": 7440,
      "##20g": 7441,
      "##부침": 7442,
      "##pm": 7443,
      "##UM": 7444,
      "해물김치전": 7445,
      "10월": 7446,
      "불고기전골": 7447,
      "칼국수사리": 7448,
      "진짜배즙": 7449,
      "도멘": 7450,
      "라거": 7451,
      "본석류": 7452,
      "수입": 7453,
      "식혜": 7454,
      "찰순대": 7455,
      "콜키지": 7456,
      "##꽃살": 7457,
      "##우트": 7458,
      "##보아즈": 7459,
      "블랙투움바": 7460,
      "돈까스김밥": 7461,
      "1700cc": 7462,
      "애플시나몬": 7463,
      "까르보네": 7464,
      "글렌모": 7465,
      "2018": 7466,
      "소면사리": 7467,
      "녹두빈대떡": 7468,
      "##참치김밥": 7469,
      "어향동고": 7470,
      "중국식": 7471,
      "SP": 7472,
      "간재미": 7473,
      "듬뿍": 7474,
      "스미": 7475,
      "프리": 7476,
      "##파니니": 7477,
      "##그릴": 7478,
      "##염소": 7479,
      "##세트2": 7480,
      "오징어숙회": 7481,
      "버섯추가": 7482,
      "해삼전복": 7483,
      "묵은지감자탕": 7484,
      "체리콕": 7485,
      "칠성사이다": 7486,
      "금문고량주": 7487,
      "본석류골드": 7488,
      "8p": 7489,
      "AL": 7490,
      "Be": 7491,
      "BL": 7492,
      "Sea": 7493,
      "누들": 7494,
      "돌판": 7495,
      "든든": 7496,
      "분짜": 7497,
      "오트": 7498,
      "천엽": 7499,
      "통삼겹": 7500,
      "트레": 7501,
      "##반마리": 7502,
      "##초회": 7503,
      "##앙코": 7504,
      "##메달": 7505,
      "##ian": 7506,
      "##qu": 7507,
      "치즈무스": 7508,
      "소고기덮밥": 7509,
      "진저에일": 7510,
      "뼈없는닭발": 7511,
      "프랑보아즈": 7512,
      "아라비아따": 7513,
      "쇼킹핫": 7514,
      "가래떡": 7515,
      "강정": 7516,
      "냉짬뽕": 7517,
      "단팥죽": 7518,
      "라멘": 7519,
      "맥켈란": 7520,
      "샐러": 7521,
      "##무즈": 7522,
      "##카몰": 7523,
      "##하야시라이스": 7524,
      "##치즈스틱": 7525,
      "해물우동": 7526,
      "자몽주스": 7527,
      "##두부김치": 7528,
      "##김치전골": 7529,
      "고구마파이": 7530,
      "##ino": 7531,
      "로제떡볶이": 7532,
      "민트모카": 7533,
      "##라이즈": 7534,
      "로스까스": 7535,
      "포도치즈케이크": 7536,
      "불낙죽": 7537,
      "표고버섯": 7538,
      "프랑보아즈무즈": 7539,
      "그라": 7540,
      "마살라": 7541,
      "브로": 7542,
      "수프": 7543,
      "스트": 7544,
      "장어탕": 7545,
      "##타르": 7546,
      "##AC": 7547,
      "##Set": 7548,
      "##맑은": 7549,
      "10년": 7550,
      "고추장찌개": 7551,
      "매실차": 7552,
      "나가사끼짬뽕": 7553,
      "휘핑추가": 7554,
      "##비프피자": 7555,
      "나폴리피자": 7556,
      "따뜻한": 7557,
      "까르보네피자": 7558,
      "XO": 7559,
      "경주": 7560,
      "동해": 7561,
      "불닭발": 7562,
      "소한마리": 7563,
      "시트": 7564,
      "주류": 7565,
      "##카이": 7566,
      "##라구": 7567,
      "##릭스": 7568,
      "##대하": 7569,
      "##io": 7570,
      "##를로": 7571,
      "##신탕": 7572,
      "##마늘치킨": 7573,
      "녹두죽": 7574,
      "바질페스토": 7575,
      "##플레이트": 7576,
      "454g": 7577,
      "일본식": 7578,
      "SMALL": 7579,
      "200": 7580,
      "5마리": 7581,
      "Pa": 7582,
      "드레": 7583,
      "디럭스": 7584,
      "라이트": 7585,
      "산딸기": 7586,
      "양깃머리": 7587,
      "홈메이드": 7588,
      "활전복": 7589,
      "2인용": 7590,
      "블랙에디션": 7591,
      "순대만": 7592,
      "수제비사리": 7593,
      "깐쇼새우피자": 7594,
      "##돌솥비빔밥": 7595,
      "병어조림": 7596,
      "사이공": 7597,
      "닭안심살": 7598,
      "##ericano": 7599,
      "LAT": 7600,
      "co": 7601,
      "버니니": 7602,
      "비스": 7603,
      "산오징어": 7604,
      "순수": 7605,
      "스몰": 7606,
      "안티": 7607,
      "오꼬노미야끼": 7608,
      "완도": 7609,
      "죠리퐁": 7610,
      "채소": 7611,
      "피츠": 7612,
      "##토종": 7613,
      "##마을": 7614,
      "##계장": 7615,
      "##세트1": 7616,
      "##ark": 7617,
      "모듬김밥": 7618,
      "1000cc": 7619,
      "직화홀릭": 7620,
      "토종순대": 7621,
      "아이리쉬포테이토피자": 7622,
      "필스너": 7623,
      "멸추": 7624,
      "바싹불고기": 7625,
      "탄탄": 7626,
      "##꼼장어": 7627,
      "##윙봉": 7628,
      "10조각": 7629,
      "오리백숙": 7630,
      "##ruit": 7631,
      "꼬리곰탕": 7632,
      "통영굴버섯죽": 7633,
      "스카치": 7634,
      "BO": 7635,
      "까이": 7636,
      "무알콜": 7637,
      "석쇠": 7638,
      "아란": 7639,
      "치마살": 7640,
      "칩스": 7641,
      "특별": 7642,
      "##에르": 7643,
      "##도넛": 7644,
      "##파스": 7645,
      "패션후르츠에이드": 7646,
      "##스노윙": 7647,
      "그릭요거트": 7648,
      "글렌모렌지": 7649,
      "직화홀릭바이트피자": 7650,
      "1oz": 7651,
      "가평": 7652,
      "마레": 7653,
      "아히요": 7654,
      "야마": 7655,
      "진품": 7656,
      "크러쉬": 7657,
      "##REA": 7658,
      "##시에": 7659,
      "##요거": 7660,
      "##새치": 7661,
      "홍어찜": 7662,
      "직화파인애플": 7663,
      "싱글오리진": 7664,
      "멕시칸바이트피자": 7665,
      "오후3시": 7666,
      "직화파인애플피자": 7667,
      "DINN": 7668,
      "구름": 7669,
      "굴국밥": 7670,
      "싸움": 7671,
      "옐로우": 7672,
      "인디": 7673,
      "진미": 7674,
      "추천": 7675,
      "피칸": 7676,
      "##라거": 7677,
      "##플래터": 7678,
      "##mor": 7679,
      "크림파스타": 7680,
      "크림생맥주": 7681,
      "##불고기버거": 7682,
      "야채퀘사디아피자": 7683,
      "더블갈릭": 7684,
      "##igh": 7685,
      "##ilk": 7686,
      "DINNER": 7687,
      "곤이": 7688,
      "뇨끼": 7689,
      "마크": 7690,
      "비잔": 7691,
      "새콤": 7692,
      "진한": 7693,
      "패티": 7694,
      "##65": 7695,
      "##합탕": 7696,
      "##볶음면": 7697,
      "한우꽃등심": 7698,
      "##onn": 7699,
      "동태전골": 7700,
      "코코아": 7701,
      "직화구이": 7702,
      "달고나라떼": 7703,
      "삼계죽": 7704,
      "도이치바이트피자": 7705,
      "더블갈릭바베큐피자": 7706,
      "사워": 7707,
      "샘플러": 7708,
      "타르트": 7709,
      "타다끼": 7710,
      "터키": 7711,
      "##에이": 7712,
      "##시럽": 7713,
      "##하프": 7714,
      "##구아": 7715,
      "##바그": 7716,
      "##볶음짬뽕": 7717,
      "크림중새우": 7718,
      "세트메뉴7": 7719,
      "4인용": 7720,
      "##eserv": 7721,
      "로스카츠": 7722,
      "오전11시": 7723,
      "Special": 7724,
      "오후3시까지": 7725,
      "하쿠시카": 7726,
      "Brut": 7727,
      "43": 7728,
      "로투스": 7729,
      "설화": 7730,
      "이슬": 7731,
      "춘천": 7732,
      "##지느러미": 7733,
      "##0cc": 7734,
      "##크러쉬": 7735,
      "##자장": 7736,
      "##EM": 7737,
      "##데리": 7738,
      "##영양": 7739,
      "##킬라": 7740,
      "낙지비빔밥": 7741,
      "우동정식": 7742,
      "##inner": 7743,
      "부추잡채": 7744,
      "##INE": 7745,
      "##유자차": 7746,
      "##치아바타": 7747,
      "240g": 7748,
      "셋트메뉴": 7749,
      "닭안심살피자": 7750,
      "1판": 7751,
      "Pasta": 7752,
      "벌교": 7753,
      "뽀모도로": 7754,
      "사이드": 7755,
      "새싹": 7756,
      "콘샐러드": 7757,
      "흑염소": 7758,
      "##생갈비": 7759,
      "##키위": 7760,
      "##운틴": 7761,
      "##히토": 7762,
      "##멜론": 7763,
      "샐러드김밥": 7764,
      "화이트모카": 7765,
      "준마이긴죠": 7766,
      "C세트": 7767,
      "ch": 7768,
      "도우": 7769,
      "마루": 7770,
      "무화과": 7771,
      "복지리": 7772,
      "썸머": 7773,
      "앞발": 7774,
      "통추어탕": 7775,
      "##꽃게": 7776,
      "##술찜": 7777,
      "##캐모마일": 7778,
      "##슬로": 7779,
      "##치즈떡볶이": 7780,
      "참치김치": 7781,
      "참치야채죽": 7782,
      "낙지김치죽": 7783,
      "##ong": 7784,
      "우롱티": 7785,
      "##크로플": 7786,
      "LATTE": 7787,
      "AZ": 7788,
      "동지": 7789,
      "라씨": 7790,
      "맛보기": 7791,
      "와일드": 7792,
      "이후": 7793,
      "자장면": 7794,
      "파운드": 7795,
      "##화채": 7796,
      "##과류": 7797,
      "##사이즈": 7798,
      "##우삼겹": 7799,
      "##ld": 7800,
      "##nd": 7801,
      "##군함": 7802,
      "해물볶음밥": 7803,
      "10ps": 7804,
      "갈릭포테이토": 7805,
      "크로와상": 7806,
      "마르게리타": 7807,
      "2ea": 7808,
      "Blanc": 7809,
      "Cream": 7810,
      "간사이": 7811,
      "글라스": 7812,
      "마리아": 7813,
      "밀키": 7814,
      "부타": 7815,
      "샤워": 7816,
      "알곱창": 7817,
      "참나무": 7818,
      "특밥": 7819,
      "특전복죽": 7820,
      "할매": 7821,
      "##장우육": 7822,
      "##오돌뼈": 7823,
      "##소갈비": 7824,
      "##시안": 7825,
      "##기구이": 7826,
      "##닭날개": 7827,
      "##og": 7828,
      "##인세트": 7829,
      "##먹태": 7830,
      "치즈버거": 7831,
      "김치칼국수": 7832,
      "계란볶음밥": 7833,
      "허니비프피자": 7834,
      "30am": 7835,
      "헤이즐럿": 7836,
      "스팸김밥": 7837,
      "훈제연어": 7838,
      "##URSE": 7839,
      "아마트리": 7840,
      "대패삼겹살": 7841,
      "스모크": 7842,
      "##코코넛": 7843,
      "코스타리카": 7844,
      "AZ버거": 7845,
      "48": 7846,
      "size": 7847,
      "놀래미": 7848,
      "뒷발": 7849,
      "레이": 7850,
      "모엣": 7851,
      "북촌": 7852,
      "워터": 7853,
      "웨딩": 7854,
      "즈란": 7855,
      "탕수": 7856,
      "통우럭": 7857,
      "팝콘": 7858,
      "회정식": 7859,
      "##쿠아즈": 7860,
      "##연수": 7861,
      "##찐만두": 7862,
      "##za": 7863,
      "##슬기": 7864,
      "치킨퀘사디아": 7865,
      "##스파클링": 7866,
      "2017": 7867,
      "##rim": 7868,
      "매생이굴죽": 7869,
      "간바레오또상": 7870,
      "생오겹살": 7871,
      "신라면": 7872,
      "심술": 7873,
      "핫블링": 7874,
      "행복": 7875,
      "황새치": 7876,
      "##이후": 7877,
      "##국시": 7878,
      "##들깨": 7879,
      "##폴레": 7880,
      "##allan": 7881,
      "모둠회": 7882,
      "간바레": 7883,
      "Cheese": 7884,
      "짜파게티": 7885,
      "동지팥죽": 7886,
      "냉소바": 7887,
      "마일드": 7888,
      "유황": 7889,
      "죠스": 7890,
      "주중": 7891,
      "호주": 7892,
      "##갈매기살": 7893,
      "##사칸": 7894,
      "##꼬리": 7895,
      "치킨스틱": 7896,
      "레드락": 7897,
      "우럭회": 7898,
      "##end": 7899,
      "황태찜": 7900,
      "보리밥": 7901,
      "호세쿠": 7902,
      "1병": 7903,
      "3p": 7904,
      "노주": 7905,
      "대포": 7906,
      "레모네이드": 7907,
      "마왕": 7908,
      "양주": 7909,
      "양하": 7910,
      "하루": 7911,
      "##코다리": 7912,
      "##라이트": 7913,
      "##가또": 7914,
      "##사모": 7915,
      "##쇼콜라": 7916,
      "3인세트": 7917,
      "소고기국밥": 7918,
      "타코야끼": 7919,
      "흑임자죽": 7920,
      "국수사리": 7921,
      "파닭치킨": 7922,
      "##ffee": 7923,
      "소떡소떡": 7924,
      "4P": 7925,
      "Pin": 7926,
      "UP": 7927,
      "고소": 7928,
      "마카": 7929,
      "민어탕": 7930,
      "사파이어": 7931,
      "산삼": 7932,
      "전어회": 7933,
      "칡냉면": 7934,
      "카베르네": 7935,
      "통닭": 7936,
      "##스시": 7937,
      "##얼그레이": 7938,
      "##도르": 7939,
      "##추천": 7940,
      "##대곡": 7941,
      "##ear": 7942,
      "##짜글이": 7943,
      "18y": 7944,
      "##짜장면": 7945,
      "동태찜": 7946,
      "청귤차": 7947,
      "##블루베리": 7948,
      "##보기정": 7949,
      "드레싱": 7950,
      "가든": 7951,
      "다슬기": 7952,
      "대왕": 7953,
      "알새우": 7954,
      "오니": 7955,
      "옹심이": 7956,
      "##에이슬": 7957,
      "##lu": 7958,
      "##베츠": 7959,
      "##콜리": 7960,
      "##낭시에": 7961,
      "1인당": 7962,
      "모듬해물": 7963,
      "감자만두": 7964,
      "##비빔면": 7965,
      "12oz": 7966,
      "토마토소스": 7967,
      "허니갈릭": 7968,
      "미니족": 7969,
      "##부대세트": 7970,
      "멍게비빔밥": 7971,
      "##ast": 7972,
      "##치아나": 7973,
      "##해장라면": 7974,
      "모찌리": 7975,
      "Dinner": 7976,
      "TW": 7977,
      "누드": 7978,
      "반계탕": 7979,
      "소대창": 7980,
      "소내장탕": 7981,
      "스피": 7982,
      "완료": 7983,
      "이즈": 7984,
      "임연수": 7985,
      "중기": 7986,
      "초계": 7987,
      "페파": 7988,
      "폭탄": 7989,
      "##소갈비찜": 7990,
      "##닭고기": 7991,
      "##IE": 7992,
      "##DE": 7993,
      "한우1": 7994,
      "돼지불고기": 7995,
      "순대전골": 7996,
      "짜장2": 7997,
      "칠리중새우": 7998,
      "##마요치킨": 7999,
      "##타이거": 8000,
      "##rigin": 8001,
      "든든한": 8002,
      "완료기": 8003,
      "SH": 8004,
      "가을": 8005,
      "까치": 8006,
      "생면": 8007,
      "시즈": 8008,
      "엑스": 8009,
      "정통": 8010,
      "주꾸미": 8011,
      "쭈삼": 8012,
      "카오": 8013,
      "크랩": 8014,
      "크레이": 8015,
      "후기": 8016,
      "##위스트": 8017,
      "##모히또": 8018,
      "##60g": 8019,
      "##베트": 8020,
      "##치킨샐러드": 8021,
      "블루베리요거트스무디": 8022,
      "##프라푸치노": 8023,
      "얼큰해물": 8024,
      "레드와인": 8025,
      "흑당버블": 8026,
      "##resso": 8027,
      "##한우불고기": 8028,
      "or": 8029,
      "감귤": 8030,
      "바이트": 8031,
      "쁘띠": 8032,
      "푸딩": 8033,
      "햄버거": 8034,
      "##리조": 8035,
      "##이차": 8036,
      "##블라썸": 8037,
      "##닭도리탕": 8038,
      "##메인": 8039,
      "##랜딩": 8040,
      "##멸치": 8041,
      "##치즈돈까스": 8042,
      "새우날치알": 8043,
      "모듬생선": 8044,
      "토마토주스": 8045,
      "칠리소스": 8046,
      "##돼지고기": 8047,
      "조기매운탕": 8048,
      "##spresso": 8049,
      "AB": 8050,
      "am": 8051,
      "뼈찜": 8052,
      "특제": 8053,
      "팥칼국수": 8054,
      "##미트": 8055,
      "##토스": 8056,
      "##하다": 8057,
      "##500ml": 8058,
      "##18": 8059,
      "##파뉴": 8060,
      "##두기": 8061,
      "##pe": 8062,
      "##머니": 8063,
      "감자고로케": 8064,
      "낙지전골": 8065,
      "허니멜로": 8066,
      "매콤명태조림": 8067,
      "##illa": 8068,
      "비엔나커피": 8069,
      "슈퍼슈프림": 8070,
      "아귀찜": 8071,
      "##그랑땡": 8072,
      "아마트리치아나": 8073,
      "호세쿠엘보": 8074,
      "AA": 8075,
      "Ade": 8076,
      "뱃살": 8077,
      "별미": 8078,
      "빠가": 8079,
      "시사모": 8080,
      "식빵": 8081,
      "알파": 8082,
      "판모밀": 8083,
      "##고뉴": 8084,
      "##고랭": 8085,
      "##마스": 8086,
      "##바이스": 8087,
      "##UP": 8088,
      "##보로": 8089,
      "새우구이": 8090,
      "베이컨치즈": 8091,
      "제주말차": 8092,
      "짜장떡볶이": 8093,
      "명란구이": 8094,
      "##간장치킨": 8095,
      "들깨수제비": 8096,
      "COURSE": 8097,
      "어향육슬": 8098,
      "잉글리쉬블랙퍼스트": 8099,
      "도토리묵무침": 8100,
      "한우생등심": 8101,
      "가평잣": 8102,
      "양하대곡": 8103,
      "까르": 8104,
      "만든": 8105,
      "메리": 8106,
      "미스터": 8107,
      "백숙": 8108,
      "불갈비": 8109,
      "살구": 8110,
      "생수": 8111,
      "쑥라떼": 8112,
      "트위스트": 8113,
      "함바그": 8114,
      "##호크": 8115,
      "##메이": 8116,
      "##ling": 8117,
      "##플라워": 8118,
      "##st": 8119,
      "##감투": 8120,
      "##PP": 8121,
      "치즈불닭": 8122,
      "딸기주스": 8123,
      "연어뱃살": 8124,
      "프라이드": 8125,
      "불고기덮밥": 8126,
      "##낙지볶음": 8127,
      "##스파이시": 8128,
      "쫄면사리": 8129,
      "곡물라떼": 8130,
      "좋은데이": 8131,
      "4ea": 8132,
      "6조각": 8133,
      "SHOT": 8134,
      "닭목살": 8135,
      "동치미": 8136,
      "맵기": 8137,
      "손만두": 8138,
      "오또상": 8139,
      "피클": 8140,
      "##무뼈닭발": 8141,
      "##렌베리": 8142,
      "##루이보스": 8143,
      "##병맥주": 8144,
      "##son": 8145,
      "##ai": 8146,
      "##래프트": 8147,
      "##저트": 8148,
      "##lat": 8149,
      "매콤한맛": 8150,
      "##계란밥": 8151,
      "##가지맛": 8152,
      "##골드피자": 8153,
      "가지튀김": 8154,
      "흑임자라떼": 8155,
      "부산어묵": 8156,
      "바다장어": 8157,
      "약간매운맛": 8158,
      "콘파냐": 8159,
      "1조각": 8160,
      "Reserv": 8161,
      "대장": 8162,
      "바닷": 8163,
      "벌집": 8164,
      "살사": 8165,
      "왕돈까스": 8166,
      "코울": 8167,
      "화덕": 8168,
      "##복쟁반": 8169,
      "##블로": 8170,
      "##파오": 8171,
      "##ak": 8172,
      "모듬버섯": 8173,
      "참치회덮밥": 8174,
      "망고바나나": 8175,
      "##lassic": 8176,
      "##야끼우동": 8177,
      "키위주스": 8178,
      "즉석떡볶이": 8179,
      "마늘간장치킨": 8180,
      "패밀리세트": 8181,
      "고급양갈비": 8182,
      "Americano": 8183,
      "선물용": 8184,
      "쇼킹핫반": 8185,
      "##onnay": 8186,
      "TWG": 8187,
      "나주": 8188,
      "느린": 8189,
      "데킬라": 8190,
      "바사삭": 8191,
      "앙버터": 8192,
      "완자": 8193,
      "쯔란": 8194,
      "퓨어": 8195,
      "##갈치": 8196,
      "##패너": 8197,
      "##OS": 8198,
      "##편육": 8199,
      "##UT": 8200,
      "##앵거스": 8201,
      "##술밥": 8202,
      "김치덮밥": 8203,
      "아이스황도": 8204,
      "##크림새우": 8205,
      "블랙앵거스": 8206,
      "전복내장죽": 8207,
      "두부찌개": 8208,
      "30분": 8209,
      "제주돼지": 8210,
      "사천짜장": 8211,
      "비프퀘사디아": 8212,
      "##르보나라": 8213,
      "교촌반반": 8214,
      "##urger": 8215,
      "더덕구이": 8216,
      "오소리감투": 8217,
      "##icken": 8218,
      "경장육슬": 8219,
      "멸추김밥": 8220,
      "##riginal": 8221,
      "새우날치알김밥": 8222,
      "국화차": 8223,
      "닥터": 8224,
      "라뗴": 8225,
      "메추리알": 8226,
      "불타": 8227,
      "통문어": 8228,
      "핫소스": 8229,
      "해초": 8230,
      "##니르": 8231,
      "##마호크": 8232,
      "##달루": 8233,
      "##16": 8234,
      "##삼계": 8235,
      "##동태": 8236,
      "##염통": 8237,
      "연어머리": 8238,
      "고추튀김": 8239,
      "쇠고기야채죽": 8240,
      "케냐AA": 8241,
      "##emon": 8242,
      "진품쇠고기": 8243,
      "5종": 8244,
      "고니": 8245,
      "꼬들": 8246,
      "닭칼국수": 8247,
      "서대": 8248,
      "우육": 8249,
      "키즈": 8250,
      "폭립": 8251,
      "항정": 8252,
      "##양꼬치": 8253,
      "##모래집": 8254,
      "##ple": 8255,
      "##콤비네이션": 8256,
      "한우곱창": 8257,
      "수제튀김": 8258,
      "12시": 8259,
      "고구마무스": 8260,
      "##계란볶음": 8261,
      "송이전복": 8262,
      "타이거": 8263,
      "삶은계란": 8264,
      "진품쇠고기육개장": 8265,
      "Gre": 8266,
      "감베": 8267,
      "과카몰": 8268,
      "까바": 8269,
      "엣지": 8270,
      "츄러스": 8271,
      "##라벨": 8272,
      "##차이": 8273,
      "##EC": 8274,
      "##그라탕": 8275,
      "##강주": 8276,
      "##다즈": 8277,
      "##볼라": 8278,
      "##앤하프": 8279,
      "12P": 8280,
      "블루베리라떼": 8281,
      "##프라노베": 8282,
      "##감자전": 8283,
      "미니족발": 8284,
      "카레돈까스": 8285,
      "##range": 8286,
      "달콤양념": 8287,
      "21년": 8288,
      "##루아상": 8289,
      "##eef": 8290,
      "건두부볶음": 8291,
      "##ardonnay": 8292,
      "평양냉면": 8293,
      "##연유라떼": 8294,
      "코울슬로": 8295,
      "42": 8296,
      "송화": 8297,
      "실속": 8298,
      "아드": 8299,
      "알밤": 8300,
      "##러우": 8301,
      "##아보카도": 8302,
      "##디쉬": 8303,
      "##사믹": 8304,
      "##pa": 8305,
      "##펀치": 8306,
      "1인세트": 8307,
      "##arl": 8308,
      "세트메뉴8": 8309,
      "블랙타이거": 8310,
      "제주흑돼지": 8311,
      "아포가또": 8312,
      "꽁치김치찌개": 8313,
      "브라운슈가": 8314,
      "Steak": 8315,
      "매드갈릭": 8316,
      "납작만두": 8317,
      "코젤다크": 8318,
      "수정방": 8319,
      "든든한끼": 8320,
      "course": 8321,
      "감베리": 8322,
      "게장": 8323,
      "다쿠아즈": 8324,
      "미취": 8325,
      "킹크랩": 8326,
      "하겐": 8327,
      "호프": 8328,
      "##리타": 8329,
      "##레스": 8330,
      "##21": 8331,
      "##도가니": 8332,
      "##ED": 8333,
      "##브라우니": 8334,
      "##계절": 8335,
      "카페라뗴": 8336,
      "1865": 8337,
      "전복구이": 8338,
      "모카칩": 8339,
      "오뎅나베": 8340,
      "버터갈릭": 8341,
      "골드메달": 8342,
      "##자몽차": 8343,
      "우롱차": 8344,
      "커플세트": 8345,
      "나가사키짬뽕": 8346,
      "삼계전복죽": 8347,
      "##아구찜": 8348,
      "1근": 8349,
      "2판": 8350,
      "2꼬치": 8351,
      "SAL": 8352,
      "동그랑땡": 8353,
      "모히토": 8354,
      "산라탕": 8355,
      "솔티": 8356,
      "홍콩": 8357,
      "##지리탕": 8358,
      "##가자미": 8359,
      "##키아토": 8360,
      "##살치살": 8361,
      "##우롱": 8362,
      "##8ml": 8363,
      "##부르": 8364,
      "##누들": 8365,
      "##짬뽕죽": 8366,
      "##late": 8367,
      "블루베리스무디": 8368,
      "##ort": 8369,
      "##pping": 8370,
      "NEW한우불고기": 8371,
      "꼬리찜": 8372,
      "셀프주먹밥": 8373,
      "감성돔": 8374,
      "AZ버거오리지널": 8375,
      "트위스트감자": 8376,
      "대장부": 8377,
      "느린마을": 8378,
      "하겐다즈": 8379,
      "30g": 8380,
      "9월": 8381,
      "Bo": 8382,
      "Big": 8383,
      "루즈": 8384,
      "메가": 8385,
      "벨지": 8386,
      "빌라": 8387,
      "실장": 8388,
      "제비": 8389,
      "짜글이": 8390,
      "짝태": 8391,
      "치폴레": 8392,
      "칭다": 8393,
      "크루": 8394,
      "한잔": 8395,
      "##블리": 8396,
      "##황태": 8397,
      "##불족": 8398,
      "##5g": 8399,
      "##ack": 8400,
      "##클리어": 8401,
      "##래드": 8402,
      "##낄라": 8403,
      "매운닭발": 8404,
      "##스타드": 8405,
      "3인이상": 8406,
      "돼지막창": 8407,
      "고추김밥": 8408,
      "망고주스": 8409,
      "마늘빵": 8410,
      "헤이즐넛아메리카노": 8411,
      "산낙지볶음": 8412,
      "가리비찜": 8413,
      "하프앤하프": 8414,
      "트러플버팔로피자": 8415,
      "트러플버팔로스틱": 8416,
      "##ears": 8417,
      "20g": 8418,
      "7가지": 8419,
      "de": 8420,
      "닭꼬치": 8421,
      "돈가츠": 8422,
      "문경": 8423,
      "백짬뽕": 8424,
      "복튀김": 8425,
      "본오징어": 8426,
      "불맛": 8427,
      "옻닭": 8428,
      "청어": 8429,
      "통통": 8430,
      "파울": 8431,
      "##등갈비": 8432,
[...]
