[PAD]
[UNK]
[CLS]
[SEP]
[MASK]
!
"
#
$
%
&
'
(
)
*
+
,
-
.
/
0
1
2
3
4
5
6
7
8
9
:
;
<
=
>
?
A
B
C
D
E
F
G
H
I
J
K
L
M
N
O
P
Q
R
S
T
U
V
W
X
Y
Z
[
\
]
^
_
`
a
b
c
d
e
f
g
h
i
j
k
l
m
n
o
p
q
r
s
t
u
v
w
x
y
z
{
|
}
~
®
°
±
´
·
º
½
Â
È
É
×
Û
ä
è
é
ù
û
˚
α
ᆞ
‘
’
“
”
•
※
℃
ℓ
™
Ⅰ
Ⅱ
→
∙
①
②
③
●
★
☆
♥
「
」
い
う
き
げ
ご
し
せ
ぜ
ま
め
も
や
ゅ
り
わ
ん
ア
シ
チ
ビ
メ
ャ
ュ
ラ
ワ
ン
・
ー
ㄱ
ㄲ
ㄴ
ㄷ
ㄸ
ㄹ
ㄺ
ㅁ
ㅅ
ㅇ
ㅋ
ㅍ
ㅎ
ㅐ
ㅑ
ㅒ
ㅔ
ㅗ
ㅡ
ㅢ
ㅣ
ㆍ
㎖
一
三
上
下
丝
並
中
串
二
五
亥
京
人
仁
付
代
价
作
信
個
兔
兩
农
冬
冷
凉
出
刀
分
包
北
半
卓
卤
压
原
古
合
名
味
品
哈
唐
啤
四
回
園
土
地
坛
壽
夏
多
夢
大
天
太
奇
子
孜
实
家
小
少
尔
尖
尾
山
岛
川
工
巫
帝
常
干
幸
庆
心
怒
总
意
愛
愤
手
打
担
拉
拌
拔
拼
捞
排
揚
新
日
旬
明
春
月
有
木
本
杂
李
村
条
東
松
板
林
果
柿
栏
桥
梁
梅
椒
殷
母
毛
水
汁
汤
沌
油
洁
活
海
混
淸
温
溜
溫
滨
漁
火
灯
灵
炒
炖
炸
烤
烧
烫
焖
無
然
煎
煮
煲
爆
片
牌
牛
特
狗
猪
玉
王
现
珍
瓜
生
甲
男
白
的
皇
皮
盖
盘
盛
眞
神
福
禧
秀
秋
竹
笨
笼
筋
管
米
籽
粉
粥
糖
糞
紅
綠
红
羊
美
老
耳
肉
肚
肝
肠
肥
脖
腐
腩
腰
膏
色
花
苑
苔
茄
菇
菊
菜
菠
蒙
蒜
蘭
虾
蚬
蛋
蛙
裁
製
西
角
誠
豆
豚
貧
貴
货
赤
足
蹄
辛
辣
过
連
選
酒
酱
酸
酿
醋
醬
重
野
金
铁
锅
長
雛
雪
雳
霹
靑
青
面
韓
韭
風
风
食
飯
餃
饨
饭
饺
馄
香
驪
骨
髓
鱼
鱿
鲜
鲤
鲫
鳳
鸡
鸭
麗
麺
麻
黄
黑
黒
齋
龍
龙
가
각
간
갈
갋
갍
감
갑
값
갓
강
갖
같
갛
개
객
갤
갬
갯
갱
갸
걀
걉
걋
걍
걔
거
걱
건
걷
걸
검
겁
것
겅
겆
겉
게
겐
겔
겜
겟
겠
겡
겥
겨
격
견
결
겸
겹
경
곁
계
곗
고
곡
곤
골
곰
곱
곳
공
곶
곷
곹
곻
과
곽
관
괄
광
괘
괜
괴
굄
교
굑
구
국
굯
군
굳
굴
굵
굷
굼
굽
굿
궁
궈
권
궐
궤
귀
귄
귈
귓
규
균
귤
그
극
근
글
긅
금
급
긋
긍
긑
기
긱
긴
길
김
깁
깃
깅
깉
깊
까
깍
깐
깔
깜
깡
깨
깬
깻
깽
꺄
꺈
꺠
꺳
꺵
꺼
꺽
꺾
껌
껍
껏
껑
께
껨
껩
껭
껴
꼅
꼐
꼬
꼭
꼰
꼴
꼼
꼽
꼿
꽁
꽂
꽃
꽈
꽉
꽌
꽐
꽝
꽤
꽥
꾀
꾸
꾹
꾼
꿀
꿈
꿉
꿋
꿍
꿔
꿘
꿩
꿰
뀌
뀔
뀰
끄
끈
끊
끌
끓
끔
끕
끗
끛
끝
끼
끽
낀
낄
낌
낑
나
낙
낚
난
날
낡
남
납
낫
났
낭
낮
낯
낱
낳
내
낵
낸
낼
냄
냅
냉
냐
냑
냘
냠
냥
너
넉
넌
널
넓
넘
넙
넛
넝
넡
넣
네
넥
넨
넬
넴
넵
넷
넹
녀
녁
년
념
녑
녕
녘
녜
노
녹
논
녿
놀
놈
놉
놋
농
높
놓
뇌
뇨
뇩
뇰
뇽
누
눅
눈
눌
눔
눙
뉘
뉴
뉵
뉼
늄
늉
느
늑
는
늗
늘
늙
능
늦
늩
늬
니
닉
닌
닐
님
닙
닛
닝
다
닥
단
달
닭
닮
닳
담
답
닷
당
닾
대
댁
댄
댈
댓
댕
댜
댬
댸
더
덕
덖
던
덜
덟
덤
덥
덧
덩
덭
덮
데
덴
덷
델
덻
뎀
뎁
뎃
뎅
뎨
도
독
돈
돋
돌
돍
돏
돔
돕
돗
동
돚
돛
돝
돤
돼
됀
되
된
될
됨
됩
됫
두
둑
둔
둗
둘
둠
둣
둥
둬
둰
뒤
뒥
뒷
듀
듄
듈
듐
드
득
든
들
듦
듬
듭
듯
등
듳
디
딕
딘
딜
딝
딤
딥
딧
딩
딮
따
딱
딴
딸
딹
땀
땃
땅
땋
때
땍
땐
땜
땡
떄
떙
떠
떡
떢
떣
떨
떵
떼
뗀
뗄
뗌
뗴
뗼
똄
또
똑
똔
똘
똠
똥
똰
뚜
뚝
뚞
뚠
뚤
뚬
뚱
뛰
뛸
뜌
뜍
뜨
뜩
뜬
뜯
뜰
뜸
뜻
띄
띠
띤
띨
띰
띵
라
락
란
랃
랄
람
랍
랏
랑
랓
랗
래
랙
랜
랠
램
랩
랫
랭
랴
략
랸
럇
량
러
럭
런
럳
럴
럵
럼
럽
럿
렁
렇
레
렉
렌
렍
렐
렘
렙
렛
렝
렡
려
력
련
렬
렵
령
례
로
록
론
롤
롬
롭
롯
롱
롸
뢰
룁
료
룡
룤
루
룩
룬
룰
룸
룹
룻
룽
뤄
뤌
뤠
뤨
뤼
뤽
륀
륄
륏
류
륙
륜
률
륭
르
륵
른
를
름
릅
릇
릉
릌
릎
릐
릠
릣
리
릭
린
릴
림
립
릿
맀
링
맄
맆
마
막
만
많
말
맑
맓
맘
맙
맛
망
맞
맠
맡
매
맥
맨
맬
맴
맵
맷
맹
맼
먀
먁
먄
먕
머
먹
먼
멀
멈
멋
멍
메
멕
멘
멜
멤
멧
멩
며
멱
면
멵
멸
명
몇
모
목
몪
몬
몯
몰
몸
못
몽
뫼
묘
묜
무
묵
묶
문
묺
묻
물
묾
묿
뭄
뭇
뭉
뭋
뭏
뭐
뭔
뭥
뮈
뮌
뮤
뮬
므
믁
믄
믈
믐
믕
미
믹
민
믿
밀
밅
밆
밈
밋
밍
및
밑
바
박
밖
반
받
발
밝
밟
밤
밥
밧
방
밭
배
백
밲
밴
밸
뱀
뱃
뱅
뱝
뱡
버
벅
번
벋
벌
범
법
벗
벙
벚
벛
베
벡
벤
벨
벱
벳
벵
벼
벽
변
별
볍
볏
병
볕
볜
보
복
볶
본
볼
볾
볿
봁
봄
봅
봇
봉
봌
봐
봤
뵈
부
북
분
불
붉
붐
붓
붕
붙
붜
붸
뷔
뷕
뷘
뷜
뷰
뷴
뷸
브
븐
블
븡
븥
븨
비
빅
빈
빌
빔
빕
빗
빙
빚
빛
빠
빡
빤
빨
빰
빱
빳
빵
빼
빽
뺀
뺏
뺑
뺘
뺴
뺵
뺸
뻉
뻐
뻑
뻔
뻘
뻤
뻥
뻬
뼈
뼌
뼝
뽀
뽁
뽂
뽄
뽈
뽐
뽑
뽕
뿅
뿌
뿍
뿐
뿔
뿜
뿡
쁘
쁙
쁜
쁠
쁨
삐
삑
삔
삠
삥
사
삭
삯
산
살
삶
삷
삺
삼
삽
삿
상
샃
새
색
샌
샐
샘
샙
샛
생
샤
샥
샨
샬
샴
샵
샷
샹
섀
서
석
섞
선
설
섬
섭
섯
성
세
섹
센
셀
셈
셉
셋
셍
셑
셔
셕
션
셜
셞
셡
셥
셧
셩
셰
셸
소
속
손
솔
솙
솜
솝
솟
송
솣
솥
솦
솨
솬
쇄
쇠
쇤
쇼
숀
숄
숍
숏
숑
수
숙
순
숟
술
숨
숩
숫
숭
숮
숯
숰
숱
숲
숴
쉐
쉑
쉔
쉘
쉠
쉥
쉬
쉴
쉽
쉿
슁
슈
슉
슐
슘
슝
스
슨
슬
슭
슴
습
슷
승
슻
슽
슾
시
식
싟
신
싣
실
싫
심
십
싯
싱
싴
싶
싸
싹
싼
쌀
쌁
쌈
쌉
쌍
쌓
쌔
쌕
쌘
쌤
쌥
쌩
쌰
쌴
썅
썡
써
썩
썪
썬
썰
썸
썹
썽
쎄
쎈
쎙
쎼
쏘
쏙
쏜
쏟
쏠
쏨
쏭
쏸
쑈
쑝
쑤
쑥
쑨
쑬
쑵
쑼
쓰
쓴
쓸
씀
씁
씨
씩
씬
씰
씸
씹
씻
씽
아
악
안
앉
않
앋
알
앏
앓
암
압
앗
았
앙
앝
앞
애
액
앤
앨
앰
앱
앲
앳
앵
야
약
얀
얄
얇
얊
얌
얍
얏
양
얗
얠
어
억
언
얹
얼
엁
엄
업
없
엇
었
엉
엌
엍
엎
에
엑
엔
엘
엠
엡
엣
엥
여
역
연
열
염
엽
영
옆
예
옌
옐
옛
옜
오
옥
온
올
옭
옳
옴
옵
옷
옹
옻
와
왁
완
왈
왐
왓
왔
왕
왜
왤
외
왼
욍
요
욕
욘
욜
용
우
욱
운
울
욺
움
웁
웃
웅
워
웍
원
월
웜
웡
웨
웬
웰
웹
웻
웽
위
윅
윇
윈
윌
윔
윕
윗
윙
유
육
윢
윤
율
윰
융
으
윽
은
을
음
읍
응
의
읨
이
익
인
읻
일
잂
임
입
잇
있
잉
잌
잍
잎
자
작
잔
잖
잘
잠
잡
잣
장
잧
재
잭
잰
잼
잽
잿
쟁
쟈
쟌
쟝
쟤
저
적
전
절
젊
점
접
젓
정
젖
제
젝
젠
젤
젬
젱
져
젼
졀
졔
조
족
존
졸
좀
좁
종
좋
좌
좨
죄
죈
죠
주
죽
준
줄
줌
줍
줏
중
줘
줴
쥐
쥘
쥬
쥰
쥴
쥼
즁
즈
즉
즌
즏
즐
즘
즙
증
즞
즡
지
직
진
질
짐
집
짓
징
짖
짚
짜
짝
짠
짤
짧
짬
짭
짱
째
짼
쨈
쨍
쨔
쨩
쨰
쩀
쩌
쩍
쩐
쩔
쩡
쩨
쪄
쪼
쪽
쫀
쫄
쫇
쫌
쫑
쫘
쭈
쭉
쭐
쭘
쭝
쭤
쮸
쯔
쯤
쯩
찌
찍
찐
찔
찜
찝
찡
찢
차
착
찬
찮
찰
참
찹
찻
창
찾
채
책
챔
챕
챗
챙
챠
챤
챰
챱
챼
처
척
천
철
첨
첩
첫
청
첲
체
첵
첸
첼
쳐
쳔
쳤
쳥
쳬
초
촉
촌
촐
촙
촛
총
촨
촬
촵
최
쵸
춀
추
축
춘
출
춤
춥
춧
충
춰
취
췻
츄
츅
츈
츌
츠
측
츤
츨
츰
층
츼
치
칙
친
칠
칡
침
칩
칫
칭
칲
카
칵
칸
칼
캄
캅
캇
캉
캌
캐
캔
캘
캠
캡
캣
캥
캪
캬
캰
커
컨
컬
컴
컵
컷
컹
케
켁
켄
켈
켐
켑
켓
켙
켜
켤
켸
코
콕
콘
콜
콤
콥
콧
콩
콭
콰
콴
콸
쾅
쾌
쾨
쾰
쿄
쿕
쿠
쿡
쿤
쿨
쿰
쿱
쿵
쿸
쿼
퀀
퀄
퀘
퀴
퀵
퀸
퀼
큐
큘
크
큰
클
큼
킅
킈
키
킥
킨
킬
킴
킵
킷
킹
타
탁
탄
탈
탉
탐
탑
탓
탕
태
택
탠
탤
탬
탭
탱
탸
턍
터
턱
턴
털
텀
텁
텃
텅
테
텍
텐
텑
텔
템
텝
텟
텡
토
톡
톤
톨
톰
톱
톳
통
톶
톸
퇘
퇴
툇
투
툭
툰
툴
툼
툽
퉁
튀
튁
튄
튜
튤
트
특
튼
틀
틈
틋
틑
틔
티
틱
틴
틸
틹
팀
팁
팃
팅
팉
파
팍
판
팓
팔
팛
팜
팝
팟
팡
팢
팣
팥
팦
패
팩
팬
팰
팸
팹
팻
팽
퍄
퍅
퍈
퍌
퍙
퍼
퍽
펀
펃
펄
펌
펍
펑
페
펙
펜
펠
펨
펩
펫
펭
편
펼
평
폐
포
폭
폰
폴
폼
폿
퐁
퐈
푀
표
푸
푹
푼
풀
품
풋
풍
풔
퓌
퓔
퓨
퓰
퓸
프
픈
플
픓
픔
픙
픞
픤
피
픽
핀
필
핍
핏
핑
핕
하
학
한
할
함
합
핫
항
해
핵
핸
핼
햄
햅
햇
했
행
햐
햡
향
햼
허
헌
헐
험
헙
헛
헝
헤
헥
헨
헬
헴
헵
헷
혀
현
혈
협
혓
형
혜
호
혹
혼
홀
홈
홉
홋
홍
화
확
환
활
황
회
획
횐
횟
횡
효
후
훅
훈
훌
훔
훗
훙
훠
훼
휀
휘
휠
휩
휭
휴
휵
흐
흑
흔
흘
흙
흠
흡
흥
흩
희
흰
히
힌
힐
힘
힙
힛
金
蘭
冷
樂
＆
（
）
＊
＋
．
５
６
ｰ
ﾋ
ﾙ
ﾞ
##가
##루
##사
##케
##자
##미
##튀
##김
##킨
##카
##레
##셋
##트
##라
##이
##듳
##치
##엄
##마
##r
##a
##y
##달
##속
##풀
##찌
##개
##반
##쌈
##만
##땅
##오
##뎅
##탕
##산
##금
##정
##막
##걸
##리
##테
##크
##브
##또
##타
##즈
##콤
##한
##황
##도
##슈
##우
##동
##로
##베
##서
##프
##르
##보
##꾸
##소
##바
##든
##쇼
##비
##뇽
##블
##랑
##샐
##러
##드
##면
##태
##고
##량
##주
##2
##팥
##빙
##수
##채
##곱
##창
##볶
##음
##몬
##에
##와
##A
##L
##스
##볼
##제
##컨
##지
##무
##필
##화
##불
##락
##진
##포
##판
##설
##기
##등
##백
##뛰
##세
##야
##슴
##살
##글
##알
##전
##파
##윙
##어
##특
##선
##씨
##복
##큐
##돼
##과
##회
##팸
##흑
##플
##렌
##딩
##걀
##샌
##위
##두
##찹
##쌀
##넛
##1
##죠
##노
##존
##짬
##짜
##새
##생
##하
##건
##강
##츄
##해
##물
##골
##밥
##춘
##시
##안
##얼
##그
##럽
##애
##식
##나
##쵸
##냉
##모
##밀
##토
##검
##은
##콩
##국
##조
##육
##장
##0
##g
##돈
##까
##석
##듬
##떡
##착
##즙
##티
##샷
##떼
##룡
##햐
##섬
##유
##추
##O
##D
##닭
##앙
##빵
##쪽
##갈
##콘
##냐
##롤
##찜
##큰
##양
##곰
##다
##E
##G
##N
##P
##i
##e
##c
##s
##니
##신
##챠
##돌
##냄
##차
##폭
##탄
##빠
##네
##런
##메
##뉴
##일
##룻
##페
##S
##m
##l
##콕
##게
##짱
##뽕
##초
##코
##매
##3
##총
##완
##굴
##운
##삼
##샤
##심
##o
##랭
##겹
##쉬
##d
##꼬
##n
##배
##둠
##T
##튜
##념
##구
##원
##말
##끼
##발
##합
##맥
##f
##닉
##청
##텔
##랙
##쭈
##녹
##덮
##항
##I
##C
##H
##Y
##셀
##섯
##얀
##순
##부
##x
##t
##5
##샘
##9
##퐁
##롬
##간
##돔
##체
##머
##먹
##렙
##인
##딸
##요
##통
##칠
##피
##딥
##릴
##으
##변
##경
##욱
##솥
##받
##민
##당
##빔
##버
##웰
##뷔
##림
##숯
##랜
##종
##류
##꽃
##환
##w
##뜰
##셜
##쉐
##웨
##린
##츠
##8
##6
##싱
##빈
##렐
##뼈
##콜
##릿
##핀
##헤
##팔
##싹
##병
##엉
##룹
##향
##술
##뇨
##핫
##X
##쑥
##참
##대
##규
##롯
##날
##임
##멍
##터
##허
##틀
##키
##친
##션
##후
##망
##래
##의
##켄
##아
##접
##계
##란
##p
##u
##난
##R
##쏘
##곡
##4
##점
##너
##커
##상
##명
##닥
##디
##관
##누
##벨
##준
##긴
##송
##묵
##침
##쿠
##짐
##왕
##군
##연
##방
##옻
##입
##는
##늘
##숙
##칼
##삭
##릭
##듀
##뱅
##쫄
##울
##감
##링
##봉
##즐
##호
##셔
##뗴
##벌
##낙
##z
##담
##맛
##집
##갱
##용
##h
##멜
##최
##븐
##잘
##릉
##성
##징
##족
##벼
##천
##엽
##팟
##녕
##센
##단
##슨
##뽀
##남
##영
##밤
##찰
##K
##저
##얄
##U
##갸
##느
##7
##벤
##더
##칩
##문
##M
##분
##첩
##쥰
##팩
##잭
##v
##를
##짝
##럿
##있
##움
##쓰
##V
##품
##근
##넘
##샹
##쯔
##틴
##캘
##귀
##료
##곤
##궁
##쑈
##롱
##탈
##역
##맑
##쥬
##멘
##랩
##클
##숭
##질
##꼼
##각
##뚠
##k
##믹
##죽
##거
##내
##따
##색
##철
##박
##께
##닝
##른
##랫
##줄
##B
##b
##본
##목
##Z
##깐
##풍
##붕
##펠
##퀄
##히
##편
##캬
##홍
##된
##퍼
##핑
##렁
##녁
##람
##®
##득
##름
##을
##벗
##눈
##직
##짤
##틱
##행
##작
##중
##덕
##재
##즌
##댁
##열
##슬
##컬
##폴
##텐
##님
##엔
##랄
##왈
##텃
##엣
##듭
##들
##언
##킹
##졸
##립
##닐
##농
##쨈
##빼
##능
##믈
##렛
##찬
##손
##킷
##겟
##촌
##햄
##젊
##넨
##앞
##공
##맘
##깜
##몰
##실
##닌
##캉
##쇠
##F
##껍
##데
##쨰
##첫
##렉
##맨
##절
##팬
##익
##퓨
##뚝
##교
##W
##콥
##푼
##띠
##넬
##낼
##워
##처
##올
##꼴
##둣
##쎄
##뚜
##출
##혈
##씩
##웃
##효
##패
##뮤
##똥
##룽
##잔
##론
##퇘
##쌍
##길
##젠
##넓
##적
##찐
##푸
##몽
##픈
##약
##훈
##혜
##펀
##럼
##급
##젓
##팅
##표
##칸
##Q
##곻
##업
##컵
##독
##깃
##함
##택
##뜨
##탑
##엑
##옥
##외
##되
##밴
##형
##깔
##뿌
##온
##뢰
##첸
##좌
##뿍
##멱
##딴
##째
##썸
##광
##흥
##툰
##겐
##램
##킬
##셰
##북
##뒷
##멕
##룩
##딤
##깨
##꼰
##예
##칵
##투
##때
##냥
##낭
##솔
##봌
##ㄲ
##귤
##령
##격
##뽈
##혼
##옛
##ま
##き
##ゅ
##う
##り
##평
##력
##쁘
##둥
##년
##꿍
##므
##셉
##잡
##럭
##촉
##앤
##픽
##숄
##캐
##십
##극
##숫
##켈
##할
##펄
##둘
##캔
##톡
##결
##꿀
##뽁
##빨
##텁
##끈
##졀
##월
##쿄
##뻬
##빽
##팀
##깡
##굿
##떢
##뿔
##켓
##긋
##j
##없
##밋
##똠
##얌
##탁
##쇄
##벳
##잼
##끝
##뮬
##덜
##잎
##콰
##별
##활
##쿨
##띵
##잉
##학
##펙
##젤
##같
##끄
##뤼
##궈
##떨
##려
##봐
##널
##쪼
##뇌
##슐
##냑
##샬
##빗
##됨
##섞
##뷰
##＋
##꼐
##옹
##폰
##벡
##놀
##현
##빌
##델
##엘
##캰
##뱃
##취
##못
##칭
##져
##욕
##렝
##겸
##둔
##엇
##퓸
##땡
##칫
##찍
##록
##견
##곶
##첼
##뵈
##많
##옌
##뻤
##덴
##멸
##멧
##꿔
##ㆍ
##륜
##홀
##붓
##춧
##흙
##겠
##츨
##큘
##갑
##º
##헨
##팜
##충
##펃
##샥
##텀
##쟁
##짓
##놈
##닷
##렘
##뚱
##벵
##밑
##핼
##쭉
##섭
##꽁
##쉽
##q
##숏
##펑
##여
##윗
##윢
##났
##잇
##둑
##룸
##캣
##폐
##톳
##악
##덩
##빛
##륏
##끌
##괄
##맵
##앗
##볿
##팝
##컴
##썰
##잠
##낫
##텅
##햇
##힌
##숴
##펜
##휘
##튼
##빕
##쳬
##뽂
##깍
##굑
##릇
##쫀
##덧
##솟
##쳐
##암
##둗
##솝
##윈
##숩
##밖
##번
##뻘
##꺼
##쏙
##쁨
##뒤
##컷
##옴
##팡
##웜
##련
##젼
##찝
##츰
##톨
##륭
##껏
##딜
##싸
##힘
##증
##객
##낄
##썬
##랴
##액
##희
##넷
##왁
##휴
##쥐
##껑
##휠
##뭇
##벅
##억
##좋
##녀
##낸
##빅
##헌
##깻
##넣
##삐
##덥
##펭
##랍
##겨
##é
##툼
##땐
##흐
##숲
##켤
##삿
##았
##딕
##끔
##샨
##꼽
##즉
##엠
##탱
##낵
##축
##홉
##염
##뗄
##퀘
##밸
##싼
##값
##봤
##쾰
##헝
##훼
##틸
##템
##줌
##슻
##륄
##ㄴ
##멋
##뀌
##큼
##덤
##퀴
##봄
##숨
##댓
##킴
##잌
##낑
##뗌
##땀
##킥
##것
##→
##짠
##봇
##훠
##팽
##톤
##앵
##볍
##핵
##딱
##칡
##쿼
##텟
##팍
##팓
##늉
##눌
##맷
##뻐
##턴
##팃
##퀸
##벽
##J
##범
##옵
##권
##며
##팢
##괴
##룬
##똑
##딧
##협
##었
##떙
##뭋
##답
##꺄
##룰
##˚
##써
##넌
##씬
##뻔
##밭
##압
##넙
##찔
##켜
##꺠
##걷
##챙
##쿰
##캇
##층
##맡
##댕
##붉
##쌉
##즘
##묜
##´
##쯩
##챱
##퀼
##뺴
##랗
##꺽
##쩡
##쨔
##례
##솣
##힙
##늩
##삽
##탠
##칙
##쿱
##뤄
##촛
##뷜
##췻
##납
##슘
##엌
##옐
##폼
##몸
##°
##빤
##ù
##챗
##던
##승
##핸
##털
##Ⅱ
##씽
##책
##흰
##닙
##솜
##힐
##듯
##끛
##ℓ
##릎
##둬
##렬
##얹
##숍
##롸
##썅
##뺀
##탤
##펌
##퍈
##줏
##녜
##럴
##툴
##톰
##밍
##엎
##갓
##퉁
##맞
##숟
##묿
##벚
##５
##율
##쿡
##팦
##붐
##엥
##ㅍ
##뜌
##혀
##잣
##헛
##텝
##뭉
##픔
##핏
##웍
##핍
##띨
##곁
##갤
##Ⅰ
##뜸
##쁙
##뜻
##콧
##×
##쉘
##쉔
##갍
##법
##닛
##꽈
##묘
##푹
##è
##짚
##곹
##퇴
##낚
##쌩
##삶
##뺘
##쟈
##뮈
##윅
##뺑
##멈
##쭘
##탭
##씸
##혹
##껌
##찡
##잽
##뉼
##윤
##볏
##튤
##쁜
##킈
##쑨
##밝
##랏
##챔
##★
##빳
##텍
##웅
##퍅
##늄
##슷
##랠
##셍
##펨
##썪
##균
##늑
##뎀
##멀
##옭
##굽
##흡
##ㄹ
##●
##삺
##롭
##퀵
##겔
##얏
##붜
##섹
##넥
##풋
##괜
##찮
##쫑
##늬
##껴
##캄
##쑤
##쩌
##뚤
##짼
##앰
##촨
##릅
##숀
##Û
##É
##퍄
##ㅗ
##ㅇ
##슾
##춤
##깁
##솬
##쁠
##댄
##헬
##ワ
##ビ
##６
##숑
##쉑
##틈
##℃
##ㅐ
##쏭
##벙
##촐
##논
##맄
##팁
##렇
##먼
##똘
##푀
##뇩
##몪
##낡
##싶
##뉵
##펫
##딘
##힛
##험
##팛
##ㄷ
##뭥
##떠
##쌥
##넡
##릣
##ㄱ
##썩
##닮
##맆
##밧
##끗
##끓
##맬
##ㅋ
##겉
##듄
##믐
##뉘
##뇰
##및
##뽄
##턱
##꼭
##웹
##쏨
##™
##략
##껨
##했
##젝
##슉
##깅
##쏠
##겡
##탸
##먁
##꿈
##쫘
##읨
##않
##띰
##겅
##습
##헥
##녘
##똰
##헷
##홈
##쿵
##뻥
##캡
##븥
##쩔
##쑝
##낱
##헐
##쳤
##빚
##쎈
##욘
##먄
##빰
##냠
##웽
##깬
##룁
##왼
##맹
##릐
##륵
##흘
##숰
##삔
##떄
##빡
##렵
##놋
##첨
##응
##뿡
##댜
##믄
##률
##줘
##뿐
##짭
##솦
##♥
##잍
##ャ
##ー
##シ
##ュ
##휀
##쥘
##팻
##셥
##솨
##뿜
##넉
##춥
##곷
##찾
##흔
##쫇
##샴
##땜
##앨
##툭
##꿩
##옷
##셕
##짖
##돍
##뤨
##척
##끽
##싣
##뭐
##슁
##펍
##퀀
##탬
##찻
##폿
##퐈
##셈
##닾
##깊
##뿅
##꽥
##삠
##ㅡ
##쏟
##룤
##È
##둰
##셡
##겁
##싟
##앏
##줍
##샵
##갯
##싫
##멤
##∙
##낌
##꽌
##½
##즞
##픙
##넹
##뽐
##썽
##될
##멩
##칲
##샃
##돏
##뭏
##슭
##뜯
##맀
##긍
##밈
##뷴
##넵
##탐
##씰
##앱
##톸
##쾌
##삥
##ㅢ
##맴
##쿤
##긅
##굯
##팉
##퓰
##첵
##꽉
##덻
##욜
##톱
##쟌
##륀
##깽
##팣
##삷
##꾼
##뀔
##쌘
##돗
##젖
##확
##늗
##ᆞ
##낀
##딹
##쩍
##펩
##훌
##쌰
##썹
##쌕
##윇
##갬
##똔
##꺾
##릠
##ん
##귄
##툽
##쟝
##텡
##뽑
##잖
##졔
##벋
##꽐
##뤌
##횟
##겆
##릌
##뭄
##メ
##ン
##띤
##퓌
##틋
##슝
##볜
##촬
##젱
##앋
##캌
##㎖
##틹
##획
##랸
##듦
##춰
##걉
##ä
##꿋
##쾅
##쉥
##쥴
##쿸
##믕
##셸
##돋
##헵
##셞
##쨩
##듐
##밆
##잧
##뤽
##엡
##왓
##쩨
##촵
##럵
##츼
##ㄺ
##륙
##휭
##궤
##읍
##뎨
##흠
##씻
##쓸
##봅
##캅
##픞
##럳
##윌
##틔
##쉴
##듈
##붸
##굼
##①
##꼅
##웬
##먀
##켙
##뤠
##챤
##퍽
##켸
##싯
##긑
##럇
##떵
##눔
##렡
##됩
##츤
##뜬
##틑
##죈
##겜
##풔
##û
##쭤
##뗼
##깉
##묶
##샙
##훙
##걋
##햡
##뺸
##뱝
##꼿
##즡
##좀
##돕
##멵
##쏸
##꿉
##융
##뷸
##슽
##쯤
##믁
##앉
##낮
##굷
##ﾞ
##ｰ
##ﾙ
##꾹
##밟
##눅
##튁
##밲
##얗
##왔
##ㅔ
##컹
##쩀
##팰
##±
##궐
##걱
##윽
##욺
##덷
##꽂
##돤
##캠
##녑
##ㅅ
##읻
##켑
##뫼
##걔
##넝
##낳
##ㅁ
##껩
##덟
##땃
##렍
##も
##や
##し
##즏
##냘
##Â
##윔
##킅
##뱡
##맠
##븡
##겥
##뼌
##갛
##헴
##ㅑ
##ㅣ
##먕
##벱
##せ
##끊
##②
##0g
##라떼
##고기
##ml
##볶음
치즈
##CE
ICE
1인
##이드
##0ml
##찌개
##국수
##00g
##OT
카페
##구이
##이스
2인
HOT
##갈비
세트
##이크
##치킨
김치
##치즈
라떼
##튀김
##메리
##ot
해물
##카노
##메리카노
##만두
##새우
소주
새우
아메리카노
레몬
##50g
##세트
##추가
##덮밥
매운
##메뉴
##피자
맥주
1인분
##ar
치킨
모듬
##수육
자몽
##볶이
##마리
##러드
##정식
##냉면
##사리
한우
음료
##까스
##00ml
##베리
##짬뽕
##ce
##전골
아이스
##이트
##닐라
추가
##스타
##징어
##김밥
##두부
200g
크림
바닐라
##기밥
순살
##치노
공기밥
비빔
##에이드
##크림
##걸리
딸기
볶음
150g
##무디
##볶음밥
계란
수제
##라멜
##불고기
##겹살
##le
18
청하
##김치
##맥주
10
감자
##테이크
카페라떼
##비빔
세트메뉴
에이드
##푸치노
카라멜
밀크
3인
##거트
##우동
ICED
##이상
콜라
참치
초코
양념
##장찌개
##프레
소고기
연어
블루
12
돼지
##pc
##스트
오징어
샐러드
음료수
##이다
##구마
##al
블랙
삼선
막걸리
##비빔밥
##초밥
##마토
볶음밥
오리
고추
##레이
파스타
180g
##pcs
에스
##모카
2인이상
##프레소
갈비
피자
차돌
##떡볶이
##라면
4인
낙지
사이다
에스프레소
##00
##무침
##다리
망고
고구마
카푸치노
제육
프라
야채
500ml
##5ml
콜드
밀크티
토마토
베이
유자
##렌지
##ge
##ott
##la
전복
##50ml
##말이
##eg
광어
블루베리
그린
Ice
##ul
깐풍
우동
라면
##아또
##돈까스
스테이크
##짜장
녹차
##시미
##ottle
##그레이
##et
허니
김치찌개
##in
##ET
불고기
순대
##브루
##스무디
페퍼
얼그레이
##ular
##egular
된장찌개
##나나
카페모카
##배기
간장
요거트
##조림
모카
##족발
과일
##er
##페셜
##프라
##분자
##마일
버섯
오렌지
00
바닐라라떼
##탕수육
##주스
Hot
##콜릿
콜드브루
매콤
##초코
##모마일
만두
얼큰
##an
##룽지
##arge
짬뽕
ice
##카레
탕수육
##샐러드
화이트
정식
베이컨
스무디
Regular
##라이드
##감자
고기
플레
두부
30
복분자
##꼬치
##AR
계절
11
카스
##라이스
마늘
##라우
##삼겹살
##꾸미
##ss
점심
##등심
매운맛
##끼아또
##국밥
##매운
##민트
##먹밥
##삼겹
##all
##소스
##버거
스파
생맥주
SET
Large
##곱창
##보쌈
##ea
##양념
아이스티
##드위
##드위치
돈까스
##on
그린티
##순대
떡볶이
아구
냉면
##장국
##cc
hot
##칼국수
##개장
##뱅이
제주
##테이
보쌈
##포도
Bottle
허브
삼겹살
##과일
##낙지
초콜릿
15
##세주
2인분
##이슬
##테이토
##숭아
오뎅
백세주
##오리
##밀크
##커피
계란찜
짜장
커피
플레인
등심
순두부
칠리
하이
##해물
비빔냉면
페퍼민트
##오징어
오리지
더블
물냉면
##닭발
##버섯
100g
스페셜
로제
바나나
##모듬
튀김
청포도
동태
미니
후라이드
##림프
민트
##돼지
반반
부대
##lass
육회
클라우
##케이크
복숭아
레드
##해장국
화요
클라우드
##이즐
##량주
##요거트
##스테이크
사리
16
테라
헤이즐
##리탕
##사시미
참이슬
한마리
##콜라
##라이
##산물
##잡채
##마요
새우튀김
250g
13
##마이
##코스
평일
14
##박이
##찜닭
##전복
카라멜마
연태
##한맛
캐모마일
##게티
마라
##계란
우럭
##야채
##카츠
누룽지
##리오
##레몬
750ml
17
헤이즐넛
쭈꾸미
##산슬
제육볶음
해산물
##계탕
##데기
곱창
사천
##파스타
기본
모둠
수육
##막걸리
##등어
갈릭
##단계
처음
골뱅이
##기준
##리미
오리지널
##en
돌솥
##아게
##처럼
샌드위치
##샤브
처음처럼
생선
##순두부
##20ml
육개장
##가스
뚝배기
##세지
ON
##고량주
300g
##로니
##조또
##LY
감자튀김
카레
##애플
##치알
##만두국
단품
문어
25
##은지
애플
##러플
##mall
##라아게
##카페
산낙지
보통
메밀
##호박
황태
차돌박이
##밀크티
코코
ONLY
홍어
부대찌개
##송이
흑당
##베큐
##스파
##빙수
##갈비살
철판
37
##쥬스
순한맛
트러플
##나물
20
프라페
##ly
매화
해삼
##갈비찜
##보스
라면사리
라조
쉬림프
720ml
##야끼
유산슬
직화
족발
##이보스
##도리탕
##or
고등어
한라
##김치찌개
쟁반
깐풍기
주스
##장피
잡채
##이즈
사시미
##스틱
마파
더치
매화수
375ml
##조각
##볶음탕
33
##ch
묵은지
홍차
아포
굽네
##AN
포테이토
##it
칼국수
양장피
레몬에이드
대구
파인
##nly
비프
##베르
##비뇽
토닉
##토리
고추잡채
안심
##어탕
초코라떼
##접시
##매운탕
##버터
계란말이
##비스
리얼
카라멜마끼아또
##트로
##된장찌개
루이보스
##레드
##렐라
35
날치알
##모밀
생과일
키위
아이스크림
주먹밥
비빔밥
초밥
##강정
##커스
##00cc
##파전
에그
명란
갈비탕
아구찜
크림치즈
녹차라떼
##가지
옛날
마파두부
하이볼
진로
어묵
Glass
연유
##르보
리조또
##ou
##짜렐라
##르곤
##페너
국물
1개
코다리
##at
쌀국수
##베이
##리스
3개
세트메뉴1
숯불
##주먹밥
찹쌀
##카도
##막국수
##백숙
말차
##LE
크로
##가리
Small
왕새우
덮밥
자몽에이드
유자차
감자탕
부추
단호박
팔보
##비스커스
##인슈
##목살
허브티
양념치킨
##갈릭
일품
##곰탕
교촌
##보카도
##치국수
구이
게살
##라미
##국장
##ER
먹태
##시락
330ml
##정살
목살
고르곤
스프라
##리아
RE
버터
아인슈
쫄면
스프라이트
2개
3인분
##졸라
##육회
오후
알탕
프라푸치노
팔보채
##EA
##머리
5개
준마이
355ml
도미
##고추
당면
산사
장어
물만두
닭볶음탕
##IN
##장어
연태고량주
산사춘
##로케
##네이
버블
##냉채
프리미
##골드
생삼겹살
##코타
우삼겹
##수제
코코넛
##아이스
까르보
삼선짬뽕
콩국수
##UL
##지락
히비스커스
##간장
와인
##가토
##워터
##된장
로얄
계절메뉴
고르곤졸라
골드
##므라이스
##프라페
자연
##나베
##es
##누룽지
아보카도
스파게티
소스
##똥집
두부김치
블렌
스팸
##ps
오뎅탕
아인슈페너
마끼아또
##시지
탄산
##와이
bottle
##마늘
##콤보
##연어
##자몽
##제육
##GE
낙지볶음
set
##바나나
##ed
토피
파인애플
닭도리탕
##사비
우유
회덮밥
한라산
600g
청국장
##나라
쇠고기
##르트
송이
타코
##가니
변경
열무
잡탕
##르츠
플랫
환타
##갈비탕
해물파전
토닉워터
##ic
떡만두국
Iced
리코타
##한마리
새우볶음밥
##쌀국수
##부대
##소주
병맥주
순두부찌개
프리미엄
##GUL
##순살
REGUL
REGULAR
비빔국수
고구마라떼
쉐이크
##um
##까지
케이크
##스터
꼬막
생강
##ol
##ig
군만두
꽃게
700ml
한방
##카롱
##가주
##거지
항정살
##베르네
내장
##숙회
김치볶음밥
##우스
130g
깐쇼
##돌뼈
페퍼로니
##ARGE
수제비
LARGE
바지락
잔치국수
##긴죠
유린
세트메뉴2
##철판
공부
돌체
갈치
##금구이
##리브
후식
모짜렐라
아포가토
Set
전골
Ch
반마리
##로우
##ran
공부가주
##오뎅
##내장
글렌
##미자
##리쉬
패션
##진로
오징어볶음
가지
런치
##후라이
숙성
##슴살
##de
##꼬시
XL
여름
민트초코
순대국
그릴
##레오
닭고기
소세지
브루
##딸기
도가니
스트로
##쉐이크
##AL
##누룽지탕
##스페셜
잡채밥
콩나물
##렁탕
##소바
스트로베리
일품진로
2pcs
제육덮밥
멍게
예약
##클링
티라미
돼지갈비
##음료
##기농
##키아또
##삼계탕
자바
능이
##블랙
돌솥비빔밥
코스
한치
##가슴살
라임
##포테이토
훈제
##나몬
돼지고기
250ml
카모마일
유린기
##스민
짜장면
##수제비
##어묵
고추장
김치전
##kg
블랑
유기농
싱글
##디아
레몬차
까르보나라
조개
160g
##텔라
##카페인
1마리
삼겹
피치
500g
샤브
저녁
4개
##il
코카
##어회
##하이
어린
##가사
##파이
##팔로
토스트
##스카
오돌뼈
케이
##am
##래식
##통닭
##리스피
쿠키
##샌드위치
##막창
도다리
디카페인
Tall
된장
##oz
##니언
곱창전골
##가든
##is
##특선
##hot
갈비살
바베큐
스타
냉모밀
오늘
##바스
##000
##도그
##물회
##re
##그니
김밥
코카콜라
들깨
하우스
10개
##이시
##시까지
푸라
##ie
201
보리
##as
소면
자몽차
사천탕수육
떡갈비
오므라이스
##렌치
5인
##디드
깐쇼새우
##요거트스무디
##그리
우동사리
##게장
우거지
4인분
녹두
##바베큐
##리비
##토마토
##피스
왕만두
달콤
진저
케이준
CO
##고구마
홍합
라조기
무뼈
##가루
##탕면
나가사
##사디아
버거
스프
##소고기
##임자
##후르츠
한우육회
겨울
닭발
마키아또
호가든
##몬드
##짬뽕밥
알밥
##요리
닭가슴살
티라미수
사과
유부
일반
눈꽃
바질
##가츠
구운
##ing
스파클링
##쇠고기
Only
라이스
클래식
##el
##ra
##고나
##따오
베리
토종
##짜면
##참치
소갈비살
시그니
시럽
##가라아게
##화이트
치즈돈까스
##매운맛
닭똥집
흑임자
21
소시지
주말
황도
##루치
##쿠키
##포탕
마르
##에일
칭따오
해물찜
가리비
국내
어향
##중새우
술국
##순대국
##조개
##엔나
##아메리카노
보통맛
어린이
2p
##초콜릿
자연송이
##감자탕
##생맥주
라조육
토피넛
##버블
##대구
까베르네
##라스
6개
만두국
##매기
크리스피
##와사비
오늘의
생굴
##AT
##차돌
모듬회
##백반
빙수
##쌈밥
그린티라떼
##ti
##쟁반
레몬티
1인기준
소불고기
하이네
##지리
##니니
연유라떼
국내산
프로
##ON
어니언
생크림
샷추가
아구탕
잡탕밥
##수수
##25
매운탕
##전복죽
특선
돈가스
##루치기
##소세지
하이네켄
스노
500cc
사골
##퍼스트
짬뽕밥
##베이컨
프렌치
##네이션
##라운
체리
##와플
##생크림
##후라이드
##이긴죠
##se
##히또
##빼기
크로플
##브리
##와인
고등어구이
감바스
도토리
오미자
##비네이션
달고나
로즈
스윗
##가능
헤이즐넛라떼
번데기
##리플
1kg
닭갈비
##쭈꾸미
120g
only
막창
주문
##닭갈비
하와이
##거스
감자전
##안주
##돈가스
사케
잉글
##케익
##물럭
##게트
400g
로스
후라이드치킨
##파닭
##생이
와플
##도시락
10pcs
시그니처
과일차
##망고
갈치조림
햄치즈
함박
동태탕
##타이
##te
물회
누룽지탕
곱배기
##가복
요거트스무디
뚝배기불고기
##셋트
##토스트
푸라반
##러스트
##AS
##안심
glass
가라아게
##날개
패션후르츠
##뚝배기
야끼
##무스
참치김밥
노가리
##라피
300ml
국수
삼계탕
서울
##솥밥
10p
떡사리
간짜장
##도로
해물탕
##리필
땅콩
전가복
오징어덮밥
우렁
세트메뉴3
농어
##고로케
##텐더
##라멘
간장새우
900ml
##ri
오레오
히레
##치살
##ru
##문어
##완스
##런치
##아이스티
스파이시
아몬드
##우럭
시나몬
삼선볶음밥
170g
블렌디드
22
양푼
해물순두부
##레쉬
##숫가루
##별도
왕새우튀김
냉채
산토리
생연어
이상
##자완스
깐풍육
뼈해장국
쟁반짜장
무침
트리플
##야또
##SET
알리오
##취순
##계란말이
Ca
##스핀
##육개장
##om
영양
똥집
오향
오곡
##리에
##스파게티
자스민
오일
떡국
매취순
아이
특대
##짬뽕탕
곱빼기
##프리
12년
생강차
##바이트
##절미
##한리필
설렁탕
양지
하프
오전
한접시
##곱창전골
막국수
##이노
사리추가
골뱅이무침
Gran
SI
윙콤보
##주볶음
치즈김밥
##로스
##박스
##껍데기
생대구
옥수수
미트
매생이
##우유
##11
##구로
Sp
도시락
매실
고기추가
##삼합
##끼야또
포도
마카롱
##장육
치즈볼
딸기라떼
쇼비뇽
한정
명품
버팔로
2마리
현미
##CH
부추전
한돈
##매기살
##케이노
##벅스
##양념치킨
##000cc
채끝
동태찌개
27
올리브
##관자
중새우
##루트
##해삼
갈비찜
소비뇽
쥐포
순살치킨
##토닉
스타벅스
추어
자몽티
##라피뇨
명태
에비
##커리
##위트
##래터
##브레드
##골레
관자
커리
##회덮밥
찹쌀탕수육
##타르트
##bo
##감자튀김
중국
##다귀
##먹는
##카페라떼
##치스
##ta
잉글리쉬
계란탕
타코와사비
꽃빵
콤비네이션
베이글
국물떡볶이
난자완스
모히또
##비아
##칠리
11시
이베리
파닭
##ES
##부추
##왕갈비
고로케
##ine
40
청귤
토핑
당면사리
##모둠
##래기
##절기
##스파라
비엔나
꽃등심
대추
공기밥별도
라볶이
마른
와규
##OTT
차돌된장찌개
믹스
핫치킨
##소면
깐풍새우
##our
이베리코
석류
포장
핫초코
##EW
치즈스틱
##set
##뱃살
플랫화이트
다크
##퀘사디아
12y
19
쥬스
##푸드
웰치스
대구탕
CH
대창
##드레
짜장밥
메밀전
##12
민물
##골뱅이
##국물
##50
화요25
##부대찌개
##리안
##세꼬시
미숫가루
##드카
##주문
볼케이노
봉골레
홍게
##pp
삼선우동
25L
PM
##라탕
##라또
##피아
핸드
유산슬밥
뼈다귀
하이트
##ck
오븐
어묵탕
Grande
닭강정
2인기준
##야채죽
##블랑
##게리
36
꼬치
소금구이
##EN
##PA
##네스
하와이안
##콩국수
##un
갑오징어
꿔바
##한판
참치마요
메로
할라피뇨
##AND
데리
##자미
##유자
##메밀
슈퍼
인절미
오삼
요거
즉석
##로제
##랜드
육회비빔밥
##나무
해물누룽지탕
##브리살
BOTT
김말이
무뼈닭발
마파두부밥
도토리묵
##바이트피자
살치살
스텔라
수제청
연어초밥
탄산수
##반반
멕시
##치아
청포도에이드
NEW
##치즈볼
8개
##이즈백
##하이볼
##스파라거스
BOTTLE
불족발
아사
우니
페리에
##러스
##없는
탄산음료
##프림
사이즈
모듬튀김
머리
무한리필
바삭
아주
진로이즈백
##다랑
치즈떡볶이
LA
Sa
라즈
바게트
##오뎅탕
23
연포탕
##스프
##ZE
불닭
##보리
치즈추가
##버섯죽
닭다리
땡초
체다
##르바
##훈제
##레몬에이드
빨간
청양
한상
허브차
칠리새우
생과일주스
떡라면
불낙
##소금구이
플레이트
염통
우롱
##co
전복죽
안동
##피딕
오리지날
더치커피
치킨가라아게
##팥죽
##카레라이스
기네스
##허니
##old
마르게리
##lan
##리얼
##테일
##다랑어
##미역
##변경
모듬전
47
내장탕
굴짬뽕
##포함
##에그
SIZE
프레
##블루
##꼴라
두마리
씨푸드
##오피아
##주물럭
##RI
활어
Co
육전
중간
카츠
##쉬룸
로스트
샤브샤브
삼치
##크러스트
##추리
##굴비
##간짜장
##움바
로얄밀크티
##라프
##오렌지
##한우
계란후라이
점심특선
##추어탕
블랙티
2인분이상
멸치
앱솔
향라
##리또
##도네
iced
작은
지리
호두
##그린
간장게장
꿔바로우
추어탕
타로
##로나
##짬면
이과
##10
크림새우
카라멜라떼
##오리지
소라
##카토
##스토
##알밥
##생선
##천왕
##치즈케이크
지평
##파인
##enti
제로
##루아
##마이다
##스키
##ite
부산
뼈없는
스위트
크리미
##ff
##ber
4pcs
껍데기
반상
##UR
토피넛라떼
번데기탕
##쿠리
나가사끼
##메기
치킨텐더
##ign
아사히
1pcs
갈매기살
아귀
한판
##라타
세트메뉴4
열무국수
멕시칸
45ml
shot
시래기
쿨피스
##도네이
##토핑
치즈라면
Jum
스콘
##채살
##ur
##프트
##RA
##쫄면
전통
##쟁반짜장
Jumbo
24
보드카
##식빵
가마
##ad
##바타
##뼈찜
간장치킨
생선구이
스노우
앱솔루트
맑은
세꼬시
굴전
##오븐
##len
루꼴라
##두주
##배추
그릴드
350ml
브레드
##30
라즈베리
2단계
팥빙수
편육
##사케
##플레
꽁치
반건
소금
##iz
12pcs
야채김밥
1단계
휘핑
딸기바나나
등심돈까스
regular
곤드레
소머리
스시
3단계
후레쉬
##다끼
##대떡
28
돈카츠
##ec
12p
##마이다이긴죠
AM
메뉴
황금
##초무침
오곡라떼
가브리살
머쉬룸
플래터
##라뗴
##동주
##비프
##od
##라우니
통새우
리코타치즈
메밀전병
나쵸
함흥
##도우
큐브
혼마
흑돼지
##마끼
##파육
글렌피딕
도가니탕
셋트
울면
치즈피자
##돼지갈비
브라운
통영
##카세
##ro
##ee
고르곤졸라피자
꼬리
발렌
수박
##타인
##화차
##TE
##울면
고량주
버드
커플
##드립
##그리아
생등심
설원
##ium
##품은
5L
섞어
##핫도그
김치전골
더블치즈
토종닭
##즐링
냉채족발
2P
##스면
##요일
깔라
##불백
##꼬막
문어숙회
##러쉬
##3ml
##콜렛
마약
생목살
##두루치기
125ml
생선까스
아포카토
쇼콜라
해장
버블티
자바칩
함박스테이크
기스면
생고기
프라이
Venti
꼬마
대하
앵그리
육포
##비지
##창살
##품냉채
차이
통오징어
##리조또
##한상
1호
곁들
샤도네이
월남
웨지
##밀리
##니아
마라탕
##샤브샤브
보리굴비
가츠
조기
참다랑어
김치만두
김치말이
핑크
##지해장국
##uv
##카레우동
##ourse
이과두주
곡물
##불닭
##IC
##프레제
짬뽕탕
간바
에티
##사발
##랜베리
2ps
더덕
##생강
270g
발렌타인
부채살
양고기
해물라면
##스카토
생대구탕
뉴욕
메이
473ml
콤보
##파리
##술국
##올리오
불고기피자
Wh
도쿠리
동파육
시저
##라즈
사이즈업
##라임
##우육
##김치전
##부추전
포크
홍소
##삼선
##샥스핀
후식냉면
디너
##니엘
##부위
##김치볶음밥
에티오피아
##20
##콩나물
##버드
드립
피노
##ith
민물장어
건두부
스페
타이
##돈카츠
##숙주볶음
꽃게탕
양파
육사시미
##베이크
##올리브
오리진
고기만두
월남쌈
부라타
오이
칵테일
##오겹살
##모짜렐라
##당면
##휴일
혼마구로
랍스터
와사비
##로네
##회무침
매운갈비찜
삼선짬뽕밥
Tea
위스키
호박
##마카롱
마늘간장
자연산
골든
파니니
##깃밥
##노미
##껍질
##데이
말차라떼
궁중
##떡갈비
삼선간짜장
코다리조림
앵그리버드
1L
large
가자미
공깃밥
소곱창
##소시지
세트1
만두라면
반반치킨
핸드드립
반건조
ST
악마
##CS
모듬수육
##내장죽
바다
올리오
은행
조니
##귤러
마른안주
면사리
몬테
##베니
##대창
##아이스크림
나가사키
##준마이
한라봉
모밀
이탈
##폴리
오향장육
양갈비
##UN
##ble
한우차돌
자두
##사이
모듬초밥
쟁반막국수
##품은죽
오겹살
##사삭
##오무
##제르바
220g
버드와이
모과
찐만두
카프레제
해파리
##둣국
삼선울면
과일주스
해삼탕
B코스
발베니
41
아마
크랜베리
##한정
##쉬림프
##ke
카라멜마끼야또
small
제철
##오므라이스
##LD
라구
핫도그
##버그
##치오
##식혜
##인치
12Y
곁들인
##트남
##아즈
해물짬뽕
오징어튀김
갈비만두
모짜렐라치즈
##iece
##이브
##수부위
##워커
##ard
케냐
##앤크
##edium
주문가능
메기
##복분자
눈꽃치즈
필라프
##스티
##점심
##양념구이
보쌈정식
##ignon
3pcs
석화
안주
윙봉
조림
##라워
##소라
##OR
쭈꾸미볶음
아메리
##ter
##해물찜
##설렁탕
낙지찜
아이리쉬
3시
##설빙
##청주
##래미
100
코다리찜
##라볶이
참치회
오삼불고기
콘치즈
홍게품은죽
Glen
기준
베트남
별도
쿠앤크
패밀리
##ay
대패
황제
##도리
##명태
복숭아아이스티
홍어삼합
민트초코라떼
갈비천왕
야채곱창
##ING
페퍼로니피자
##내장탕
닭날개
두루치기
솥밥
쿠보
프랑
##rea
양념반
##ger
##버블티
데리야끼
생우럭
양꼬치
천진
##ag
##li
##빈대떡
##비빔냉면
만두전골
##ASS
시원
통다리
##또상
##64
##그리노
닭한마리
##페리얼
##망베르
대추차
당근
봄베이
참돔
##사과
##만시
##바닐라
고구마피자
25도
마르게리따
버드와이저
TEA
식사
참치김치찌개
마늘치킨
##atte
Shot
오마
##글이
##장조림
##페퍼
##제육볶음
해쉬
##SE
황태해장국
조개탕
A코스
조각
오후3
##unch
GR
St
셀프
##소다
##코츠
##말라
##크림라떼
점심메뉴
##포테이토피자
레귤러
삼계
양배추
##한방
##나고
##듬뿍
##40ml
with
##라시
##그라스
##나리
##닭강정
##us
초코롱
3마리
IPA
공휴일
성게
안창살
##르도네
##OU
##부리
신선
##타오
##cm
광어회
고등어조림
송이덮밥
중간맛
##탕이
세트2
Red
보틀
##레그리노
##보샤
##ML
360ml
초콜렛
카프리
콩비지
##일드
##직화
##alf
머리고기
500
규동
에일
월계
자색
소고기김밥
도가니수육
장수
칭타오
세트메뉴5
##초코라떼
##ALL
##노미야끼
조니워커
진짜
파전
평양
##비드
김치김밥
홍차라떼
월계관
샤또
페페
하몽
##부터
삼선짜장
바지락칼국수
빨간찜닭
미소
숭어
접시
##보기
김치찜
연어사시미
돼지껍데기
순대곱창
플랫치노
아주매운맛
Ro
산미
죽엽
##LA
##TA
소고기탕수육
황태구이
Sh
삼합
연어회
방어
보해
숙주
##해장
해물볶음
800g
동절기
모스카토
인삼
전주
##트리
##슈토
##스크
##더버거
##김치찜
##inch
##ARD
애플망고
##uvignon
45
450g
##ac
##물냉면
##엔탈
10P
##레몬티
##em
삼선누룽지탕
삼치구이
지평막걸리
과테
매드
브뤼
차슈
##만찜닭
##땅콩
##크로
##한접시
##소리
##왕만두
##크림치즈
허니버터
계절과일
연태고
##버터구이
이탈리안
해파리냉채
찜닭
코로나
##HOT
치즈케이크
6pcs
아스파라거스
파불
표고
##미니
##돌솥
##양념갈비
##계란찜
깔라만시
동동주
##날치알
치즈오븐
그레이
빠네
일본
후라이
모듬사시미
오리엔탈
##오리백숙
과테말라
백반
볼로네
양송이
찌개
##컵밥
김치우동
밀크폼
16oz
소막창
##머핀
한우등심
오리훈제
광어초밥
동태전
고추잡채밥
날개
준마이다이긴죠
치아
콜롬
호세
##고등어
##스노
단호박죽
##미역죽
6인
숙회
투움바
##ry
##구르트
##버팔로
쟁반국수
포테이토피자
날치알주먹밥
1P
가능
다즐링
브리
브라우니
아나고
짬짜면
회냉면
##플러
##4g
로즈마리
5pcs
6p
Lunch
라벤
리제르바
##오일
##lo
##청귤
##럭스
하얼
##카오
##시나몬
##믈렛
치즈떡
1000ml
플레인요거트
1p
100ml
곰탕
다이긴죠
닭껍질
류산슬
샤르도네
수비드
##알콜
##구엘
추가시
Sauvignon
천진고량주
콜롬비아
대방
미역
북어
왕갈비탕
##인더버거
비빔막국수
##야채볶음
80g
시즌
##사이다
모듬순대
차돌된장
프로슈토
스노윙
##그린티
하얼빈
고급
나베
스모
##육슬
##피치
##경채
##비빔국수
돌솥밥
1잔
A세트
B세트
깻잎
부리또
##누아
##링크
3인기준
웨지감자
전어
##라다
블렌딩
다리
선지해장국
##ir
##IL
##파이어
사케동
약간
##2인
생과일쥬스
##철판볶음
##쇠고기장조림
김치말이국수
2000cc
개불
묵사발
원조
해장국
##오미자
##러시
##야시
##티니
##룡해삼
##뿌라
##새우튀김
볶음짬뽕
연어샐러드
야채추가
##순살치킨
버팔로윙
##UNCH
8pcs
생갈비
서더
젤라또
##연포탕
추억
##슬라이스
##파인애플
Am
시골
##다니엘
낙지덮밥
과메기
유니
특초밥
##가체
##2배
##LASS
##큐브
##육수
##돌솥밥
##녹차
##41
프라이즈
순대국밥
죽엽청주
떠먹는
선택
포르
하얀
##시살
##OP
##게살
치즈사리
2인세트
고구마치즈
콤비네이션피자
LA갈비
페페로니
400ml
나폴리
병어
뼈추가
샹그리아
카야
##AM
##ice
차돌짬뽕
##enu
COLD
멘보샤
짐빔
특수부위
쿠보타
치아바타
##까만찜닭
##완자
##운드
##저브
양념갈비
##콜라다
평일점심
##or까만찜닭
5인분
##ingle
크리미언
오마카세
자색고구마
빨간찜닭or까만찜닭
640ml
캬라멜
특양
후르츠
##숯불
바닐라빈
어묵우동
마스카
원두
임페리얼
##스콘
##장면
##ut
##he
딸기요거트
유자에이드
홍어회
대구포
##ese
돈코츠
라지
쌈밥
우리
잭다니엘
##치니
##IP
메이플
머핀
하절기
##볶밥
##야키
##떡국
##코코
##크림파스타
골뱅이소면
열무냉면
현미베이크
##ize
그랑
진토닉
키조개
홍시
모카라떼
튀김만두
##어묵탕
하우스와인
제로콜라
통영굴
1팩
대파
리치
삶은
포함
##차림
밀크쉐이크
##ish
NEW모짜렐라
체다치즈
NEW모짜렐라인더버거
초코칩
화요41
140g
훈제오리
산미구엘
5도
냄비
따뜻
케익
트로
##크랩
##황도
##포네
##ia
##항정살
##키지
오렌지주스
트러플버팔로
알리오올리오
아메리칸
상하이
소바
##마살
##만둣국
##두리
##OM
세트3
마늘보쌈
납작
대만
드라이
마리
중화
하쿠
##ial
##ne
##750
후라이드반
건강
국밥
그릭
맥스
민어
쉬라즈
연탄
카르
##갈찜
##래집
##아구
순살파닭
전복회
더치라떼
라벤더
##가체프
스카
##닭죽
##니쉬
##더블
딸기스무디
돌체라떼
어향가지
메로구이
White
1접시
1박스
LUNCH
참복
치즈계란말이
버섯불고기
콜드브루라떼
##제육덮밥
##11시
280g
39
꼼장어
나마
소이
예거
##치미
##홍차
오렌지에이드
매콤한
카레덮밥
국물닭발
녹두전
홍합탕
La
놀부
소갈비찜
풍기
##오레
##포크
##닭볶음탕
##EL
##말차
##디션
##엘보
한우불고기
사천식
추어튀김
59
Course
랍스타
촉촉
##금치
##슈프림
##나콜라다
##심이
##쿠라
##단품
순살후라이드
양념구이
추억의
Medium
가오리
흑당라떼
##asta
불낙전골
350g
3000cc
국산
산펠
슈림프
오소리
초새우
한입
##곱새
##티드
##OL
##네이드
##BQ
게살볶음밥
꼬막비빔밥
베리베리
마스카포네
나초
소갈비
##알리오
##싹불고기
##교자
##띠아
매생이굴
미나리
점보
지삼선
퀘사디아
##프치노
##lack
홍어무침
##가리타
##ANDARD
STANDARD
38
5p
Mar
검은
멜론
브라
숙주볶음
##블렌
##매실
##군만두
3인용
새우튀김우동
##쇠고기죽
누텔라
모닝
소곱창전골
아라
##와다
치즈크러스트
##ouble
성게알
웰빙
줄돔
##켈란
숯불구이
##추리알
##오리지널
##30분
##생강차
대방어
3종
탄두리
퐁듀
##시아
과일티
연태고량
소프트
스튜
슬라이스
탕볶밥
##1ml
##노베
모듬소세지
Bru
마요
스크
##석류
##데침
아이스초코
돼지김치찌개
##and
장어덮밥
까망베르
사이
##포장
##복숭아
##net
##IG
##꽃등심
##엣지
##프라이
##블랙티
시원한
생새우
슈프림
콰트로
클럽
##얼큰
##EE
얼그레이티
1664
크로크
해장라면
냉콩국수
스틱
아쌈
오믈렛
탕짜면
##소떡
##노와다
##벨벳
레몬그라스
치킨마요
블랙퍼스트
##전복내장죽
소떡
토시살
##죠조
##함박
치킨까스
블루레몬에이드
##ano
15y
##해물전골
채끝등심
4조각
Al
시금치
온면
팟타이
##타다끼
레몬슬라이스
수제돈까스
밀크티라떼
자연송이쇠고기죽
함흥냉면
꼬마김밥
##ream
생우럭탕
591ml
4p
To
바이
선물
##식용
##모도로
##ich
##TRA
##이스터
##카레덮밥
트러플전복죽
##ato
##퀘사디아피자
230g
##bernet
미역국
주물럭
카카오
##이치
##닭백숙
##일랜드
##앤크림
세트메뉴6
단호박식혜
트로피
디아
스지
##카고
##브라운
##하게
##FF
모듬구이
돼지왕갈비
야채비빔밥
##계란탕
에그타르트
꽃게찜
닭다리살
치즈오븐스파게티
제임
착즙
코젤
통마늘
##리시
##블링
##1인
##학생
매운족발
레드벨벳
##고추장
홍합짬뽕
안동소주
볼로네제
Half
다이
멸치국수
물막국수
새송이
소다
쟈스민
##리퐁
##비큐
##노가리
##떡만두국
##으로
##홀릭
##해물탕
콩나물국밥
시럽추가
##ecial
4마리
Menu
낫또
볶짜면
##카라멜
##불족발
##츄리
##ang
마라샹
##자몽티
##부대전골
오미자차
똥집튀김
가츠동
산펠레그리노
2호
3시까지
8조각
뿌링
수정
왕갈비
텐더
##연유
장어구이
롱블랙
북경
숯불고기
크레
##사골
##슈가
##ICE
허니브레드
EX
가정식
참소라
청도
##동고
##소불고기
##17
##KE
##들렌
치즈토핑
##오리진
도다리세꼬시
##국물떡볶이
##오리지날
딥치즈
매움
요리
탕짬면
##바사삭
##와상
##콜드
##아이
공기밥포함
10꼬치
짬뽕라면
피노누아
마라샹궈
700g
가쿠
메론
생태
생딸기
##우거지
##제비
##id
##메이드
##페스토
##렉퍼스트
칠리탕수육
왕족발
정종
##레스트
##무슈
##명란
##악마
새우링
크림라떼
##주문가능
Cold
Double
Single
깔루아
먹물
베지
쥰마이
크러스트
##라썸
##바오
##AD
##폭탄
##아스파라거스
치즈라볶이
고추짬뽕
EXTRA
34
GLASS
리저브
볶짬면
오룡해삼
잔술
초등
회무침
##마끼아또
##반상
##판매
##래커
##히요
망고스무디
##ick
##가츠동
No
대게
매장
아르
카이
캐러
한정식
##라지
##ner
오리로스
블렌드
유부초밥
야끼만두
반건조오징어
모과차
GRAND
떡닭
모찌
찹스테이크
한우차돌박이
서더리탕
마구로
마끼야또
쌍화차
화랑
##테라
##양갈비
##매콤
##퐁듀
##래떡
##있는
##만두전골
딸기요거트스무디
참치초밥
##one
##베이글
교촌레드
2019
막창구이
Cabernet
##명태조림
450ml
BBQ
Car
두유
베이크
요구르트
참숯
카라아게
펩시
##이타
순대볶음
제주청귤
멜팅
생오리
지존
##이버섯
##러미
##AA
##알탕
##꼬노미야끼
##느러미
##재미
##농탕
블루베리요거트
##erv
만두사리
제임슨
##리어
##흑돼지
##꼬마
치즈볶음밥
4인기준
생선초밥
날치알볶음밥
Che
신선한
부르
파이
햄사리
흑미
##루묵
##바이
##OC
##다크
##IS
##to
##범벅
새우장
블루레몬
제육쌈밥
##sso
조개찜
들깨칼국수
##콜드브루
경장육
생삼겹
활어회
##리포
##노이
##피오
##hi
블루문
플레인요거트스무디
사천탕면
스프링
Latte
tea
칠성
피스타
##자냐
##바게트
##체다
##머스
카페오레
고추마요
##다리살
반반족발
30ml
닭곰탕
닭안심
브런치
성인
오도로
페일
##찌게
##특밥
##RU
해물죽
해물부추전
한우생
##크림카레
Black
CA
굴보쌈
금문
반접시
순한
짜파
피나콜라다
하나
##av
##리부
##비엔나
##im
##아리
블랙알리오
크로크무슈
피스타치오
그라탕
시샤
예가체프
##라테
##진저
김치라면
블랙악마
마늘족발
서울의
드립커피
Wine
냉동
피넛
##쇼비뇽
##sp
새우죽
##ini
부대전골
도미머리
메기매운탕
장수막걸리
150ml
7개
덴뿌라
리필
면추가
크런치
피망
##리즈
##리터
##도후
##다버그
해물짬뽕탕
참치찌개
연어덮밥
블랙마요
오리주물럭
##버섯전골
준마이750
글렌리
고추장불고기
##바베큐피자
##야시라이스
시샤모
페스토
필스
##리카
##살라
##찹쌀
##웨이브
##멜로
##광어
매운양념
유부우동
##한방삼계탕
7세
SM
말리부
뱅쇼
제너
##레어
##스츄리
##ood
##청국장
##숙성
##김치죽
고추덮밥
깐풍중새우
##eric
여름메뉴
간바레오
몬테스
##사과즙
보해복분자
드링크
빅웨이브
양갈비살
##마고
모듬감자튀김
볶음면
15년
##레몬차
기본맛
찹쌀순대
크리스피치킨
미트볼
양배추사과즙
1대
1ea
VIP
마티니
베르
##가재
##달콤
##해산물
##모네이드
##IT
참치볶음밥
12개
스테이크피자
##카페모카
버터구이
40도
##리포니아
##크림카레파스타
배추
시카고
햇반
##애호박
카레라이스
묵은지찜닭
옛날통닭
##INN
쿠키앤크림
양푼이
유니짜장
아라비아
750
고노와다
구워
니트로
도루묵
본오미자
스키
핫윙
##시스
##CC
해물된장찌개
양념게장
오렌지쥬스
초콜릿라떼
먹태구이
능이버섯
핫치킨피자
본오미자골드
Fr
또띠아
반찬
분다버그
샥스핀
콘파
훠궈
##화과
##양식
##아토
세트4
베이비
대구뽈
초등학생
Mo
di
간식용
마들렌
말벡
알뜰
엄청
##너츠
##믹스
해물쟁반짜장
크림소스
10y
등심탕수육
교촌허니
##생크림케이크
히레사케
중국냉면
캐러멜
글렌리벳
제너럴
50
꽃살
떡만두
본매실
산채
짜조
쫄볶이
하노이
##rig
##팥빵
##진밥
##모어
치즈폼
해물떡볶이
얼큰이
##미역국
본매실골드
C코스
감성
기린
반미
얼음
##탕탕이
##팥빙수
##15
##PCS
##뼈닭발
##멍게
##중매
해물칼국수
허브치킨
17년
##블랙퍼스트
##lanc
스페니쉬
청도맥주
구워먹는
2시
등갈비
본쇠고기장조림
쇼킹
실버
##기름
##그랑
##배즙
##핫치킨
##투움바
해물모듬
냉면사리
파불로
200ml
50g
광동
도이치
뚝불고기
라자냐
베스트
산타
청경채
피쉬
##에디션
##지오
##기단계
##시카
##육전
##ole
모듬사리
야채튀김
토마토아스파라거스
두부전골
스페셜티
카레우동
꼬막무침
갈치구이
한우육회비빔밥
오븐구이
참치마요김밥
2조각
WH
al
도로
몬스터
비건
좋은
##가득
##바지락
##비어
##냄비
##묵은지
##깐풍
##깃머리
##투스
새우살
돼지불백
##eak
소머리국밥
자색고구마라떼
1리터
Mon
Sal
cold
곱도리탕
네이
설중매
캘리포니아
코스타
피스
##프로
##구리
##투아
모듬꼬치
미니우동
해삼쥬스
황금올리브
##콩나물국밥
크리미언반
브라질
지존단계
마가리타
싸이
알콜
특정식
##20g
##부침
##pm
##UM
해물김치전
10월
불고기전골
칼국수사리
진짜배즙
도멘
라거
본석류
수입
식혜
찰순대
콜키지
##우트
##보아즈
##꽃살
블랙투움바
돈까스김밥
1700cc
애플시나몬
까르보네
글렌모
2018
소면사리
녹두빈대떡
##참치김밥
어향동고
중국식
SP
간재미
듬뿍
스미
프리
##파니니
##그릴
##염소
##세트2
오징어숙회
버섯추가
해삼전복
묵은지감자탕
체리콕
칠성사이다
금문고량주
본석류골드
8p
AL
BL
Be
Sea
누들
돌판
든든
분짜
오트
천엽
통삼겹
트레
##반마리
##앙코
##ian
##메달
##초회
##qu
치즈무스
소고기덮밥
진저에일
뼈없는닭발
프랑보아즈
아라비아따
쇼킹핫
가래떡
강정
냉짬뽕
단팥죽
라멘
맥켈란
샐러
##카몰
##무즈
##하야시라이스
##치즈스틱
해물우동
자몽주스
##두부김치
##김치전골
고구마파이
##ino
로제떡볶이
민트모카
##라이즈
로스까스
포도치즈케이크
불낙죽
표고버섯
프랑보아즈무즈
그라
마살라
브로
수프
스트
장어탕
##타르
##AC
##Set
##맑은
10년
고추장찌개
매실차
나가사끼짬뽕
휘핑추가
##비프피자
나폴리피자
따뜻한
까르보네피자
XO
경주
동해
불닭발
소한마리
시트
주류
##카이
##라구
##io
##신탕
##대하
##릭스
##를로
##마늘치킨
녹두죽
바질페스토
##플레이트
454g
일본식
SMALL
200
5마리
Pa
드레
디럭스
라이트
산딸기
양깃머리
홈메이드
활전복
2인용
블랙에디션
순대만
수제비사리
깐쇼새우피자
##돌솥비빔밥
병어조림
사이공
닭안심살
##ericano
LAT
co
버니니
비스
산오징어
순수
스몰
안티
오꼬노미야끼
완도
죠리퐁
채소
피츠
##마을
##토종
##계장
##세트1
##ark
모듬김밥
1000cc
직화홀릭
토종순대
아이리쉬포테이토피자
필스너
멸추
바싹불고기
탄탄
##윙봉
##꼼장어
10조각
오리백숙
##ruit
꼬리곰탕
통영굴버섯죽
스카치
BO
까이
무알콜
석쇠
아란
치마살
칩스
특별
##도넛
##에르
##파스
패션후르츠에이드
##스노윙
그릭요거트
글렌모렌지
직화홀릭바이트피자
1oz
가평
마레
아히요
야마
진품
크러쉬
##새치
##시에
##요거
##REA
홍어찜
직화파인애플
싱글오리진
멕시칸바이트피자
오후3시
직화파인애플피자
DINN
구름
굴국밥
싸움
옐로우
인디
진미
추천
피칸
##라거
##플래터
##mor
크림파스타
크림생맥주
##불고기버거
야채퀘사디아피자
더블갈릭
##igh
##ilk
DINNER
곤이
뇨끼
마크
비잔
새콤
진한
패티
##합탕
##65
##볶음면
한우꽃등심
##onn
동태전골
코코아
직화구이
달고나라떼
삼계죽
도이치바이트피자
더블갈릭바베큐피자
사워
샘플러
타르트
타다끼
터키
##바그
##에이
##하프
##시럽
##구아
##볶음짬뽕
크림중새우
세트메뉴7
4인용
##eserv
로스카츠
오전11시
Special
오후3시까지
하쿠시카
Brut
43
로투스
설화
이슬
춘천
##자장
##크러쉬
##지느러미
##0cc
##EM
##영양
##데리
##킬라
낙지비빔밥
우동정식
##inner
부추잡채
##INE
##유자차
##치아바타
240g
셋트메뉴
닭안심살피자
1판
Pasta
벌교
뽀모도로
사이드
새싹
콘샐러드
흑염소
##생갈비
##운틴
##키위
##멜론
##히토
샐러드김밥
화이트모카
준마이긴죠
C세트
ch
도우
마루
무화과
복지리
썸머
앞발
통추어탕
##꽃게
##술찜
##슬로
##캐모마일
##치즈떡볶이
참치김치
참치야채죽
낙지김치죽
##ong
우롱티
##크로플
LATTE
AZ
동지
라씨
맛보기
와일드
이후
자장면
파운드
##사이즈
##우삼겹
##화채
##과류
##ld
##nd
##군함
해물볶음밥
10ps
갈릭포테이토
크로와상
마르게리타
2ea
Blanc
Cream
간사이
글라스
마리아
밀키
부타
샤워
알곱창
참나무
특밥
특전복죽
할매
##오돌뼈
##소갈비
##기구이
##시안
##장우육
##닭날개
##og
##먹태
##인세트
치즈버거
김치칼국수
계란볶음밥
허니비프피자
30am
헤이즐럿
스팸김밥
훈제연어
##URSE
아마트리
대패삼겹살
스모크
##코코넛
코스타리카
AZ버거
48
size
놀래미
뒷발
레이
모엣
북촌
워터
웨딩
즈란
탕수
통우럭
팝콘
회정식
##쿠아즈
##연수
##za
##슬기
##찐만두
치킨퀘사디아
##스파클링
2017
##rim
매생이굴죽
간바레오또상
생오겹살
신라면
심술
핫블링
행복
황새치
##이후
##국시
##폴레
##들깨
##allan
모둠회
간바레
Cheese
짜파게티
동지팥죽
냉소바
마일드
유황
죠스
주중
호주
##사칸
##갈매기살
##꼬리
치킨스틱
레드락
우럭회
##end
황태찜
보리밥
호세쿠
1병
3p
노주
대포
레모네이드
마왕
양주
양하
하루
##가또
##사모
##라이트
##쇼콜라
##코다리
3인세트
소고기국밥
타코야끼
흑임자죽
국수사리
파닭치킨
##ffee
소떡소떡
4P
Pin
UP
고소
마카
민어탕
사파이어
산삼
전어회
칡냉면
카베르네
통닭
##도르
##스시
##짜글이
##얼그레이
##추천
##ear
##대곡
18y
##짜장면
동태찜
청귤차
##블루베리
##보기정
드레싱
가든
다슬기
대왕
알새우
오니
옹심이
##베츠
##에이슬
##lu
##콜리
##낭시에
1인당
모듬해물
감자만두
##비빔면
12oz
토마토소스
허니갈릭
미니족
##부대세트
멍게비빔밥
##ast
##치아나
##해장라면
모찌리
Dinner
TW
누드
반계탕
소대창
소내장탕
스피
완료
이즈
임연수
중기
초계
페파
폭탄
##소갈비찜
##DE
##닭고기
##IE
한우1
돼지불고기
순대전골
짜장2
칠리중새우
##마요치킨
##타이거
##rigin
든든한
완료기
SH
가을
까치
생면
시즈
엑스
정통
주꾸미
쭈삼
카오
크랩
크레이
후기
##베트
##위스트
##모히또
##60g
##치킨샐러드
블루베리요거트스무디
##프라푸치노
얼큰해물
레드와인
흑당버블
##resso
##한우불고기
or
감귤
바이트
쁘띠
푸딩
햄버거
##이차
##리조
##블라썸
##닭도리탕
##메인
##랜딩
##멸치
##치즈돈까스
새우날치알
모듬생선
토마토주스
칠리소스
##돼지고기
조기매운탕
##spresso
AB
am
뼈찜
특제
팥칼국수
##미트
##파뉴
##두기
##18
##하다
##토스
##500ml
##머니
##pe
감자고로케
낙지전골
허니멜로
매콤명태조림
##illa
비엔나커피
슈퍼슈프림
아귀찜
##그랑땡
아마트리치아나
호세쿠엘보
AA
Ade
뱃살
별미
빠가
시사모
식빵
알파
판모밀
##마스
##보로
##바이스
##고뉴
##고랭
##UP
새우구이
베이컨치즈
제주말차
짜장떡볶이
명란구이
##간장치킨
들깨수제비
COURSE
어향육슬
잉글리쉬블랙퍼스트
도토리묵무침
한우생등심
가평잣
양하대곡
까르
만든
메리
미스터
백숙
불갈비
살구
생수
쑥라떼
트위스트
함바그
##플라워
##PP
##st
##메이
##ling
##감투
##호크
치즈불닭
딸기주스
연어뱃살
프라이드
불고기덮밥
##낙지볶음
##스파이시
쫄면사리
곡물라떼
좋은데이
4ea
6조각
SHOT
닭목살
동치미
맵기
손만두
오또상
피클
##루이보스
##ai
##무뼈닭발
##렌베리
##son
##병맥주
##래프트
##저트
##lat
매콤한맛
##계란밥
##가지맛
##골드피자
가지튀김
흑임자라떼
부산어묵
바다장어
약간매운맛
콘파냐
1조각
Reserv
대장
바닷
벌집
살사
왕돈까스
코울
화덕
##ak
##블로
##파오
##복쟁반
모듬버섯
참치회덮밥
망고바나나
##lassic
##야끼우동
키위주스
즉석떡볶이
마늘간장치킨
패밀리세트
고급양갈비
Americano
선물용
쇼킹핫반
##onnay
TWG
나주
느린
데킬라
바사삭
앙버터
완자
쯔란
퓨어
##OS
##갈치
##술밥
##UT
##편육
##패너
##앵거스
김치덮밥
아이스황도
##크림새우
블랙앵거스
전복내장죽
두부찌개
30분
제주돼지
사천짜장
비프퀘사디아
##르보나라
교촌반반
##urger
더덕구이
오소리감투
##icken
경장육슬
멸추김밥
##riginal
새우날치알김밥
국화차
닥터
라뗴
메추리알
불타
통문어
핫소스
해초
##마호크
##달루
##동태
##16
##니르
##삼계
##염통
연어머리
고추튀김
쇠고기야채죽
케냐AA
##emon
진품쇠고기
5종
고니
꼬들
닭칼국수
서대
우육
키즈
폭립
항정
##콤비네이션
##모래집
##양꼬치
##ple
한우곱창
수제튀김
12시
고구마무스
##계란볶음
송이전복
타이거
삶은계란
진품쇠고기육개장
Gre
감베
과카몰
까바
엣지
츄러스
##라벨
##볼라
##강주
##그라탕
##다즈
##EC
##차이
##앤하프
12P
블루베리라떼
##프라노베
##감자전
미니족발
카레돈까스
##range
달콤양념
21년
##루아상
##eef
건두부볶음
##ardonnay
평양냉면
##연유라떼
코울슬로
42
송화
실속
아드
알밤
##사믹
##러우
##아보카도
##pa
##디쉬
##펀치
1인세트
##arl
세트메뉴8
블랙타이거
제주흑돼지
아포가또
꽁치김치찌개
브라운슈가
Steak
매드갈릭
납작만두
코젤다크
수정방
든든한끼
course
감베리
게장
다쿠아즈
미취
킹크랩
하겐
호프
##레스
##리타
##브라우니
##도가니
##21
##ED
##계절
카페라뗴
1865
전복구이
모카칩
오뎅나베
버터갈릭
골드메달
##자몽차
우롱차
커플세트
나가사키짬뽕
삼계전복죽
##아구찜
1근
2판
2꼬치
SAL
동그랑땡
모히토
산라탕
솔티
홍콩
##가자미
##우롱
##지리탕
##살치살
##부르
##8ml
##키아토
##누들
##짬뽕죽
##late
블루베리스무디
##ort
##pping
NEW한우불고기
꼬리찜
셀프주먹밥
감성돔
AZ버거오리지널
트위스트감자
대장부
느린마을
하겐다즈
30g
9월
Bo
Big
루즈
메가
벨지
빌라
실장
제비
짜글이
짝태
치폴레
칭다
크루
한잔
##ack
##황태
##블리
##불족
##5g
##래드
##클리어
##낄라
매운닭발
##스타드
3인이상
돼지막창
고추김밥
망고주스
마늘빵
헤이즐넛아메리카노
산낙지볶음
가리비찜
하프앤하프
트러플버팔로피자
트러플버팔로스틱
##ears
20g
7가지
de
닭꼬치
돈가츠
문경
백짬뽕
복튀김
본오징어
불맛
옻닭
청어
통통
파울
##김말이
##등갈비
##흑당
##추럴
##다시
##oco
##fe
##향과
##히비스커스
치즈돈가스
##치즈김밥
얼큰수제비
야끼소바
대창구이
900g
고수
디저트
라테
립아이
비어
케일
크렌베리
포트
항아리
흰죽
##레이크
##로스트
##보우
##플럼
##부차
##갱이
##BLE
치즈케익
순살양념
비빔면
수육국밥
달콤한
오향장우육
청양고추
활어초밥
41도
해쉬브라운
돈코츠라멘
스키야키
오븐구이통닭
불타는
3호
6마리
TH
up
깜파뉴
네기
담백
돌문어
러시안
사품냉채
상그리아
쉬폰
윈저
탕탕이
##ron
##크리스피
##르마
##아몬드
참치주먹밥
연어회덮밥
고구마튀김
유자티
베이컨체다
15시
##rem
닭똥집튀김
##조개탕
잉글리시
홍게다리살
##izza
##큐브케이크
나마죠조
##데리야끼
본오징어초무침
Ar
latte
궁보기정
그래
레게
미도리
뷔페
시리즈
어복쟁반
장미
전기구이
파나
호밀
##소비뇽
##비트
##블오렌지
##와세
##무한리필
##설농탕
##생막걸리
##터블
##쿠베츠
한우소
비빔모밀
초코쿠키
돼지갈비찜
##스트라
과일에이드
얼큰순대국
##자몽에이드
훈제치킨
##coh
특양구이
카이센
페일에일
비잔클리어
까치복
##삼계죽
칭다오
Ale
Jo
굴비
데낄라
문배
반하다
신짬뽕죽
육수
플라워
화이타
##카나
##스튜
##밥상
##맛살
##젤라또
해물된장
블랙빈
얼큰칼국수
연태구
홍어전
RED
민트초코칩
브리치즈
레게노
The
교자
달걀
닭백숙
불족
삼품냉채
스팀
아게
자이
타르
##풀이
##ft
##uice
##더치
##들리
세트5
고구마돈까스
전복2배
내장전골
Coke
3월
4월
Classic
Mac
ca
wh
가이
가득
굴소스
모츠
백향과
벚꽃
보이차
생초콜릿
우엉
이태
조금
##자쿠라
##동동주
##스윗
##무네
##선택
##생삼겹살
##돈가츠
##양고기
##ion
##녹두
##뷔페
##RES
##누끼
##럼블
초코바나나
프라임
보쌈고기
한마리반
쇠고기버섯죽
Chardonnay
##어묵우동
우거지갈비탕
21y
에비동
뼈다귀전골
보리굴비정식
가정식백반
con
냉우동
머릿
모래집
속초
슈크림
어리
여수
엽기
오무
윈터
직접
콤부차
플레이
##드베리
##등갈비찜
##어니언
##쪽갈비
##ITE
##디럭스
##천탕
##ker
##놀라
##모듬구이
##야채치킨
##LEN
변경시
스타우트
238ml
바닐라빈라떼
가쿠빈
브로콜리
라이트야채치킨
호주산
모찌리도후
Per
Ta
닭튀김
바비큐
뼈감자탕
스끼
안매운맛
알리
오코
주방
진전복내장죽
통단
프레쉬
##시래기
##아일랜드
##낙찜
##패션
##싸오
매운해물
180
참치덮밥
더치아메리카노
해물순두부찌개
CHE
아귀포
전어구이
아르투아
인디카
##cohol
420ml
56
Lemon
Pad
메를로
빠사칸
샌드
선지
올드
케밥
크래미
##케이스
##바삭
##티라미
##양지
##언트
삼선술국
과일스무디
곱창볶음
##가지냉채
오후2
##esh
2016
하와이언
히레카츠
##러시안
포르마
쌈밥정식
시트러스
바닷가재
연태구냥
자이언트
어리굴
4단계
Pe
Pizza
낙곱새
맛있는
모짜
바카
보스
복찜
샤케
아그
알로
잭콕
##도너츠
##로시
##채소
##안티
##국장찌개
##유부
##OD
##뼈해장국
##대추
##세트메뉴
오징어데침
블랙반
삼선고추
고추반
2020
대구지리
쇠고기미역죽
달콤반
우렁된장찌개
##프리모
토핑추가
안동찜닭
##berry
리코타치즈샐러드
악마반
프랑스
매드반
파불반
##우거지탕
가평잣죽
진품쇠고기육개장죽
5ea
논알콜
브륏
살라미
시라
양선
오크
진전복죽
청춘
크래커
호유
##루소바
##슈페너
##베네
##채끝
##전자
##돈부리
##양송이
##ib
##TER
##CK
##왕새우
##숙주
##US
##눈꽃
김치떡볶이
순대곱창전골
게살스프
게살샥스핀
어니언링
우렁된장
중새우요리
청귤에이드
##국물닭발
곤드레밥
예거마
8ea
Espresso
냉메밀
똠양
똠얌
미국
발로나
버켓
복매운탕
비지
사누끼
쌀떡볶이
아기단계
올데이
위트
특전복내장죽
페스츄리
##카푸치노
##마라
##에서
##시오
##쵸코
##닭똥집
##의주
##호두
김치치즈
프라운
##otto
광어사시미
##etti
모둠튀김
한라토닉
한정판매
11시30분
##pple
휘핑크림
##라시코
마스카포네생크림케이크
##1인분
Beer
600ml
Milk
구스
그리
단새우
만조
머스
베네
주먹
##오롱
##cs
##탄탄
##dich
##IPA
##왕돈까스
##족세트
##절임
##젤리
해물뼈찜
딸기에이드
##우동정식
차돌숙주볶음
11월
미니케이스
17도
닭똥집볶음
마리아쥬
7가지야채죽
머릿고기
Fri
Old
pm
sp
깍두기
루이
마끼
발사믹
부드
비트
엄나무
이강주
케모마일
##카스
##산도
##러운
##스페
##포레스트
##노프
##식스
##버네
##허브
##낙탕
##zo
##쥐포
치즈닭갈비
한우대창
10마리
야채죽
보쌈김치
로제찜닭
문어초회
열무비빔밥
콩나물해장국
화요25도
뼈다귀해장국
황금보리
Glenf
##liv
가오리찜
스프링롤
##REAM
어리굴젓
아그와
1EA
6P
각종
긴죠
브리또
수퍼
염소
쫄깃
캔음료
파마
파채
##미아
##야드
##살살
##샌드
##얼리
##그레
##나슈
##나쵸
새우만두
삼선볶음짬뽕
##ull
##ANO
티라미슈
마르코
사골떡만두국
명태회
##스노우
부르고뉴
오트밀
ADE
Beef
DOU
Orange
냉국수
모든
바스크
반판
불사
속풀이
토리
홍삼
##도리아
##소금
##필라프
##플랫
##식사
##까베르네
##네시
##웨이
##너겟
##봉이
##찐빵
##온면
##램블
세트A
수제차
1830
연어롤
불고기정식
##초코칩
##eat
애플라임
##ANC
##리아와세
명태조림
##ESE
피넛버터
벨지안
1장
고흥
꽈리
냉이
브렉퍼스트
사무
서리
올갱이
옻오리
자반
카라이
컵술
쿠바
티카
페어
##사와
##라너
##AY
##어빵
##ier
##tal
##톡톡
매운양념치킨
비빔만두
##int
##anilla
두부사리
##모듬회
아인슈패너
골드키위
도다리회
##isotto
Spr
##ENU
프레즐
##ffle
토종닭백숙
##ieces
오리엔탈파닭
포르치니
검은콩
트로피칼
생태탕
베지터블
노주탄
모츠나베
DOUBLE
2pc
다니엘
사랑
상차림
센쥬
아카
아일랜드
육계장
쵸코
튀긴
##사카
##사도
##타워
##도다리
##동치미
##세르바
##하우스
##eal
##니치
##nie
##RO
##더덕
##능이
세트B
치킨샐러드
순살양념치킨
돼지국밥
불고기버거
##순두부찌개
키위바나나
##갈릭치킨
미숫가루라떼
김말이튀김
호박전
산채비빔밥
안티구아
2월
3P
40g
Bu
Bar
Burger
CREAM
Go
라프로
막회
명이
신의주
장조림
크루아상
테이크
특회덮밥
파파
##미소
##도미
##로로
##곱배기
##스팸
##지로
##기스
##13
##아웃
##담스
##VP
##BO
##앤치즈
연어알
4인세트
얼큰한
두부전
마파밥
겨울메뉴
향라육슬
조각케이크
고구마치즈돈까스
카르파
디아볼라
토마토아스파라거스카레
마크니
2대
medium
달달
만둣국
분보
손칼국수
족보
카시스
통돼지
프루
헌터
##ach
##우치
##소갈비살
##바른
##ew
##굴짬뽕
##랙퍼스트
##랜디드
##we
##KEN
##ver
##ven
##히타
18년
돼지한마리
블랙밀크티
전복버터구이
광어지느러미
과일샐러드
버섯전골
화이트펄
능이삼계죽
양푼비빔밥
멸치김밥
수박주스
##agh
순대곱창볶음
##라구치
이즈백
THE
바카디
5샷
Gra
Original
그냥
닭모래집
명동
비앙코
수란
인도네
탈리스
포메인
헤네시
##플러스
##렌즈
##곡물
치즈카츠
모듬포
자몽에이슬
##두부전골
블랙올리브
복분자주
산낙지연포탕
코코넛라떼
##스터드
한방삼계탕
핸드릭스
프레시
서울의밤
대구뽈찜
스미노프
과카몰리
미취학
오무라이스
예거마이스터
사무엘
인도네시아
Dr
GLEN
대선
알루
초무침
해천탕
화채
후토
휘낭시에
##가마
##리코
##불초밥
##다이
##청경채
##쑥국
##참깨
##톡스
##구이와
고추전
그린애플
##프라니
고기만
15Y
바나나주스
차돌박이짬뽕
소불고기덮밥
2700cc
생고기김치찌개
조기구이
해물볶음우동
##숯불구이
Alcohol
새콤달콤
참나무통
파울라너
##티라미수
파마산
라프로익
1pc
2장
8월
OB
간풍
견과류
나시
낙삼
양곰탕
엑스트라
우설
죽순
티라떼
##크레
##한줄
##랑이
##고르곤
##스코
##불갈비
##포사도
##물만두
##국식
##니스
##메추리알
##SP
##샤베트
##food
##저녁
##70
##치즈버거
##새우죽
##김치말이
세트메뉴9
12ps
오징어순대
15개
카라멜마키아또
산낙지전골
메밀막국수
가지볶음
##ille
##소고기볶음
티라미수라떼
체리에이드
Spagh
블렌딩티
촉촉오징어
중국식냉면
샐러디
480ml
##lue
제비추리
Macallan
Glenfid
서리태
San
Size
낚지
다스티
도피오
레포사도
로쏘
배달
배꼽
싱싱
오가
인생
팽이버섯
##가브리살
##사바
##이샤
##한라
##까르보나라
##추찜닭
##닭다리
##양파
##mo
##향기
##맵게
##치즈케익
모듬물회
한우사골
광어세꼬시
00까지
고기튀김
카스생맥주
카스테라
##등심돈까스
##순대국밥
##ata
서울막걸리
산토리하이볼
건두부무침
콩비지찌개
스크램블
##rimp
스피니치
아드벡
##오롱바오
Glenfiddich
공주
국화
까스
낙곱
리소
마운틴
박스
봉추찜닭
비타
새알
샹동
셰프
양평
에델
을지로
플래
##자장면
##만든
##산막걸리
##xt
##후레쉬
##란다
##ph
##옹심이
##륄레
레몬아이스티
삼선쟁반짜장
2인이상주문가능
전복갈비탕
버섯사리
얼큰라면
14시
##스파이스
철판치즈
##ork
옛날도시락
Chicken
코스요리
요거생크림
맑은탕
주방장
알로에
사누끼우동
탈리스커
2kg
MENU
구아
까페
내추럴
노엣지
또봉이
모나
무스
보양
복불고기
본비트
빈달루
빵추가
산꼼장어
생생
생불고기
송죽
알라
장터
청국장찌개
초리조
춘권
칠레
클라시코
##가네
##사라다
##라도
##오이
##프리미
##드로
##드라이
##드포크
##200g
##야마
##티넘
##OLE
##GN
##쿠아
##칩스
##곤이
치즈캡
오리탕
야채볶음밥
간장맛
과일청
##잡채밥
에그마요
##ouse
##ater
##ALF
시그니처70
소머리수육
큐브라떼
북어국
원조김밥
카르멘
Topping
##꼬마김밥
WHITE
BOX
감베로니
에델바이스
본비트동치미
58
60g
Ad
굴순두부
나파
닭개장
루비
링귀
멜롯
모주
방울
상큼
티본
풍미
하모
해신탕
##치정식
##크래커
##꾸리
##바람
##바비큐
##진미
##시이후
##나기
##모자
##mm
##55
##센쥬
##붕어빵
##핑세트
##슬링
##푸라
##잎차
##현미
##푀유
새우깡
레몬진저
한우야채
양념감자
##다리튀김
망고요거트
페퍼민트티
로제파스타
반반세트
누룽지닭죽
쇠고기죽
여름한정
##로제파스타
섞어찜
닭껍질튀김
##함박스테이크
바이젠
카오팟
3ea
Bal
HALF
st
고갈비
딸바
마제
메추리
밀복
반메뉴
본메추리알
빈대떡
쉬라
오돌
참게
##미숫가루
##트론
##라조
##탕밥
##기리
##0G
##gg
##다미아
##ile
##SO
##TI
##폴로
새우볼
##불고기덮밥
##김치우동
30pm
동태해물전골
마파두부덮밥
한방보쌈
##ello
가마솥밥
AM11
##블렌딩
##바사삭타르트
Salad
##카이산
임연수구이
Reserva
CHEESE
Spaghetti
송죽매
An
Bac
Ma
wine
귀리
꽃갈비살
리조
몽키
밀푀유
소양념갈비
수플레
술찜
조갈찜
찜햇
칼제비
팔진
플로
##LAT
##시간
##네로
##통찜
##XL
##클래식
##렉션
치즈맛
해물뚝배기
한우과일
한우갈비살
아이스아메리카노
생선회
철판쭈꾸미
20개
계란말이김밥
어린잎
야끼우동
##omb
잉글리쉬브
##pper
##애호박죽
Fresh
반미터
네이블오렌지
스카치블루
통단팥죽
부드러운
한우과일죽
half
떡만둣국
맵게
백합
지옥
한맥
##테이트
##과자
##밀면
##대포
##ure
##RY
##곡라떼
##명품
##섞어
##딕트
##치즈피자
새우초밥
오징어무침
삼선샥스핀
야채피자
얼그레이밀크티
얼큰소고기
##라우육
튀김우동
애플주스
철판볶음
닭고기버섯죽
닭고기양송이
##쌈밥정식
트리플베리
염통구이
인삼주
착즙주스
##스노윙반
유황오리
산삼주
페파로니
425ml
스끼야끼
테이크아웃
##참깨애호박죽
닭고기양송이진밥
1캔
Cas
House
굴짬뽕밥
단팥
달인
맛을
민어회
손수제비
오지
오디
쿠로
택1
토쿠베츠
통밀
특해물
하바
##가와
##탕수
##한정식
##소새우
##에비
##특정식
##딩거
##1호
##시마
##육사
##페이
##클린
##텐동
##공기
##옥수수
##새우볶음밥
한우모듬
한우참깨애호박죽
야채사리
토마토계란볶음
전복삼계탕
우동면
##돈까스정식
허니레몬
만두튀김
마늘소스
황태탕
##ERIC
장어초밥
##딸기라떼
바베큐치킨
마른오징어
뿌링클
크레마
펩시콜라
##ocolate
타르타르
이태리
나시고랭
한우야채진밥
4종
Juice
꽈배기
네네
랜치
레인
마이
마라우육
명인
붉은
뽈살
에클
오야
원당
크라
##사태
##테리
##2개
##기는
##하트
##강된장
##모찌
##닭가슴살
##ID
##디핑
##디오피아
##홍어
##홍합
##빗살
세트6
김치추가
카라멜모카
소고기볶음밥
##스트로
블랙포레스트
야채볶음
불고기김밥
##ana
고기왕만두
돈까스덮밥
##낙지덮밥
##모듬초밥
##데기탕
곱창구이
##icy
런치세트
런치메뉴
도다리쑥국
어니언치즈
소머리곰탕
멜팅치즈
##피오카
##깐풍기
##토종닭백숙
진미채
SALAD
##한라봉
32
Tom
밀면
반숙
버번
벤티
비냉
사라다
앞다리
엔제
오르
육즙
커스터드
쿠엘보
통핑세트
홍두
흥부
##레또
##리나
##지아
##진한
##일리스
##초비
##인절미
##렉스
모듬야채
크림슨
##ley
180ml
감자채
그린샐러드
참이슬후레쉬
비프샤브
리얼초코
명란크림
##ate
송이해삼
##토마토파스타
생연어회
영양갈비탕
대하구이
Glenmor
해물볶음짬뽕
깻잎전
검은콩국수
##애호박미역죽
##arkling
고소한
플레이버
샤케라또
본메추리알쇠고기장조림
엔제린
3조각
52
550ml
8마리
BE
BUR
Dra
Fruit
Mal
들기름
마키아토
몽블랑
바른
밥상
백김치
아침
제공
타파스
타피오카
특사시미
핫식스
호랑이
흑마늘
##트리오
##오니
##크런치
##타코
##드링크
##포트
##야니
##춘권
##육사시미
##니시
##니따
##초콜렛
##꽃빵
##누텔라
##룽샤
치즈스노윙반
모듬곱창
한우특
감자사리
망고빙수
망고요거트스무디
전복3
110g
##순대볶음
곱창추가
홍어사시미
당면잡채
향라대하
가자미구이
##ush
냉동삼겹살
시샤모구이
통우럭매운탕
Sprite
1줄
Blue
KING
Risotto
pasta
노랑
딱새우
맥캘
맥앤치즈
바스
사와
솔트
연두부
찐새우
치악
친구
카니
큰컵
팥죽
##소이
##1개
##150g
##시장
##까망베르
##일품
##매워
##na
##퐁당
##성어
##천엽
##올리
##예약
##별미
##땡초
##즉석
전복찜
허니자몽
허니레몬티
##프라이드
고기듬뿍
##ANG
장어정식
닭고기애호박미역죽
라임에이드
시그니쳐
##ATO
특선초밥
##파닭치킨
미트소스
##위트에일
가마솥
##oda
호박죽
조각케익
##고등어조림
한입쏙
꼬들살
한우소머리
아게다시
양선지해장국
에클레어
RO
개당
게이샤
금요일
남도
네그
모모
물냉
복어
생항정살
샤인
엄마
와락
중식
캐롯
토끼
포카
##브레
##수프
##에야
##생불고기
##닭꼬치
##SOP
##완탕
##IUM
##피노
##아포
##아상
##디핫
치즈와
치즈블라썸
새우덮밥
한우채끝
18인치
참치뱃살
양념통닭
돼지목살
블루베리에이드
우동세트
SET1
##돼지갈비찜
산낙지철판
안심스테이크
##INI
코코넛커피
##olo
능이백숙
생대구지리
땡초김밥
##페퍼로니
하얀짬뽕
따뜻하게
##젤라또와플
3대
5월
Dom
FRI
Gr
MO
껍질
대광어
멘타이
분모자
블랜드
삼색
스테
신전
이동
임실
징기스
토마호크
팔락
햄벅
##카케
##브래드
##로즈
##바질
##주머니
##LO
##니꾸
##샤워
##구스
##per
##줄기
##추가시
매운돈까스
깐풍치킨
과일소주
15pcs
오뎅우동
##해물파전
스페셜초밥
140ml
스팸마요
깐쇼중새우
콩나물비빔밥
푸라닭
우거지탕
##raw
Coffee
##꼬막비빔밥
부라타치즈
치즈떡사리
Noir
헤이즐럿라떼
Pinot
나주곰탕
연어머리구이
그래놀라
오코노미야끼
맥캘란
0도
62
레세르바
매쉬
모리
설농탕
아리
에딩거
장칼국수
캐나
한근
히비
##반계탕
##어스
##특면
##석쇠
##체리
##통구이
##7g
##빌리
##꽁치
치즈퐁듀
해물김치
해물야끼우동
새우천왕
레몬밤
매콤치즈
스파이스
돈까스카레덮밥
##야채볶음밥
옛날불고기
##후라이드치킨
민물새우
깔라마리
##바닐라라떼
Rose
모닝빵
디아블로
초계국수
미스터트리오
레게노치킨
리조토
치즈블라썸스테이크
햄벅한
1ps
260g
6도
가쓰
광양식
그란
그뤼
꿀복숭아
달모어
델리
로만
불짬뽕
불보쌈
뼈닭
사피
생갈비살
선라이즈
숏라떼
슈가
아지
카버네
컵밥
포케
한병
##자두
##리코타
##비치
##스케
##지짐
##세이
##파운드
##하와이
##시드
##안창살
##모토
##롤김밥
##ca
##빠네
##네호
##os
##ok
##퐁커리
##뿌치
김치수제비
치킨무
1800
오징어탕수육
피자L
버섯크림
플레터
13inch
##ench
쉬림프골드
리얼초코라떼
##고추잡채
된장술밥
케이준치킨샐러드
##ell
까베르네쇼비뇽
쥐포튀김
Shrimp
키조개관자
깔루아밀크
삼선고추짬뽕
머스캣
마르코폴로
레인보우
징기스칸
5ps
ESP
SING
Vanilla
sal
깐부
꽃목살
단팥빵
대동
데침
리슬링
메들리
베일리스
빠삭
스푸
아쿠아
알찬
오품냉채
원액
통삼겹살
호지
황궁
##마테
##age
##개월
##리뇽
##우더
##곱빼기
##AG
##LI
##복음
##쵸비
##nch
##IAL
##피클
##대로
##아르
##폐셜
##꽈배기
계란추가
블랙러시안
2인이상주문
낙지탕탕이
##ink
두부조림
##eau
잡채말이
크로아상
오후5
코스모
2015
에비후라이
##유자티
제철과일
카야토스트
##FFEE
##ender
마카다미아
흑당버블라떼
미국산
전복3배
##디핫치즈
5시
Gin
PR
Reg
Th
gran
가나슈
강된장
그레
꼬뜨
바틀
백화
섞어탕
쉐프
실론
아보
옥돔
온나나
우드
잠봉
치파오
칼칼
통뼈
투뿔
##도라지
##우니
##등급
##백짬뽕
##갈매기
##300
##원액
##요구르트
##후추
##호떡
##구이정식
해물전
매운고추
바닐라카페라떼
공기밥추가
수제과일
참치샐러드
소고기타다끼
피자치즈
두부구이
SET2
아구지리
##오징어볶음
산낙지회
트러플오일
스팸구이
송이밥
바지락술찜
##내장전골
COFFEE
##ruffle
다크초코
360g
갑오징어숙회
##RIG
타로밀크티
통새우튀김
##블렌디드
썸머라떼
포르마지
비프샤브카레
가쓰오
300
320g
BIG
Ital
SA
Veg
Wal
가상
국순
독도
라이
만델
머스타드
병어회
보너
아네호
자루소바
초벌
특상
파니르
팔라
한식
##마레
##스미
##기에
##0ML
##룡포
##유라멘
##긴조
##왕족발
##방커피
##저린
##칵테일
해물잡
한우살치살
볶음우동
차돌짬뽕밥
프라노베
제주위트에일
돌솥알밥
에그인
단호박라떼
능이오리백숙
프로틴
Cafe
##프리카
CHIC
Whole
Glenliv
캬라멜마끼아또
##더블버거
베르데
Seafood
모듬생선구이
똠양꿍
분보싸오
후토마끼
##김치말이국수
낚지볶음
하바네로
624g
국순당
Glenlivet
2L
DE
D코스
PAS
POP
Qu
ta
검정
고고
돌멍게
딥초코
마오
모리아와세
몰트
방어회
버스트
블럭
싱하
아부리
언빌리
옛맛
오이스터
우르
쥰마이다이긴죠
쫀득
찐빵
캐슈
통큰
파히타
하리
헤즐
혼술
혼죠조
활복
##카라아게
##라주
##ab
##만테
##보양
##블랜딩
##러썸
##1마리
##얼음
##쉬폰
##IAN
##아찌
##너지
##찰순대
##bon
##렛버거
치즈바이트
치즈계란찜
카페아메리카노
김치보쌈
김치참치
##치즈구이
한우안심
딸기잼
삼선탕
제육정식
화이트와인
15시까지
칠리치즈
생선가스
##나물밥
세트메뉴10
##INO
우거지추가
프렌치프라이
달고나카페라떼
로즈베리
국수전골
##메밀국수
바삭한
##ffe
AMERIC
2PCS
뉴욕치즈
스페인
앵그리버드와
새송이버섯
크레이프
닥터페퍼
카이센동
white
꽈리고추
명이나물
##프리미엄
홍두깨
그뤼에르
언빌리버블
Ab
In
가르
굴튀김
굴파전
도넛
메인
모두부
살치
스위
오픈
응급
잔치
잡고기
지리탕
참가자미
펠레그리노
포레스트
핫칠리
##트러플
##즈케
##보루
##바싹불고기
##탄산
##네즈
##37
##청에이드
##IA
##tine
##40g
##감귤
해물짬뽕밥
자몽쥬스
바닐라아이스크림
참치타다끼
오징어땅콩
##레이티드
화이트갈릭
##곱창볶음
스페셜정식
미니전
13도
13인치
크림치즈볼
교촌살살
한방오리백숙
##철판볶음밥
우거지해장국
##차돌박이
영양돌솥밥
##주문시
##변경시
지리산
스페샬
대패삼겹
접시만두
크리미언치킨
397g
##맑은탕
##more
시즈널
ABV
시사모구이
문경바람
Grape
온나나카세
응급실
550g
Bour
Brea
CUP
D세트
ORIG
Pm
갈매기
뒷고기
디톡스
마테
머랭
멘치
모로
무한
벨기에
산해
새조개
세이
섹스
수프리모
시리얼
야키
쿼터
텃만
하드
##자연
##달고나
##르베
##소곱창전골
##바다
##나와
##떡볶
##양장피
##iv
##3개
##ug
##곡주
##죽순
레몬생강차
##피자L
##are
한우국밥
크림모카
##김치조림
삼선해물
##00원
과일화채
화이트초콜릿
순두부정식
반반B
##ita
생강라떼
Cham
케이준감자
알밥정식
##무스케이크
우렁이
##rip
Cass
Sparkling
추어전골
280ml
데리야끼치킨
##ness
다이어
딥치즈버거
시카고피자
교촌허니순살
레이디
핫블링치킨
##동태탕
##RESSO
오가닉
비타민
방울토마토
SINGLE
CHICKEN
MVP
금사
김가네
눈다랑어
드래프트
떡추가
몽골
바싹
반우동
백년
보모어
불백
뽀로로
뽕잎
소왕갈비
쓰리
알곤이
연잎
오량
오토
오차
주전자
통닭발
페투
핫스파이스
호로
흰살
##케잌
##마루
##마니
##비앙코
##진살
##살사
##하오
##나페
##모스
##티보
##다키
##sc
##30ml
##op
##no
##CM
##통영
##빔면
##hn
##ZZ
##손만두
##실차
##칸치킨
##활어
##댓국
##art
치킨윙
모듬세트
18EA
감자추가
연어장
튀김오뎅
쭈꾸미철판
수육전골
메밀묵
흑당밀크티
##cha
##oud
##고추장찌개
우유추가
조개구이
##amb
##raz
##조개찜
국수나무
히레까스
요거치노
##보리밥
활어물회
향라닭날개
##row
핑크자몽
STEA
500ML
##오일파스타
하얼빈맥주
34도
황금올리브치킨
싸이버거
엑스레이티드
윈터멜론
##대추차
주먹고기
Balven
##스트로베리
샤인머스
화이트갈릭버거
ORIGIN
4가지
Soda
대박
두가지
미디
밀러
빠에야
시메
인도
인기
클렌즈
특통영
피문어
핫카이산
헤페
화끈
##트라
##ade
##설탕
##생과일
##냉모밀
##EG
##페인
##tin
##칼제비
##ha
##들레
치즈폭탄
모듬한판
계란밥
참치사시미
초코렛
연어스테이크
돼지바
##레이즈
프라프치노
토마토쥬스
광어회덮밥
##ero
##프라이즈
애플티
메밀소바
홍어탕
홍어회무침
##ore
숯불닭갈비
스팸후라이
닭발튀김
주문시
중국당면
##EST
카츠동
시저치킨
##lio
깔라만시에이드
류산슬밥
스카이
클럽샌드위치
치킨마요덮밥
광동식
프루티
ESPRESSO
PASTA
2EA
5조각
CAR
So
Truffle
dish
꿀고구마
끼리
분식
불오징어
생활
생두부
생막걸리
샤블리
시오
신참
유미
유슬
인크레
전병
최상
치트
트라피
특새우죽
티백
##사천
##치고
##만쥬
##타마고
##스까
##불닭발
##배필
##500cc
##머리탕
##RAN
##너스
##팟퐁커리
##QU
##퀴테리
치즈카레
##oth
##세트3
한우곰탕
순살찜닭
딸기쥬스
계란토마토
##프레즐
##스트라미
요거트쉐이크
얼큰우동
15g
반반A
반반메뉴
갈릭버터
##스파우치
해삼송이
직화불고기
대구해물전골
소스의
능이삼계탕
블랑블랑
##ill
오미자에이드
아몬드라떼
꽃빵튀김
##12y
염통꼬치
GRE
6pm
시즌메뉴
냄비우동
소이갈릭
매장가
캘리포니아롤
이슬톡톡
빠가사리
우육탕면
John
##현미베이크
보너스파우치
블럭비프
산해진미
몽골리안
Balvenie
특통영굴
치트킹
MAR
Pat
WINE
가족
레알
면류
목요일
뵈브
블라썸
순보리
쏘세지
씬도우
암소
애기단계
완전
쥬얼리
찰밥
칼만두국
한산
힘줄
##사랑
##랑크
##포로
##전예약
##샷라떼
##콘치즈
##3종
##원주
##5개
##인삼
##40
##상추
##연골
##감바스
##봉봉
##단호박
##더락
##VE
##적당면
김치왕만두
레몬라임
매운소갈비찜
모듬까스
계란초밥
계란라면
10Y
10팩
양념소스
망고에이드
전복장
##스테이크피자
마라관자
ONE
철판볶음밥
열무비빔국수
콩나물라면
##ild
##amel
우거지감자탕
21도
소시지와
가리비구이
우렁추어탕
참치마요주먹밥
한상차림
작은새우
아귀탕
해물짬뽕라면
##OUT
놀부보쌈
트로피카나
북경오리
##oney
파이어
French
WHOLE
트레비
황새치뱃살
족보세트
리소토
특해물죽
##니시키
AMERICANO
STEAK
인크레더블버거
트라피체
1K
5P
9시
BR
Cu
Full
MA
Man
VSOP
개성
굴떡국
기타
깐궈
나물
누아
대새
도마
로네
마마스
봉봉
살얼음
왕계란말이
청소
퀸즈
크럼블
특목살
포터
퐁당
함께
##가운
##크래미
##소백
##바리
##바시
##24
##전병
##복이
##1병
##14
##나가사
##GER
##쫄볶이
##슬러시
##고기만두
치즈감자
해물덮밥
모듬감자
##수육전골
한우육사시미
수제돈가스
##불고기정식
10세
양념돼지갈비
##프레드
소고기샤브
베이직
간장계란밥
##erry
오렌지자몽
##해물전
13세
해산물모듬
에그베이컨
명란마요
교촌샐러드
##고추김밥
히비스커스티
CON
호가든로제
##ella
210g
##쭈꾸미볶음
양지쌀국수
매실원주
쇼비뇽블랑
믹스드베리
PM2
간장게장정식
시저샐러드
아메리치노
당근케이크
##해장죽
1PCS
1664블랑
레드벨벳케이크
디럭스불고기버거
##ight
크레이지
Grey
##weet
플래티넘
BEER
##까망베르치즈
한입쏙붕어빵
캐슈넛
김가네김밥
ORIGINAL
2시까지
300cc
3000
425
6알
6쪽
650g
7도
AR
Fran
Jack
Ka
Lo
NV
US
Ve
고래
넛츠
단체
뒷다리
들어
딤섬
병당
생일
수작
아낙찜
온모밀
우나기
카사
팔도
해피
햄에그
황칠
##마크
##우드
##그라
##냉국수
##모짜
##3인
##랭이
##ICH
##츠마
##규동
##ucc
##펠트
##된장국
치즈찜닭
세트C
모듬치즈
아이스컵
크림넛
연어구이
오징어회
과일쥬스
버섯소불고기
탕수육세트
베이컨포테이토
두부버섯전골
##ARK
SET3
화요17
쭈꾸미삼겹살
갈릭치즈
##ord
날치알밥
환타파인
Chat
##딸기생크림
도가니전골
피치우롱
저녁메뉴
눈꽃치킨
햄치즈샌드위치
##12년
하와이안피자
전통차
자바칩프라페
차이라떼
오이무침
추억의도시락
##angie
수정과
alla
밀키베리
살구잼
##ECIAL
알밤막걸리
Drink
##xtra
Cask
Glenmorangie
##즉석떡볶이
스푸만테
Walker
에그인헬
특통영굴버섯죽
청소년
4ps
6ea
8P
High
PE
Water
가쯔
강원
공보
닷사이
더티
도리
두툼
라가
마스터
맥스파이시
모시
물어묵
벌꿀
불새
사모
상하
상추
샤오롱바오
엘더
웜볼
율무
익히
참깨
푸짐
##사라
##반찬
##오마
##제로
##19
##100g
##생굴
##페일
##롬바
##랜치
##대파
##uce
##족탕
##Bottle
##BER
##뚜기
##덴뿌라
치즈까스
김치주먹밥
새우추가
매운불
모듬만두
수제돼지갈비
1000g
##프레첼
돼지김치
오징어물회
고구마사리
블루베리치즈
녹차빙수
화이트초코
마늘꼬치
##양념감자
초콜릿무스
민트초콜릿
16y
17y
리코타샐러드
한방육수
##그니처
들깨순두부
##elle
프로운
프로즌
시나몬라떼
양푼김치찌개
CHOC
슈퍼콤비네이션
##eca
##폴리탄
쿠보다
초새우초밥
스크린
활어회덮밥
##찹쌀탕수육
수입맥주
Season
200G
##향기딸기생크림
양평해장국
링귀니
치악산막걸리
만델링
다이어트
시메사바
Johnnie
익히기
5단계
60ml
De
Dal
Gold
Honey
ade
갈낙탕
고려
곤약
골빔면
대나무
마시
묵밥
보울
블랜딩
소등심
수주
수요일
순참
쌀떡
정성
제이
쭈곱새
크리스
포모도로
홍초
##자이
##라차
##마르
##apa
##로리
##르도
##AI
##지개
##파티
##그램
##티카
##굴소스
##4인
##디너
##옛날
##암소
##밸리
##고기볶음
치즈구이
치즈베리
치즈칠리
##치킨피자
매운미니
크림고로케
순살크리스피
10ea
12마리
블랙페퍼
전복해물
얼큰버섯
돈까스정식
커피생크림
16도
우럭매운탕
##야채곱창
육개장칼국수
홍어애
##가리비
단호박피자
게살두부
##EAU
삼선짬뽕탕
##마늘닭죽
가지볶음밥
피치트리
스파클링에이드
##초콜릿무스케이크
##ATUR
사골만두국
스윗버터
똥집볶음
쥐포구이
포장가
다크초콜릿
##cos
##10팩
함박스테이크카레
육포와
메이커스
골든블루
##직화구이
서더리
상하이진한
도미머리조림
SPECIAL
그릭요거트롤
다슬기해장국
##멸치김밥
##패션후르츠
Pepper
스피니치카레
낙곱전골
Italy
텃만꿍
6쪽마늘닭죽
초콜릿무스롤
2줄
5알
6종
Bomb
IN
Prem
Ru
of
the
간천엽
갈아
낱개
느아
단짠
달참
돈육
떡꼬치
멜로우
복수육
빅맥
뼈닭발
삿포로
샴페인
소인
솔티드
알룰
엔젤
요프치노
이까
자메이
장새우
준벅
지라
차가운
친환
코르
콤비
판매
후추
##가쿠
##미살
##막회
##리마
##AK
##알찜
##그릇
##냉이
##조네
##장수
##loud
##초킹
##ose
##꼬동
##fruit
##통다리
##임페리얼
##벨라
##삭스핀
##MP
##숭어
##거리
##목장
##갑오징어
##볶음우동
세트7
김치나베
새우소금구이
모듬보쌈
1800ml
버섯생불고기
제주산
##커피프라페
커피프라페
튀김세트
민트티
화요일
평일오
마라룽샤
갈릭디핑
##cher
루이보스티
키위스무디
프리미어
소스추가
꽃게범벅
내장국밥
바지락탕
피치크러쉬
겨울한정
닭가슴살샐러드
##land
작은거
드립백
##ust
허니버터브레드
그레이구스
##게살볶음밥
##그릴드
샐러리
coffee
석쇠불고기
핫블링반
Green
벚꽃향기딸기생크림
카르파치오
장터국밥
Draft
Malb
멘타이코
해물김치해장죽
그뤼에르치즈
분식류
로네펠트
425cc
알룰로스
친환경
MAC
PLAT
Tender
강소백
규카츠
글랜
꽃새우
도리아
뜨끈
라무네
로열
룽고
백미
사태
씨앗
에너지
월요일
웨이브
찐맵
콥샐러드
크롬바
통골뱅이
파르
파프리카
판나
포항
피아
혼합
황소
##yal
##보틀
##바나
##에스
##시즈
##티나
##니어
##ky
##작은
##열무
##낫또
매운짬뽕
치킨반
치킨크림
모듬소시지
12도
오징어링
낙지짬뽕
순대정식
오렌지자몽티
매콤달콤
##each
##onic
##버섯불고기
우럭탕
애플쥬스
해삼과
리얼불고기
##oun
##out
말차로
부추제육볶음
유린육
한치구이
블랑코
오돌뼈볶음
케이준양념감자
##소고기쌀국수
돈가스김밥
##닭갈비볶음밥
트리플초콜릿무스케이크
##치아노
향라새우
이탈리아
미소라멘
전주비빔밥
쿠보타센쥬
화요41도
나초칩
쥰마이긴죠
블랙알리오에
탄탄면
누드김밥
##도가니탕
홍콩식
문배주
베네딕트
Tomato
캐롯케이크
##스케타
코스모폴리탄
언빌리버블버거
오량액
3가지
4알
750g
BEE
Dish
Gu
Her
IB
강남
군함
궁보
꿔보
닭도리
레미
머튼
붕장어
송어회
수원
엔쵸비
오비
우도
제외
증류
템프라니
통살
패트론
필터
후랑크
##라토
##이야
##마운틴
##달걀
##로국밥
##면수
##고니
##2마리
##노유
##나는
##조갈찜
##빠오
##런트
##me
##꼬지
##항정
##500
##통만두
##터키
##아인슈
##할인
##할라피뇨
치즈베이컨
치즈듬뿍
해물오뎅탕
새우크림
##ara
자몽청
한우암소
아이스과일
순살강정
볶음김치
수제맥주
18inch
##김치만두
양념갈비살
소고기육전
오징어불고기
간장소스
버섯모듬
얼큰육수
제주감귤
15도
더블초코
##모듬튀김
16조각
산낙지초무침
20pcs
##itcher
날치알김밥
코다리구이
도미회
##est
스팸계란
##마늘보쌈
브루잉
돼지고기김치찌개
진저라떼
클래식가토
칭따오맥주
프렌치토스트
1955
##ung
참치마요컵밥
불족발꼬치
청양마요
꽁치구이
납작당면
마요네즈
핫윙콤보
##고르곤졸라
Add
salad
가상두부
tacos
로즈베리생크림
##떡볶킹
들어간
BEEF
60
BAS
Extra
He
Pan
piece
대인
또는
만쥬
엔가와
온센
왕돈
이면수
초당
칼만두
토요일
팬케이크
풀드포크
하동
활우럭
##사파이어
##자니아
##마가리타
##개입
##우리
##로인
##비체
##창동
##AKE
##스쿱
##스치노
##알파
##닭한마리
##mon
##구르
##IB
##HER
##통살
##종류
##린다
##참복
##아라
##난자완스
##누가
##UE
##더미
##bel
##몰트
##촉촉
##싸한
치즈김치전
해물모둠
새우꼬치
치킨버거
순살고추
딸기우유
콜라1
참치김치볶음밥
소고기볶음
오리구이
낙지연포탕
고구마크러스트
##anta
돈까스롤김밥
하이랜드
반반전
캐모마일티
마라향
모둠전
흑당버블티
##ANT
키위쥬스
코다리정식
코다리냉면
##나베정식
우유식빵
Set1
어향육사
생연어초밥
SIGN
Spicy
소비뇽블랑
브라운치즈
##room
차이티
##라즈베리
##준마이긴죠
접시수육
투움바치킨
시즌한정
페페로니피자
짐빔하이볼
연탄불고기
##블렌드
##바지락죽
아란치니
시즈닝
벌집껍데기
호밀빵
을지로골뱅이
임실치즈
대동강
하리토스
France
Chateau
홍어애탕
자메이카
크롬바커
2잔
2000
3알
7pcs
Con
Di
DI
Egg
be
감튀
겨자
김가루
딸리아
라벨
렌치
머턴
명가
바이스
보족세트
불짜장
세종
수만두
스폐셜
애호박
오제
오사카
진주
통목살
특안심
##치쿠
##ye
##고로시
##스지
##스버그
##제외
##전통
##신화
##빈야드
##낙갈찜
##롱사태
##절이
김치두루치기
해물찜닭
해물알탕
레몬크림새우
매운낙갈찜
치킨카레
딸기빙수
양념새우
양념소갈비
그린라이트
녹차프라페
순대해장라면
얼큰순두부
두부보쌈
##ARL
##등심탕수육
아구수육
평일런치
모둠초밥
생과일에이드
명란계란말이
옛날식
교촌신화
먹태킹
##INT
##가토니
Set2
가지덮밥
브루클린
라임모히또
고추장삼겹살
삼겹말이
케이준샐러드
##고구마라떼
사과주스
자연송이와
Cap
매생이탕
중국음료
슈퍼디럭스
요거플러
청양마요치킨
##OUSE
삼선짜장면
황태구이정식
##고추장불고기
떡만두라면
새우살타워
##arlic
스팀밀크
아게다시도후
금사오
수작돈까스
요거플러터
새우살타워링
3꼬치
49
900
Apple
New
Wood
sea
고메
나루
낙새
다방커피
목심
민들레
빨강
뽈로
삼각
상황
새끼
생자몽
세미
숄더
슈슈
쏨땀
업진살
에이
연근
유림
육갑
이곡
조선
컵국
품은
프란
헛개
화로
##사미
##치밥
##az
##베지
##회냉면
##안동
##PEN
##ix
##부리또
##샘플러
##피망
##콜로
##키드
##디오
##벤또
##공휴일
##많이
##앗간
1인보쌈
2인부터
레몬청
매운짜장
매운소스
치킨데리야끼
참치비빔밥
소고기튀김
소고기초밥
오징어통찜
유자스무디
모카프라페
매콤양념
두부부침
##매운갈비찜
##낙지비빔밥
등심스테이크
테라생맥주
모둠사리
직화불족발
고등어김치조림
330g
##ature
세트메뉴11
숯불킹
게살크림
##고추볶음
와인에이드
##제육김밥
송이볶음
내장추가
글렌드로
소세지사리
COKE
생굴회
##ATEAU
스윗플럼
영양솥밥
##칠리소스
슈퍼킹
호두파이
딸기바나나주스
토종닭볶음탕
통오징어한판
핸드드립커피
Royal
##고등어구이
북어찜
##2인분
예거밤
생오리로스
경장육사
도미머리구이
파불로에
웨딩임페리얼
##갈치조림
Table
알리올리오
배꼽살
##오이무침
찜햇닭
잉글리쉬브렉퍼스트
##ushroom
히비키
광양식바싹불고기
모로칸
최상급
4pc
6ps
BU
G1
NO
Plat
Sign
venti
교토
구수
뀌베
눈물
등뼈찜
리가토니
밤라떼
백골뱅이
산더미
생물
송어
슬러시
아롱사태
어깨
영광
오도
오색
옻삼계탕
지라시
초회
카라
칼집
콥케
타바
특곰탕
파티
피쳐
##레나
##라파
##라메
##rs
##브로
##고급
##시그니처
##gog
##다모
##매생이
##심채
##부채살
##뇨끼
##래스
##래기밥
##아담스
##4시
##커레이
##ho
##샬라
##싸이
##힘줄
레몬생강
치킨커리
모듬야채볶음
아이스커피
추가메뉴
##크림빵
수제에이드
수제소세지
소고기주먹밥
오징어초무침
전복해물찜
그린앙
##etit
순대소곱창전골
30까지
오뎅사리
등심돈가스
##해물짬뽕
13oz
카라멜마끼
마라탕면
모둠사시미
생선카츠
쟁반짬뽕
330cc
교촌순살
냉모밀정식
가리비회
##tion
##로스까스
##lend
꼬리수육
##loin
##피치세트
교촌레드순살
Mont
##맑은이슬
동해안
페파민트
제주말차라떼
송화단
문배술
560ml
페어링
한우채끝등심
알곤이찜
##uccino
상하목장
갈아만든
##시즈닝
아이스과일펀치
통오징어한판떡볶킹
07
1등급
8ps
9개
BLA
BRU
Earl
Garlic
HOUSE
MIL
Te
cream
극한
데미
디핑
땅땅
뚱카롱
레어
롱아일랜드
맛살
못난
미란다
미린다
배도라지
부침
비치
솔로
아임
월넛
이하
잎차
치포
컵빙수
콩고
탄자니아
통감자
프론
하얗
핫쵸코
##사무네
##브륄레
##주먹
##제주
##세코
##물막국수
##콩비지
##장어탕
##ide
##차슈
##차라떼
##페스츄리
##Small
##매움
##운센
##원두
##당근
##대게
##셔리
##더치즈
##중하
##견과류
치즈플레이트
##치즈반
해물감자탕
새우버거
모듬고로케
크림떡볶이
##크림떡볶이
블루베리바나나
간장보쌈
버섯구이
마늘양념치킨
##양념반
동태내장탕
레드오렌지
연태주
메밀국수
철판구이
2000ml
크로넨
프리미티보
Chocolate
민트초코프라페
##isky
떡갈비정식
케이준치킨
유부주머니
##대구탕
##ATE
우렁쌈밥
잉글리쉬머핀
CHATEAU
##골뱅이무침
은행꼬치
연태고냥
##2인세트
민어전
Label
##FFLE
##코다리조림
실장스페셜
##탄탄면
Fries
구아바
토끼소주
##아포가토
이동갈비
##rawberry
Vegan
##오마카세
##페일에일
하얗게
4줄
66
Le
MI
Pitcher
Sy
Sc
red
강도다리
경성
누가
니꾸
뚝불
러브
멜트
바바
에디오피아
오미
우곱새
익힌
일요일
테이
특수
특설렁탕
페로니
핫불고기
후레이크
##케일
##라씨
##오레오
##리저브
##르르
##르몬
##블랜디드
##드릭스
##고소
##2잔
##스톤
##과육
##조리
##닭튀김
##양푼
##빠뉴
##초면
##코어
##매니아
##부라
##5ML
##요빙
##란산
##준마이다이긴죠
##멜로우
##밤라떼
##쥰마이
##ka
##표고
김치순두부
##치즈죽
새우전
한우곱창전골
바닐라라뗴
순살스윗
##불고기김밥
1837
##김치나베
양념막창
##프레도
소고기쌀국수
고추짬뽕밥
낙지추가
에스프레소샷
망고쥬스
망고요구르트
고구마스틱
베이컨포테이토피자
##민트티
##버거세트
제주오겹살
미니탕수육
##돼지볶음
복숭아에이드
14y
쭈꾸미덮밥
모둠보쌈
흑당달고나
##org
##ito
리얼초콜릿
왕새우구이
코코넛스무디
스파게티니
송이관자
##오뎅나베
된장죽
된장전골
된장찌게
##ONG
로즈힙
##문어숙회
생연어사시미
머리구이
타로버블티
통오징어튀김
곡물도우
##스카토레
##쉬림프피자
Shi
##그린티라떼
하나기
도루묵찌개
네이키드
ALL
##꼬리찜
조금매운맛
##스페샬
##능이백숙
Buff
##mooth
오야꼬동
머랭쿠키
하드코어
미디엄
Patron
##ATURE
SIGNATURE
타바론
##moothie
2알
4대
40ml
Af
BEST
Lim
TALL
Val
single
곰치
공기
공심채
깔조네
닭내장
도라지
도꾸리
럭셔리
마초
마샬라
머드
방앗간
봉평
생가브리살
수아
양등심
양상추
어른
와다
젤리
카라구치
칼스버그
큰놈
타마고
튤립
헨드릭스
##가우
##미엔
##이서
##이세트
##리고
##리치킨
##타리
##슈카
##소곡주
##바로우
##드래프트
##면사리
##음식
##AV
##기본
##백찜
##글라스
##씨유
##죠죠
##장님
##다마
##300g
##der
##5종
##간살
##머쉬룸
##칠라다
##피에이
##왕갈비탕
##KY
##캬라멜
##홍합탕
##공기밥
##뚜껑
##고기추가
해물계란탕
수제레몬
초코바른
블루치즈
고추참치김밥
프라치노
전복물회
고기국수
점심정식
오뎅튀김
##오리훈제
짜장1
스페셜류
##모듬세트
미니핫도그
반반보쌈
갈릭새우
흑당밀크
흑당카페라떼
쟁반쫄면
굽네반반
비프카레우동
안심돈까스
도미노
버블흑당
##ico
5인용
##바베큐치킨
라이스류
##참치회
##ONE
##베이컨피자
##AST
가라아게동
##드레싱
수제청에이드
소라숙회
가마도로
홍소해삼
##ardi
볼로네즈
스노윙치킨
시골된장찌개
나폴리탄
메이플라떼
리치골드
몬테스알파
12개입
Moj
BLT
새싹비빔밥
참치김치덮밥
Box
##눈꽃빙수
##플랫치노
냉이바지락죽
사무엘아담스
마제소바
친구들
팔라펠
Herb
BLACK
못난이
콩고물
크로넨버그
하나기자쿠라
3미
Blend
Hand
Jam
Med
PI
POR
PANC
Se
Ter
che
감태
곰도리탕
꼬꼬
네모
닭볶음
대마
대게살
데일
데마끼
돔베
맛초킹
목이버섯
불막창
산마
쇼치쿠
스낵
아메
양곱창
오메기
왕돈가스
윙과
진꽃살
치하오
쿠스미
크렘
탕면
토니
피카
할라
할인
햄야채볶음밥
후렌치
흑맥주
히야시
##오믈렛
##꾸라지
##바사
##제한
##지람
##어지느러미
##돌체
##Shot
##lot
##게뜨
##초벌
##HI
##요프치노
##샹동
##ken
##뚜이
##혜향
##셰프
##북어
##캐스크
##덧살
##번데기탕
##쿼시
##법주
치즈돈카츠
김치알밥
매운치킨
매운조갈찜
##크림소스
수제자몽차
##김치덮밥
10인치
감자수제비
돼지머리
##스트림
파스타면
토마토파스타
된장찌개추가
간장마늘
만두순두부
화이트까망베르치즈
베이컨체
고기사리
그린티프라페
제주도
계란찜추가
미니불족발
##코스요리
평일11
평일저녁
14p
마라핫치킨
쭈꾸미정식
족발보쌈
##orn
묵은지찜
묵은지김치찌개
비프카레라이스
##똥집튀김
패션프
된장밥
마르께
서울장수
우렁강된장
나가사끼짬뽕탕
##사케동
곤드레나물밥
전어무침
슬라이스치즈
경주법주
피칸테
##영양밥
죠스떡볶이
오니기리
am11
호유우육
염소탕
랜치소스
명란크림우동
한우특수부위
포카치아
PREM
백화점
옥돔구이
헤즐넛
##탄산수
Grapefruit
오차즈케
유슬짜장
Premium
##작은새우
순살고추간장
2단
70
Cal
CLASS
Long
OPEN
and
갓파
기자쿠라
냉김치말이국수
돈부리
딜라이트
라비
레페
로마
롱치즈스틱
말이
무제한
봄냉이
북창동
브리오
블러썸
산지
샤프
소보로
순댓국
아스파라
안창
약선
이스
지름
진갈비살
착한
충무
치미
코르마
텐저린
특등심
특모듬
특갈비탕
풍천
호떡
홍쇼
활참복
##마쥬
##마라탕
##정종
##브런치
##도가
##베라
##지옥
##지감자
##불찜닭
##쌀떡볶이
##100
##하고
##하는
##건두부
##모리
##모주
##티지
##OUR
##PM
##폭립
##메네
##게소
##순이
##900
##싱글
##대왕
##대뱃살
##틀렛
##Regular
##슨빌
##햄치즈
##딴자이
##꿀차
##견과
치즈김치볶음밥
##국수전골
새우롤
새우까스
새우김밥
순살변경
18Y
10pc
소고기짬뽕
고추짜장
야채카레라이스
유자레몬티
전복뚝배기
간장삼겹살
00AM
SET4
##양념정식
15cm
레드베리
황태콩나물국밥
335ml
에그롤
##가지볶음
목살스테이크
당면추가
버블밀크티
쇠고기탕수육
숙성삼겹살
##스카이
##ami
##ree
##rew
2014
눈꽃빙수
생굴무침
트리플치즈
옥수수온면
현미순살
##칠리새우
198
스텔라아르
##생선구이
나가사키짬뽕탕
##IGN
텐더치킨
Caramel
흑미도우
까이딴자이
모엣샹동
죠스찰순대
오니고로시
##PPLE
오후2시
고흥유자
자반구이
참나무통맑은이슬
##illed
마운틴듀
Bacon
엔제린블렌딩
허니자몽블랙티
캐나다
멘치카츠
고려촌
Bombay
글랜피딕
##아인슈페너
Shiraz
마르께스
3장
3가지맛
7종
7마리
Ber
Fin
Lag
Piece
Real
XXL
car
강황
꽃차
끼안티
노상
대통
대접
대합탕
르뱅
마포
많이
발레
비냐
세비체
셔벗
쌍화
아삭
아담스
암게
얇게
우메
이쿠라
자장
절임
정상
지짐
천연
크뤼
크라운
프랄
플라
##케밥
##마키아또
##ain
##풀치아노
##탕탕
##르디
##보울
##꾸네
##수사
##몬스터
##무지
##무벨라
##진이
##등살
##전드
##파채
##어리
##어먹는
##플렉스
##식해
##추어
##다니시키
##PE
##폭포
##삼치
##oo
##da
##꼬츠
##통통
##통닭발
##피냉면
##웨지감자
##her
##단팥빵
##클럽
##따뚜이
##ball
##엘라
김치제육
새우완탕
레몬치킨
매운닭
치킨강정
모듬전골
##사리추가
한우수육
수제군만두
10inch
소고기야채죽
오징어입
고추치킨
낙지초무침
야채카레
##ulin
깐풍관자
불고기뚝배기
고기완자
마늘밥
##소스구이
생맥주500cc
##과일티
##돼지불고기
부대볶음
##마요구이
쭈꾸미삼겹
갈릭치킨
##ent
애플유자티
리얼딸기
팔보라조
골드킹
후식된장찌개
숙성회
들깨삼계탕
진저엘
##고구마피자
사골칼국수
프렌치랙
##ppuccino
뼈다귀찜
함흥물냉면
토종닭도리탕
참다랑어뱃살
##콩나물해장국
골든에일
베트남식
생우럭매운탕
시골청국장
냄비라면
스크류
생태찌개
콘파나
간재미무침
완도산
벌교꼬막
북촌피냉면
대포찜닭
##1664
가이바시
비지찌개
##까베르네소비뇽
##가마솥
오후5시까지
마오타이
호로록
한산소곡주
CHOCOL
Malbec
MILK
쇼치쿠바이
PREMIUM
1미
1세트
46
90g
AAA
Ballan
Prim
Rice
Sun
menu
굴탕면
날치
네로
닭봉
독일
딥디쉬
라따뚜이
명륜
박가
복탕
브랙퍼스트
비단
뿔소라
샤퀴테리
샥슈카
슈페너
스웨
씬피자
알추가
얌운센
양구이
에디션
요구르
은복
저온
쥐치
진국
창고
청주
청담
카모
캔맥주
킹콩
톡톡
튜나
특면
팟씨유
페이
필라
핫스파이시
##가라
##사갈비
##레기
##마키
##한잔
##동구
##베스
##2p
##화이타
##진사갈비
##판델
##등뼈찜
##어로
##해식
##콩볶음
##gr
##까미
##니다
##룻마가리타
##샤오
##순튀
##80g
##틀리
##키토
##상품
##궁중
##치킨까스
##치즈샐러드
##otato
해물부대전골
새우로제
##크림리조또
수제레몬차
낙지철판
토마토모짜렐라
버섯카레라이스
00pm
매콤해물
얼큰오뎅탕
##보쌈정식
제주한라봉
초콜릿칩
15p
오뎅백반
등심부대전골
더블샷
더블초콜릿
로제소스
반반피자
사리면
##카츠정식
기본카레라이스
메밀만두
프라페노
사시미정식
##ouple
오후4시
##ULL
녹두삼계탕
케이준강정
어린이돈까스
생굴보쌈
##ATA
로스가츠
간장새우장
오레오초코
믹스베리
뼈다귀감자탕
데리갈릭
##로제떡볶이
수제청차
##RIMP
소라찜
소라무침
큐브스테이크
포크카레라이스
모듬수육전골
한라봉차
모밀정식
##key
안주용
쿠앤크라떼
차슈덮밥
100mlX
원두커피
##utter
380ml
트로피컬
생딸기라떼
BLUE
주류세트
밀키스
담백한
파나마
##녹두전
낙삼새
아리차
##보양탕
피아자
마라향궈
BRUT
CLASSIC
갓파더
Ballantine
명륜진사갈비
10g
2가지
4EA
8알
AN
BREA
Du
Est
Ind
Mer
Napa
Peach
SAN
Tonic
to
갈빗살
곰표
구어
깜빠뉴
따라주
말렌
미친
미꾸라지
바디
불금
불돼지
비노
뼈있는
샤토
열라
오틀리
올린
이네
일식
잭슨
저염
조리
칠백
코크
태국식
텐동
파스
펀치
페레
한옥
회과육
##리노
##리제르바
##한돌
##보이
##보다
##비진
##고동
##와퍼
##무시
##포드
##설원
##글로리
##선라이즈
##조기
##콘파
##ip
##sa
##굴죽
##IO
##통핑
##피나콜라다
##RON
##쿠와
##쿠네
##링클
##낙전골
##팟타이
##더스
##ban
##히레
##FT
##딤섬
##삽겹살
치즈김치
1인족발
김치볶음
해물짜장
매운돼지갈비찜
##ari
한우된장찌개
##크림치즈볼
딸기요거
10도
초코브라우니
양념소갈비살
블루하와이
블랙라벨
토마토계란탕
얼큰한맛
얼큰짬뽕탕
화이트카페모카
##라이스세트
돈까스카레
##낙지찜
스페셜세트
레드빈
클라우드생
17시
골뱅이쫄면
25l
산낙지탕탕이
##나물비빔밥
##야끼소바
리얼토마토
아이스크림라떼
명란젓
##육회비빔밥
바지락수제비
티라미스
스타일
버거™
프로세코
아이피에이
꼬치구이
바게트볼
##보리굴비
땡초불
조기찌개
뉴욕치즈케이크
디너코스
오이양장피
##agu
##agne
##TAKE
브리야니
대방어회
##마살라
380g
##ADO
구워먹는치즈
##우삼겹된장찌개
팝콘만두
마왕통구이
SHB
##180g
메리골드
함바그카레라이스
맵기1
항정수육
Jose
보쌈고기추가
오후2시까지
깍두기볶음밥
##그레이드
steak
밀푀유나베
오지치즈
크림슨펀치
Regu
USA
맥스파이시®
빅맥®
IBU
꿔보러우
베이컨체더치즈
산지별
정상가
1꼬치
6월
70g
8도
BAC
CU
CASS
DOM
Deca
LEM
Pro
Pork
Sil
Zero
가락
간빠
고사리
니혼
닥치고
닭매운탕
당도
데스페
라스
런던
루나
명작
미고랭
베라
보더
본래
붓카케
빼쉐
생각
센노유
싱겁
아벨
알싸한
지느러미
진판델
코나
톨텐
트리
페스카토레
펜네
하트
할빈
핫초콜릿
흑돈
##사스
##자스민
##마블
##리치
##도둑
##블라
##수르
##어츠
##두라스
##노아
##밥버거
##시노
##까이
##떡세트
##떡사리
##닭구이
##sal
##mL
##코우
##구름
##청포도
##부속
##뇨블
##대패
##RE
##상차림
##MOR
##거운
##bb
##퓨레
##쌍화차
##앤칩스
##깻잎
치즈비엔나
카페라테
김치찌게
새우와
새우두부
레몬추가
매운철판
한우우
돼지수육
낙지해물찜
고구마치즈볼
그린커리
##족발세트
과일빙수
버섯카레우동
##매운닭발
커피빙수
청포도주스
##돼지김치찌개
레드마요치킨
##마요덮밥
14pcs
생선전
##로니아
메밀면
차돌박이숙주볶음
옛날짜장
세트메뉴12
교촌라이스세트
##마늘빵
바지락볶음
##철판구이
능이닭백숙
삼겹반
저녁정식
생굴전
야끼교자
생연어샐러드
오일파스타
청귤티
12years
라즈지
로스트치킨
칵테일소주
##당면볶음
궁중갈비찜
자두에이드
그레이프
스노윙치즈반
다리살
버섯불고기전골
소이라떼
모닝글로리
치즈크러스트피자
생새우초밥
##ango
##RUIT
배추전
대구뽈탕
허브치킨카레라이스
##부침개
스트립
시트론
순수우유
부타동
워터멜론
SHRIMP
Reserve
##허브티
모나스트
얼큰소고기가마솥
BURGER
타피오카펄
grand
교촌살살치킨
##ZZA
유미짜장
##나가사끼
사모사
갈릭디핑소스
백미당
구수한
##gogne
Mojito
데일리
CHOCOLATE
100mlX10팩
##TAKEOUT
데스페라도
싱겁게
29
4잔
5미
Cuv
Light
Me
Mushroom
Rib
SEA
Sli
TRU
pe
sh
간소새우
고베
단무지
대뱃살
덜미살
립톤
멕켈란
밥별도
복순
사쿠라
사계절
생복
생골뱅이
셀렉션
소양
수타
스톤
시로
아비
온두라스
웜랩
이북
익스트림
클램
통등심
파불고기
풀코스
호르몬
혼밥
홍탕
황기
##가이
##미리
##레귤러
##라기
##이과
##ris
##크럼블
##브라우
##황제
##베어
##베스트
##면조
##고노와다
##불린
##특수
##1잔
##생면
##육포
##롤로
##ies
##페라
##심관
##CO
##콜팝
##아부리
##아히요
##4개
##디야
##긴말이
##송주
##편채
##핑크
##데마끼
##앤비
##뺴기
치즈뿌
치즈폭포
1인삼겹살
1인1병
##치즈불닭
해물치즈떡볶이
매운소
매운떡볶이
모듬과일
순살간장
수제쿠키
돼지모듬
블랙펄
망고치즈
고구마추가
전복사시미
간장족발
간장양념
요거트플랫치노
버섯들깨
콜드브루커피
짬뽕국물
카스병맥주
##오징어튀김
스페셜모듬
14년
생선조림
카레돈가스
문어다리
철판제육볶음
안심카츠
초밥정식
##간장새우
청국장과
소세지야채볶음
훈제삼겹
떡갈비김밥
진저레몬
2piece
##버블밀크
##와사비김밥
어니언스노윙
달고나밀크티
파닭꼬치
웰치스포도
부산오뎅
가마보
섞어서
Whisky
##삼선짬뽕
오이소주
가자미조림
몬테풀치아노
모밀국수
500원
애플망고에이드
민어찜
39도
Laph
##andard
##바이젠
피쉬볼
##냄비우동
탄탄멘
싸움족발
싸움삼겹살
싸움보쌈
사워크림
##ongole
180mm
올갱이해장국
까페라떼
감자채전
##땡초김밥
Grilled
Bourgogne
강원도
판나코타
##촉촉만두
After
cheese
##지옥국밥
스텔라아르투아
요구르탱
구어바
말렌카
이네딧
센노유메
아벨라워
모나스트렐
얼큰소고기가마솥국밥
어니언스노윙치킨
2샷
3EA
3ps
Couple
DOC
Las
MON
OUT
Par
Vin
old
게맛살
고마
고향
고쿠
골목
곱뺴기
까쇼
꿀라떼
닭무침
돈마호크
돔페
등급
떼루아
레디핫치즈
리김밥
미락
미안
미더덕
배다리
베요
보르도
불꽃
브래드
브륄레
블러드
비뉴
비스크
빈야드
빠진
세가지
소생갈비
슬러쉬
시크
시다모
쏘가리
양밥
엔초비
연남
오로
오키
와이
작설
잡어
점성어
종로
중독
참숭어
천혜향
카나페
콩페이
쿨민트
큰거
클로
탱커레이
팽이
폰즈
필리
흑후추
히라메
##라야
##라디
##찌방
##타임
##로만
##프렌치
##2pcs
##수아
##볼케이노
##세리
##파게티
##회정식
##쌀면
##해신탕
##콩빵
##티기
##티노
##닭곰탕
##갈빗살
##다드
##빠냐
##TO
##부시
##간식용
##머랭
##버트
##키노
##ud
##43
##커플
##디셔
##뽀끼
##UICE
##뜨로
치즈롤
1인용
해물전골
새우찜
##세트A
한우육개장
추가사리
크림커피
딸기쉐이크
10종
카라멜카페모카
양념류
돼지두루치기
돼지양념갈비
낙지불고기
야채브라우
과일치킨
##프라프치노
버섯매운탕
버섯만두전골
카스텔
돈까스오므라이스
##cchi
칠리치킨
칠리베이컨
민트카페모카
14조각
기본카레우동
##애플티
묵은지갈비찜
묵은지닭볶음탕
##된장제육덮밥
스팸김치볶음밥
##연어초밥
한방오리
한방백숙
Set3
런치코스
10개추가
우동사리추가
녹두지짐
소불고기전골
프로마쥬
어니언치킨
감바스알
영양탕
##tain
다크초코라떼
36개월
##ENT
도토리묵밥
Sauce
바게트빵
Cola
##플레인
##돈카츠카레
한우차돌된장찌개
##도리떡
조니워커블랙
Room
##iring
##ILLA
젤라또와플
마리네이드
##아구탕
##ELLE
촉촉한
선물세트
카카오라떼
떡닭세트
교촌레드스틱
도루묵구이
Pale
Pairing
사워도우
동치미국수
솔티카라멜
Bow
##까베르네쇼비뇽
Bacardi
원당뼈찜
해물잡탕밥
Insal
##레이즈드
단체간식용
라가불린
Seasonal
##에스프레소
유림기
Signature
돔베고기
이스테이트
얇게썬
한옥집
LEMON
Silver
TRUFFLE
복순도가
##디셔널
야채브라우쉬
5000
AV
Ben
Ed
GU
RIS
VAN
fr
mini
on
petit
가슴살
강릉
곰도리떡
국시
국민
굴추가
굴무침
깐소새우
능성어
단백
닭죽
도화
듀록
등갈비찜
로꼬
롱반
리오
마주
매니아
맥파이
몽그라스
묵무침
미닛
반달
브리스
쁠라
살몬
살코
생갈매기살
소맥
손두부
솔송주
시래기밥
심장
쌀도우
씨그램
위드
주도로
즉떡
즐기는
지중
찰보리
추사
컵과일
크릭
팬케익
퍼보
폴로
##자스
##레토
##트너스
##라오
##aig
##쌈장
##오겹
##슈테
##주말
##불덮밥
##전용
##특냉채
##토로
##육편
##유기농
##OOD
##닭찜
##메다
##페뇨
##ST
##총사
##샤도네이
##IM
##인트
##림만두
##8g
##6g
##뼈다귀
##계치
##관문
##VER
##FOR
##패티
##온더
##눌레
치즈인
치즈해물
##갈비정식
세트8
김치콩나물국밥
##치즈오븐
##튀김만두
##만두튀김
레몬소스
레몬홍차
매운김밥
치킨카레덮밥
순살마늘
순살반반
비빔쫄면
딸기레어
양념왕갈비
소고기육개장
야채고로케
깐풍가지
허니라떼
불고기비빔밥
간장불고기
만두칼국수
고기짬뽕
##삼겹살찜
##삼겹말이
아구포
##낙지전골
로제닭발
바나나라떼
레드핫
17Y
모둠구이
갈릭크림
산낙지찜
메밀칼국수
더치원액
날치알군함
숯불바베큐
오후1
##콤보편
##부대볶음
반마리추가
블랑1664
우거지국밥
사과쥬스
자연송이2배
##브리또
스윗고구마
왕새우튀김우동
갈비찜정식
##메밀막국수
##10개
##10p
통새우버거
타이칠리
월계관준마이
해물볶음면
##크로와상
LA갈비구이
탄두리치킨
##ADE
하나야
배추보쌈
스키야끼
허브치킨카레우동
도로초밥
스미스
돌판수육
흑염소탕
간사이오뎅탕
불사텐더
쿠바노
모나카
한우소머리국밥
FRIES
아지매
Abs
Bread
페투치니
1Kg
공보가주
율무차
##HERE
금사오룡해삼
##싸이버거
갈아만든배
극한왕갈비
PIZZA
대접밥
Cuvee
180mm긴말이
돔페리뇽
Insalata
##FORHERE
09
400cc
7ea
80
Ag
Cru
CRU
Hen
Lou
Mini
NA
Tal
TOM
tall
가께
간소
강서
골라
곶감
기름
까사
깍둑
꼬물
꿀과
꿀자몽
남자
넘버
노아
누벨
덜매운맛
도쿄
따로국밥
떙초
리스
마마
몬탈
밋볼
밤식빵
보데
복샤브샤브
볶은
불향
빠다
뽈찜
샤베트
센300
소배필
솥뚜껑
순하
순덕
슈크림라떼
아빠
야시장
야관문
어피치
옻오리백숙
완탕
왕갈비찜
족뱅이
지코
츠케
캐비어
쿠시
탄레이
태국
통갈매기살
특미
퍼플
퍼스트
플러스
피즈
한국
핫크리스피
홈런
홍새우
훈연
흑설탕
##마끼야또
##aine
##크레이
##도장
##우렁
##소보로
##드림
##주전자
##와리
##알곱창
##위스키
##쌀찐빵
##짜조
##생삼겹
##츄러스
##안창
##식당
##모노
##돌판
##db
##tini
##먹물
##키모
##아귀
##벨리
##묵사발
##단지
##쯔루
##죽엽
##잔치국수
##솔트
##치즈카츠
새우치킨
치킨가스
치킨너겟
모듬해산물
아이스블랜딩
##두부탕
##두부찌개
##크림스파게티
##let
10미
10EA
##우동전골
콜라겐
삼선백짬뽕
고추바사삭
4인이상
에스프레소콘파
제육불고기
##돈까스세트
순대떡볶이
버섯크림카레파스타
버섯하야시라이스
11인치
##ond
150G
등심덧살
순두부탕
순두부백반
레드자몽
평일디너
14도
쭈꾸미비빔밥
기본크림카레파스타
기본하야시라이스
흑당콜드브루
철판김치볶음밥
20p
리얼딸기라떼
어묵튀김
연유카페라떼
교촌오리지날
구이와
##간장찜닭
한방수제
런치초밥
된장소면
진저비어
자연송이볶음
##브리즈
닭갈비덮밥
막창소금구이
간장새우초밥
##rier
##omile
Grand
옥수수국수
##드카라멜
PM12
우니동
중간매운맛
##ado
은행구이
Strawberry
셀프볶음밥
##한방백숙
500CC
스모키
다리날개
국산맥주
Mare
##avulin
허브치킨크림카레파스타
2시간
광동샥스핀
그라니따
파운드케이크
할매모듬
함바그크림카레파스타
Ardb
미도리샤워
여수꼬막
엽기떡볶이
똠얌꿍
카르파쵸
서리태콩국수
알라메다
흥부보쌈
##bonara
스위스
섹스온더
MAX
푸짐한
템프라니요
Heine
##통살버거
글렌드로낙
Platter
브리오슈
Lagavulin
오키나와
꼬물이
아이스블랜딩티
Ardbeg
섹스온더비치
2부
3줄
8inch
BT
BER
Bas
BEL
CAN
GRA
Ho
MED
Mango
NON
Port
Rum
Smoothie
milk
가케
글로
김포
닭연골
대관
둥지
로주
마녀
맨하
백련
백합탕
복사시미
블로
세가지냉채
손만두국
쇼유라멘
수라
쌈채소
양다리
요일
유정
이치
이소
잡곡
젠틀
조랭이
종합
죠니
주인
칼라
콩팥
특냉채
특참치
파절이
편백찜
학꽁치
해신
회추가
##루츠
##미나리
##레로
##레이트
##마틴
##ral
##오꼬노미야끼
##산적
##타다키
##보통
##주막
##생목살
##해설원
##모과
##모메
##토션
##GP
##ila
##니에
##lic
##구운
##ILD
##꽃차
##헤이즐
##팔보
##대보
##친구
##래곤
##계찜닭
##담은
##뽀로
##ve
##풍기
##올로
##푸딩
##뗄레
##훠궈
##칡냉면
##이스프
##새우찜
새우버터구이
새우완자
새우불고기버거
##세트4
##세트B
매운라면
치킨세트
치킨주막
한우된장
크림티
순살2
수제마카롱
##lec
10시
감자말이
##프레르
블랙베리
차돌떡볶이
차돌양지
허니자몽티
순대모듬
순대한접시
간장구이
요거트프라페
##초코렛
##ant
화이트롤
마늘바게트
등심카츠
##모듬전
동태매운탕
철판소고기
370ml
20oz
해삼내장
##oro
안심까스
생과일스무디
크림치즈프레즐
옛날볶음밥
국물치즈
교촌윙
교촌스틱
교촌콤보
##ERRA
파인애플피자
샤브세트
오돌뼈주먹밥
된장뚝배기
소면추가
##게장정식
달콤강정
겨울철
닭발볶음
생굴짬뽕
##쟁반국수
사골떡국
히레가츠
하프카라아게
에비앙
##모둠초밥
인절미토스트
오삼볶음
오삼덮밥
바삭크림치즈볼
멸치주먹밥
가마골
그릴드치킨
함흥비빔냉면
##roaig
수박쥬스
더블치즈엣지
대하찜
디너메뉴
악마의
석화찜
평양식
Short
나베시마
##녹차라떼
카야버터
평일점심특선
웰빙파닭
치킨까스카레
바이엔
##ICED
##머스비
교촌허니스틱
BLANC
직화구이닭발
430ml
스모크치킨
주꾸미볶음
청어알
우엉차
##유부초밥
위트에일
Fried
special
아카미
스크램블에그
철판치즈김치볶음밥
구아카몰
팔진탕면
토쿠베츠준마이
##ANGIE
스테키
매쉬드
수제과일차
우르메네
샤인머스캣
##마크니
엘더플라워
매운미니족발
레미마틴
호로록떡볶이
불금치킨
명작복분자
아비꼬
치즈뿌리오
Laphroaig
미안한
살코기
하나야구
홈런박스
우르메네타
000
1시
1시간
3pc
5줄
650ml
8세
Brew
Col
DR
JUICE
NY
Nat
Re
Su
du
fri
gre
sa
김일
너구리
네가지냉채
넥타
농어회
늑간살
다금
대한
도원
두반
따듯
럼콕
마음
마스
말보로
매일
모스까
물메기
뭉티기
반입
벽제
사르르
삿뽀로
상자
생맥
생레몬
소보루
시즐링
십전
아웃
양탕
어탕
업그레이드
엘레
엘리
조리퐁
진도
코코스
토시
통베이컨
파이브
파스트라미
팥도너츠
페리뇽
포천
한국식
핫데
황치즈
훈둔
히카
##가제
##사합
##카르
##카야
##라라
##치마살
##산타
##리소
##리네
##브르
##타마
##타니
##한치
##로얄
##베제
##프론
##비에
##2호
##지방
##불이
##살바
##전11시
##어스트
##씨앗
##두마리
##하나
##시앙
##식초
##나마
##모니
##OO
##다마고
##메론
##SH
##샤인
##배꼽
##ITA
##인분
##민어
##민물
##릿살
##키스
##아케
##명섭
##쿠스
##즐기는
##담백
##BBQ
##ZO
##폰즈
##뵈르
##휠렛버거
##맞은
치즈쫄볶이
카페비엔나
##치킨버거
##치즈찜닭
해물누룽지
매운낙지
매운오징어
한우안창살
크림스프
##비빔만두
##비빔막국수
참치라면
소고기된장찌개
소고기샤브샤브
12pc
갈비전골
##ult
베이컨토마토
돈까스안주
아구아
2인분부터
스페셜떡볶이
마라새우
##야채전
모둠순대
오리지널족발
카레추가
메밀냉면
사시미코스
비프하야시라이스
아이스크림와플
##ound
##LEY
구이용
##ERO
우삼겹사리
##누룽지백숙
스팸튀김
##마늘족발
송이버섯
한방족발
전골사리
##가츠나베
어린이용
##리플라워
사케라또
서울식
생연어덮밥
영양죽
버팔로스틱
##tail
##부추볶음
##리안자
##cktail
바삭바삭
염통줄기
2인분이상주문가능
민물장어구이
소곱창구이
Am11
유니콘
고구마치즈스틱
마리나라
매생이굴국밥
슈프림골드
크레망
교촌레드윙
교촌레드오리지날
Chef
흑미밥
교촌허니오리지날
야채튀김우동
싸이플렉스
SPRI
chicken
생면국수
베이컨치즈감자
우육면
베이컨체다치즈
##더치라떼
진미채김밥
네그로
Domaine
빠삭촉촉만두
칼칼한
Pm2
##자연송이
PEPP
전복해물뚝배기
##AKES
필터커피
##페스츄리피자
MIX
PANCAKES
서울장수막걸리
Merlot
##이과두주
베요타
시크릿
TOMATO
꿀과실차
지코바
하프카라아게카레
김일도
다금바리
핫데블
싸이플렉스버거
1부
2미
4시
4꼬치
450
400원
61
Cra
DARK
Flat
FULL
JO
Potato
Rou
SO
Tra
TOP
bu
고창
구룡포
까눌레
니가
니모메
다진
닭구이
닭계장
닭염통
돈치
동백
동경
무지개
반피
발효
밤막걸리
밥볶음
비라
빈트너스
빙홍차
사각
삼슬
샤오
소안심
송명섭
쉐이
스칼
스푼
싱가
쌀밥
양송
오반
오브
우대
우삼겹살
우족탕
울트라
워시드
육쌈
의정
이용
이디오피아
잎새
정통닭
집밥
쪽갈비
찰솥밥
청크
청년
치밀
킬리
텍사스
투핸
투썩
팔팔
혼자
휠렛버거
##가래떡
##자바
##레모네이드
##마티
##달잭
##반판
##리니
##바인
##러버
##창가
##알밤
##파두부
##선물
##과메기
##시카고
##그릭
##그독
##토시살
##유슬
##유산슬
##탄복
##mer
##꼬야끼
##청양
##부타
##부세트
##5p
##꽃잎차
##아동
##KER
##엔스
##몽땅
##뽁이
##델레
##델리
##팽이
치즈곱창
김치삼겹
김치오므라이스
##새우볶음
레몬유자
매운치즈
치킨난
모듬찜
자몽이슬
한우양념
한우소고기
순살닭강정
수제왕돈까스
감자칩
초코프라페
소고기무
소고기난자완스
블루마운틴
12인치
돼지양념구이
고추마늘
에스테이트
##모카라떼
갈비맛
낙지만두
망고라떼
제육두부김치
야채샐러드
콜드부르
전복추가
얼그레이홍차
과일음료
버섯해물찜
버섯굴죽
00PM
만두추가
##라우드
점심한정
순두부전골
더블바베큐
바나나초코
새우튀김김밥
14oz
마라반
마라두부
##야채비빔밥
17곡
헤이즐넛시럽
곱창순두부
모둠한판
##애플주스
황태국
코코일품
20조각
직화쭈꾸미
족발무침
묵은지닭도리탕
비프스테이크
비프오무
##토리아
루이보스바닐라
##oup
1개당
교촌닭갈비볶음밥
set1
파인애플볶음밥
꽃게살
꽃게장
전골용
콩나물밥
스트로베리초콜릿
돼지고기튀김
싱글몰트
삼겹쭈꾸미
##ist
사골곰탕
햄치즈휠렛버거
오레오쉐이크
스파이시치킨
Caffe
오전11
현미밥
##CHA
채끝스테이크
##OTTO
##12시
꼬치류
메로나
생선구이정식
꽁치찌개
큐브케이크
통영생굴
더블치즈피자
김치만두전골
##사이공
아마에비
##INGER
오마치
소막창구이
아나고세꼬시
스모어
하쿠쯔루
건강한
나마죠죠
Martini
##17년
교촌레드콤보
카라아게카레
##aval
엄청큰
교촌허니콤보
얼음황도
토마토아스파라거스오무
Bef
로스까스카레
로스까스오무
coke
비스큐
야마다니시키
춘천식
chocolate
글라스와인
까르니따
크루즈
cafe
라이트야채치킨카레
라이트야채치킨오무
Goose
배달가
반메뉴5
반메뉴4
찜햇닭강정
플로팅
중식냉면
사피치노
호지차
잡고기매운탕
흰살생선
시저치킨랩
GREEN
Manzo
Highland
##커피프라페노
치킨크림오무
##ountain
beer
딸리아뗄레
##안동소주
##로스까스카레
Buffet
##돌체라떼
할빈맥주
데스페라도스
순하리
##팔보채
십전대보
핫데블치킨
의정부
정통닭강정
##달잭슨
코코일품돈카츠카레
320ml
420
540g
8종
AD
Bel
CL
FR
For
Fami
GARL
JUM
PA
Tri
inch
la
original
깐밴
꽈뜨로
꿀토마토
꿀호떡
끄라
날계란
누꼬
다섯
대합
드신
떡순튀
뜨거운
로메인
루이스
마담
마쯔
만들
말백
메르
모스코
밀떡볶이
바사칸
바롤로
백고동
밸리
벨루치
부자
불쭈꾸미
빠따
사츠마
생율
생와사비
샤도네
서비스
소양념
스티
신안
안키모
에멘
엘살바
오므
온소바
우주
자루
절반
정찬
졸라
쥬시
짜죠
치떡
카르보나라
카다이
코돈
퀴노아
테디
특모듬초밥
파크
파파스
페루
폴드포크
피오
헤이
후무스
##사드
##자키
##자루소바
##카라
##레디핫치즈
##라노
##라따
##치나
##치네
##오삼
##황금
##우면
##쇼킹
##쇼마이
##드신
##250g
##채비빔밥
##스프레드
##야지
##글리
##복어
##짬봉
##생고기
##식이
##모르
##모닝
##장작
##양불고기
##다스
##다른
##iar
##iano
##돌이
##mint
##3호
##ow
##IR
##HRO
##ty
##피쳐
##with
##pagne
##ua
##45
##뱅쇼
##맛탕
##VIP
##홍시
##실리
##FE
##데렐라
##론드
##셰이크
##예가체프
##빕밥
김치제육덮밥
##치즈핫도그
해물크림
레몬소주
매운후라이드
매운등갈비찜
자몽스무디
순살레디핫치즈
비빔메밀
딸기크림
수제떡갈비
수제꽃잎차
감자샐러드
감자옹심이
초코스무디
양념족발
##프레쉬
블랙선
블랙쿠키
고추만두
낙지한마리
야채순대
순대사리
매콤명태
매콤낙지비빔밥
베이컨피자
두부추가
11p
카스맥주
마늘똥집
돈까스세트
제주흑
##밀크쉐이크
커피콩빵
등심불고기
더블베이컨
육회냉면
레드컵
새우튀김덮밥
쭈꾸미찜
오리지널맛
##eng
코코너츠
20분
대구매운탕
파인트
355ML
숯불갈비
여름특선
브루스케타
싱글톤
자연송이전복
크리스피파닭치킨
##쟁반짬뽕
##뚝배기불고기
##ria
##rut
양지수육
추어물만두
믹스넛
믹스커피
##메밀칼국수
멕시코
아사이
##ural
가마치
반건오징어
대하소금구이
홍소육
골든메달
식사류
순대곱창철판볶음
동절기메뉴
브리즈
쿠보타만쥬
초코칩쿠키
Lager
모닝세트
Brunch
##블링치킨
메론소다
##ider
제육쌈밥정식
##avi
베이비크랩
산타리타
싸이매니아
솔티드카라멜
항아리수제비
네기도로
상차림비
쵸코라떼
달달한
명동칼국수
주방장특선
따뜻하게즐기는
스팸마요컵밥
해물잡탕
가르나
세이로
도마수육
우나기동
##BERRY
##ellegr
알룰로스치킨
우도땅콩
치즈베이컨버거
민들레대포
숄더랙
테이블
James
BACON
DOMA
Louis
BTL
MEDIUM
Natural
따듯한
코코스페셜
Rouge
투핸즈
Before
Family
GARLIC
테디베어
싸이매니아치킨
따뜻하게즐기는과일티
4PCS
8L
800ml
ALE
APPLE
Cor
Mat
PER
SOD
Sweet
Wild
ai
ver
years
간자장
굴탕
굴찜
까만찜닭
닭가라아게
담소
대용
댄싱
돈꼬츠
두판
로인
로아
마츠
메도우
멜로
미션
바르
불싸이버거
브레
블록
산지오
살로만
설탕
세계
세세리
순메밀
쉑쉑
스마일
신데렐라
아우
아기
아까미
아로니아
양파닭
유즈
육해
의성
자리
잔사케
장작
전체
젓갈
제라
천년
청사과
코리안
콩가루
킹브레드
통낙지
통날개
특탕
특스페셜
틴토
팔자
팔선
펌킨
푸드
풍정
피크
하가우
학생
해창
해남
해분
홍대
##루꼴라
##사계
##미노
##카모마일
##레띠
##라가
##마왕
##마른
##속안심
##반접시
##크리미
##타도
##슈림프
##보드카
##락스
##포르마
##야토
##살루트
##알라
##찹스테이크
##그란
##토시
##장비빔밥
##DICH
##GR
##shot
##니티
##네랄
##3인세트
##구미
##ION
##순한맛
##500g
##체스
##통삼겹
##wh
##란자
##칼면
##호롱
##va
##VA
##kf
##홍주
##농장
##WN
##혈관
##깔라
##꿔바로우
##맵닭
##치즈롤
##치즈파니니
##새우살
매운간장
치킨퀘사디아피자
자몽블랙티
아이스박스
크림스파게티
크림소다
바닐라크림
바닐라라테
딸기컵
딸기마카롱
수제햄
수제자몽
##불고기피자
10000
초코컵
초코무스
초코버블티
양념탕수육
갈비본
차돌라면
차돌숙주
낙지보쌈
낙지갈비탕
고구마샐러드
그린민트
깐풍소스
간장마늘치킨
모카번
매콤오징어
30y
계절음식
##eapple
바나나우유
미니불족
##돼지불백
레드킹
레드마블
16p
##야채김밥
라면사리추가
직화불
직화제육
포테이토골드
토닉세트
숯불양념
교촌소이
교촌웨지감자
까르보떡볶이
##간장조림
로얄살루트
파인애플샤베트
우유튀김
한라산21
환타오렌지
페퍼로니페스츄리피자
수제비짬뽕
후식물냉면
그릴에
콩나물짬뽕
한치와
한치땅콩
조개전골
스타셰프
유부김밥
일반피자
라조육밥
##버블라떼
막창볶음
막창양념구이
##셋트메뉴
야끼니꾸
산토리가쿠
Cappuccino
Spain
현미순살치킨
에비텐
##bos
##12캔
##ppa
오븐에
꼬치어묵
요거하트
아귀간
##odka
통새우링
와사비마요
베트남소고기쌀국수
참돔회
##페퍼민트
##ALLAN
우리밀
맥스생맥주
순살후라이드치킨
퐁듀치즈
치킨마요컵밥
통마늘닭똥집
카라아게오무
양갈비살꼬치
수입산
프리백
스트레이트
양깃머리무침
설화등심
와일드터키
훈제연어샐러드
마카니
크루저
오코노미
##zola
명태회냉면
피넛버터쿠키
카라이멘
GLENMOR
하모니
오돌갈비
##IDDICH
백김치당면볶음
윈터멜론티
샤인머스켓
팔도비빔면
밀키베리하트
Dalmore
수주육편
이까게소
##갑오징어조림
MACALLAN
스팸계란후라이
온센다마고
상황버섯
오도독
치포래
##orgon
Valley
PORK
오메기술
##북어국
충무김밥
현미순살파닭치킨
스웨디쉬
Reguiar
VANILLA
미닛메이드
##슈테판
Absol
순덕이세트
Heineken
글로벌
맨하탄
##헤이즐넛
##lection
까르니따스
SODA
대용량
풍정사계
교촌소이살살
GLENMORANGIE
03
1일
4구
4시까지
420g
5kg
6미
6EA
8시
88
Butter
Can
Fanta
HA
Ja
Oak
ORAN
cu
feat
oil
peg
sweet
가라
가브리
가라구치
게란
계피
구슬
근고기
꿀생강차
난코츠
네가지
닭가
담은
도후
드래곤
떡복이
뚱캔
라인
로사
로리나
리스트
마더
만월
무김치
바게뜨
반포
보양식
보부세트
부안
부귀
불여
비뇨블
소모듬
소내장
소룡포
수수
수신
시바스
실크
아무
아바이
앙시앙
양볶음밥
엔칠라다
연골
오레
온더락
위드베리
장군
장독
참나물
참문어
컵라면
키마
키안티
탁주
토속
펜리
폼비스
한신
한촌
할리
흰다리
힘찬
##가즘
##카타
##라인
##마티니
##마들렌
##만정식
##리스타
##브락스
##타테
##우르
##로카
##소보루
##드리
##수엘라
##A세트
##LS
##스테
##무리
##필수
##특수부위
##모리아와세
##닭볶음
##양근
##페페
##SHOT
##코올
##샤오롱바오
##심줄
##ox
##구라
##발몽
##체타
##린느
##츠루
##핫블랙
##아지
##po
##ute
##4p
##묵밥
##연이
##입니다
##뱅크
##MVP
##뚝불
##댕이
##꽈리
치즈가츠
치즈나쵸
김치제육볶음
김치짜글이
해물나베
매운불족발
매운무뼈닭발
1인분기준
치킨스테이크
추가주문
바닐라쉐이크
순살크래커
##크림치킨
볶음탕
볶음짜장
세트메뉴A
양념꼬막
소고기짬뽕밥
피자R
망고바사삭타르트
고구마돈가스
제육김밥
##geta
깐풍동고
##짜장밥
순대술국
순대철판볶음
버섯순두부
오렌지티
화이트초코라떼
##라우스
냉면곱배기
##해물볶음
로제돈까스
복숭아바사삭타르트
14알
우럭구이
모둠감자튀김
문어가라아게
잡채덮밥
리얼체리
초밥세트
세트메뉴13
교촌후라이드
##EACH
버블라떼
우삼겹부대세트
삼선짬뽕국물
##순살뿌치
숙성연어
싱글빈야드
삼겹숙주볶음
##스카치
##막창볶음
##막창구이
떡갈비냉면
클래식치즈버거
흑임자카페라떼
자연송이덮밥
오늘의초밥
모듬회덮밥
##라운드
##거스틴
##망고케이크
영양순대국
매생이국
마카롱세트
올리브치킨
명태회무침
에비가츠동
커리퀸
꽃등심초밥
대추생강차
다크쇼콜라
190ml
대창덮밥
아주맵게
Sapp
치킨가라아게동
씨푸드카레
카츠모밀
로얄밀크티라떼
2인분이상주문
작은놈
##그린밀크티
##토핑추가
전통육개장
##TEL
섞어찌개
##uve
궁중불고기
소곱창부대전골
면사리추가
##스티지
야채곱창볶음
봄베이사파이어
접시순대
Sherry
일본오리지날
##말차라떼
가쿠하이볼
제주청귤차
##ervo
활어회무침
스프링뱅크
짜파구리
##ITH
쿠키앤크림프라페
허브치킨하야시라이스
청경채굴소스
피쉬앤칩스
Monte
ALC
##quot
비스킷
피칸파이
##코코넛쉐이크
쁘띠망고케이크
ABC
Perrier
포르마지오
자이언트펭
##카스테라
파채소스
오트밀라떼
##청경채볶음
새콤달콤비빔면
싱싱파채
원당감자탕
##홍합짬뽕
어니언치즈순살뿌치
오르조
ROSE
##LOIN
캐나디
grande
##자연산
##사천탕수육
고래사
밀키베리무스
다크초콜릿쿠키
상하이진한짬뽕
평일오전11시
황소곱창
##unghi
##디오스
바바리안
##고소한
Lime
라비올리
치미창가
프랄리네
토마토모짜렐라랩
클라우드생드래프트
가마보꼬
RISOTTO
딸기레어치즈케이크
아웃백
PEPPER
엘살바도르
블랙쿠키치즈케이크
##ellegrino
DOMAINE
ORANGE
수신금
장독대
##getable
1Bottle
31
53
5pc
7p
720
850g
8EA
8인치
Aust
Br
Bis
Dry
FAM
Fountain
Ne
SC
TO
Tur
ZERO
juice
mare
tav
감탄
고이
고스트
과실차
국치정식
군고구마
그나와
김렛
깐소
깡통
낫토
냉침
넙적당면
넣은
닭불고기
닭껍데기
대가
드림
레전드
로드
리타
말라이
목등심
몽크
미용
밀맥주
바람
반병
버라이
범벅
병아리
복국
본나물비빔밥
부쉬
부팔
빈티지
빙탄복
뻔데기탕
사장님
산라
산쭈꾸미
색다른
생어
소꼬치
소반마리
소힘줄
쇼유
쇼마이
술샘
스리
슬로우
시푸드
신세
써머스비
아로
어란
오큰
오다리튀김
오불덮밥
올미트
왕창
요세
원앙
이이
자숙
전라도
좋아
쯔꾸네
칠면조
큰박스
킹피
타라파
통갈비
통뼈닭발
특생선
파우
파추가
팔미
패키지
퓨레
한줄
해담
회막국수
##가피
##사워
##사이드
##사디야
##레시
##이하
##마파두부
##오브
##브렉퍼스트
##또띠아
##서미
##프스
##보드
##고마
##주꾸미
##22
##LING
##스위트
##제공
##윙스
##티넬
##티라떼
##양볶음
##양곰탕
##PER
##ibos
##니오
##니쿠
##메로
##코야마
##쉬라즈
##참기름
##아나고
##계떡
##란드
##4조각
##커런트
##쿠시
##벌집
##멘보샤
##B세트
##WE
##푸룻마가리타
##겐슈
##뽈살
##번세트
##염차
치즈링
치즈소스
치즈포테이토
치즈플래터
##갈비구이
김치해물전
해물울면
해물얼큰
해물섞어
새우탕
레몬스카이
매운우동
매운뼈찜
치킨과
치킨뱅이
모듬안주
모듬오뎅탕
모듬어묵탕
##수육국밥
자몽맥주
자몽네이
자몽허니
한우떡갈비
한우육전
##짬뽕라면
##스타우트
크림우동
수제음료
##불고기전골
101
세트메뉴B
##우동세트
초코밀크
초코큐브케이크
양념바베큐
소고기고추잡채
갈비추가
##00G
망고마카롱
고구마소주
제육비빔밥
야채모듬
유자큐브케이크
광어반
##ere
버섯칼국수
버섯야채
매콤불
매콤치킨
매콤제육김밥
얼큰김치
얼큰술국
얼큰번데기탕
짬뽕면
화이트러시안
베이컨말이
마늘탕수육
매운맛2
매운맛1
SET5
##oni
오뎅꼬치
미니사시미
해산물카레라이스
오리지널블루베리
생선모듬구이
메밀왕만두
##ori
##or주말
비프퀘사디아피자
고추잡채와
리얼치즈
크림치즈고로케
크림치즈베이글
옛날팥빙수
버터스카치
우삼겹우동전골
한라산소주
송이우육
##ica
##oli
런치정식
여름별미
소세지구이
멍게덮밥
##ister
##iel
2013
보리새우
케이준감자튀김
닭발편육
닭가슴살카레
사과당근
생크림케이크
사골우거지탕
스윗츠
간장새우덮밥
양푼동태탕
왕새우튀김카레
오향족발
아이셔
##커리덮밥
관자튀김
데리버거
8개입
바삭칸치킨
475ml
프레스티지
씨푸드오무
##오렌지에이드
작은박스
##10시
##생선찜
##생선까스
시래기명태조림
##urt
##RAFT
전통족발
돈카츠김치우동
통새우피자
더블치즈버거
함박스테이크오무
가츠카레
가츠나베
핑크레몬에이드
2psc
홍소관자
궁중잡채
패밀리팩
마르게리따피자
미소된장국
차슈동
6인분
##큐브라떼
체다치즈오무
참복찜
한우불고기전골
##andw
##FFE
북경식
크레페
##OCADO
몬스터슈
트레디셔널
필스너우르
구름치즈찜닭
춘천닭갈비
##사이즈업
##코다리찜
알새우카레
알새우카레라이스
americano
맵기2
키즈세트
메가크런치
스팀우유
##허브차
##초코칩머핀
통돼지김치찌개
미취학아동
GLENF
새알팥죽
또봉이통닭
나파밸리
잉글리쉬브랙퍼스트
##강된장비빔밥
오르가즘
노랑치즈볼
민물새우깡
그란데
잠봉뵈르
SAU
검정콩
몰트초콜릿
화이트초콜릿모카
Champagne
##nessy
페투치네
##rown
계란토마토볶음
대새핫블랙
Veuve
블루베리치즈타르트
마시는
그뤼에르치즈무스
##바나치노
증류주
이면수구이
세종대왕
##견과류김밥
더블초콜릿머핀
Estate
Decaf
##블라스트
이북식
중독치노
AVOCADO
치즈인로스까스카레
Hennessy
가께우동
##크레이프
##죽엽청주
로주탄
죠니워커
바이엔슈테판
바나나초코타르트
Triple
에멘탈
##kfast
##orgonzola
불여시
tavolo
생어거스틴
오큰토션
타라파카
자몽네이블오렌지
오리지널블루베리머핀
2배
3병
9도
Ban
E세트
Hend
Neg
Pen
Pri
PIE
Ries
SPA
TA
Ver
VAL
Vongole
espresso
가로
가스
가문어
국만정식
굴림만두
꼴뚜기
꽉찬
끌로
나홀
낭만
냉치정식
넓적당면
노란
눈맞은
다양
다마고
라이브
러스크
르완
마차
마이스터
매워
몽땅
무공
무릎
문등
물쫄면
민소
바비
바인
반한
밥추가
버진
벨로
부채
부위
빅불
빌베리
빨락
뼈뺀
뼈등심
뽀삐
살시
세블
소치정식
소유라멘
스무벨라
시져
아티
아부
아디오스
안매워
앤초비
양반
양갱
양많이
어글리
언더락
연포
오골
올리고
용호
워커
윙스타
이곡라떼
장발몽
제갈
제스티
죠젠
참고소한
청채
치플
칡물냉면
캔디
커틀렛
컵케이크
코노
콩크림
크리안자
클리코
타우니
타다키
테일
파리
판티니
판체타
퍼스
페리
피시
할머니
해독
##가쯔
##가격
##트레
##라나
##마카
##크리스
##타키
##즈노
##르미
##빙빙
##스틴
##제미
##지마
##지딩
##야기
##어깨
##위볶음
##모네
##토상
##닭세트
##닭볶이
##GB
##PS
##ien
##ster
##메들리
##35ml
##삼슬
##꼬들
##9ml
##머스타드
##피즈
##피넛
##당동
##키야또
##후레이크
##계정
##쏘세지
##삭면
##호밀
##클리코
##풍냉채
##홍게
##약속
##함께
##깨비
##없음
##델피아
##깍두기
##좋은
##고기만
치즈슈프림
김치콩나물
해물샤브
##새우피자
새우탕수육
새우오므라이스
매운오뎅
한우양지
순살매운
수제치즈
수제만두
수제어묵
수제새우튀김
수제자몽티
187
##김치볶음
카라멜프라페
밀크카라멜
참치치즈김밥
소고기순두부
소고기오이무침
12캔
12PCS
오징어찌개
오징어먹물
##ala
##초밥세트
오리불고기
차돌삼겹
낙지호롱
에스프레소마끼아또
고구마떡
고구마맛탕
제육쌈
광어물회
블루베리루이보스
허니땅콩
김치찌개돈까스
요거트아이스크림
버섯두부전골
##초코치즈케이크
짬뽕1
##꼬치구이
11pcs
##삼겹살볶음
SET메뉴
제주에일
151
플레인스콘
로제돈까스정식
튀김쥐포
반반콤보
복숭아자두
16pcs
카라멜마키아토
1700ml
해산물토마토
기본사이즈
모둠소시지
수육추가
수육정식
갈릭쉬림프
##리미트
뚝배기제육
문어튀김
25g
20시
묵은지찌개
묵은지추가
양장피잡채
생과일라떼
옛날떡볶이
숯불쭈꾸미
도미뱃살
프리미에
##아이스컵
와인세트
##된장죽
블렌치노
스팸김치찌개
set2
##바나나주스
꼬막전
가지카레라이스
그릴에서
닭고기덮밥
유기농녹차
4개입
된장말이
##isu
##rel
토종순대국
자연송이관자
오늘의커피
돈가스덮밥
햄치즈토스트
##우럭탕
##육개장전골
##ombo
도시락김
매실에이드
채끝살
중새우튀김
추어군만두
명태찜
40pm
석류차
대창추가
##cola
로얄밀크티쉬폰
전통보쌈
##오븐구이
라즈베리초코칩머핀
딸기바나나쥬스
버드와이져
해삼탕밥
B코스요리
##arden
시원하게
##TAIL
오리엔탈오므라이스
스노윙반
##iram
##코코아
리치골드피자
대만식
Martin
치즈토핑추가
채소추가
오전11시30분
부타야끼
즈란양고기
모듬생선회
닭목살구이
##동태찌개
##염통줄기
실속형
버터갈릭감자튀김
교자만두
Perignon
하와이언피자
게살샥스핀스프
신의주정식
간풍기
##드라이버
링귀네
##ellow
크라사드
반숙계란
감자채무침
##누텔라젤라또와플
카니미소
신전김밥
아쿠아돈까스
Ginger
교촌살살미니
우렁이쌀
연잎밥
국수나무우동
GREY
소이갈릭스
블럭비프카레
MARG
대나무통
크림고로케카레
커피생크림피스
PLATE
Tenderloin
파르페
##고르곤졸라피자
자메이카통다리
Eggs
교촌신화순살
프론테라
##수사정식
간빠레오
생각나는
감바스알아히요
Bowmore
꼬물이만두
##licquot
반입주
##씨앗주스
마쯔리
육해공
##마른안주
흰다리새우
파우스트
돈카츠김치우동전골
##andwich
Riesling
나홀로
다양한
르완다
문등학
올리고당
퍼스널
01
1봉
2세트
3단
9구
Cam
Cut
Cider
Dark
Drip
Gorgonzola
HOM
Mu
MAN
PIN
Pieces
Rem
Side
Yellow
gra
강추
겐마이
경기
굴라
글래스
꼬르
꼬끄
나뚜
낙갈찜
노을
다시마
달위
대강
덴푸라
도쿠베츠
둔켈
들꺠
로버트
롤케이크
리큐
리브레
막심
맥머핀
멜랑
모던
목동
목련
미스
바베
밥은
베린
베리아
보성
복껍질
불렛
비에
뿌님
사전예약
삼풍냉채
생돼지
선운
소르베
슈크림치즈
스마
스베
시소
신당동
싹쓰
썬라이즈
약주
양곱창전골
양등갈비
에소
에스트
여러
옥보
왕돼지갈비
우아
원주
유산
육우
잘차
저지방
적포도
절인
존슨
찰광어
치타
치요
치즐링
캐밥
코스트
콘스프
탕탕
특색
특순대국
파워
판메밀
패스트라미
펄추가
페이스
피단
하늘
회오리
##가케
##가족
##이전
##이어
##rick
##속에
##테스
##콤비
##블랜드
##러브
##수라
##스쿼시
##무화과
##파크
##파르
##파워
##플래
##짜파게티
##새싹
##새송이
##생주
##생새우
##생등심
##하루
##츄럴
##냉쌀국수
##모히토
##다닭
##PLE
##iss
##런스
##man
##게이
##3000cc
##부루
##부어스트
##간자장
##8시
##키오
##아들
##ue
##uim
##왕만두국
##연가
##방스
##봉골레
##족보
##단팥
##UCC
##720
##롱샤
##패밀리
##퇘지
##둥이
##빨간
##jo
##맵기
##먼트
치즈크림
치즈핫도그
치즈스노우
##갈비전골
세트9
김치돈까스
새우킹
새우카츠
레몬탕수육
매운쌀국수
매운숯불
치킨떡볶이
치킨티카
모듬스테이크
모듬스페셜
자몽그린티
한우샤브
한우갈비탕
크림빵
크림짬뽕
크림브륄레
딸기바사삭타르트
수제도우
수제마늘빵
감자세트
콜라500ml
참치고추김밥
오징어구이
볶음밥용
오리고기
갈비꽃살
망고패션후르츠
야채전
야채무침
유자청
유자캐모마일
유자피나콜라다
##otta
블루베리마카롱
허니자몽차
##inger
순대추가
버섯덮밥
콜드브루아메리카노
고기덮밥
두부샐러드
11개
11세
점심식사
##삼겹구이
보쌈세트
15마리
##오리구이
플레인와플
동태내장전골
##돼지찌개
반반초밥
레드커리
한마리통닭
14시까지
마라칸
마라갈비
우럭세꼬시
##야채쌀국수
누룽지백숙
헤이즐넛커피
기본컵
기본2인분
갈릭브레드
##애플라임
25y
250
코코프라페
330ML
##cho
묵은지등갈비찜
##ANA
명란치즈
옛날짬뽕
옛날돈까스
찹쌀도너츠
크로켓
부추계란볶음
##갈릭스
교촌마라
목살김치찌개
##머리구이
버블추가
코코넛크림
골드엣지
##제육면
##제육쌈밥
스트로베리요거
##블랙빈
한치회
고추장찜닭
유기농허브티
##illo
보리소주
우거지사리
스프리
눈꽃살
##rah
##차돌짬뽕
##차돌비빔밥
##ONI
곱배기추가
쟁반짜장2
##omod
명태무침
석류애플라임
CHIAN
할라피뇨너겟
##반반순살
불닭볶음면
불닭맵기
프레첼
##마이다이
돈카츠카레
더블치즈김밥
차이나
홍소갈비
자연산회
한라봉에이드
눈꽃치즈돈까스
베트남쌀국수
별도입니다
황제갈비살
닭날개튀김
Standard
돼지껍데기볶음
10PCS
찌개추가
아나고회
북어해장국
##utto
어향가지덮밥
##알리오올리오
소프트아이스크림
까망베르치즈
새송이덮밥
생오리주물럭
CAFE
양푼이김치찌개
##묵은지찜
프리마
민트모카라떼
그라나
##ACK
BOW
야마자키
##에이징
##스파클링에이드
쁘띠초코치즈케이크
미취학생
실장추천
브리치즈구이
whole
생초콜릿그린티
생초콜릿라즈베리
##CKTAIL
한우대창구이
##그레인
불사치킨
신의주모듬
장조림버터
##곡물라떼
공주알밤
##orkage
쿠로마
바베큐치킨파니니
##누텔라와플
바스마티
치파오치킨
옛맛부대세트
Bourbon
##생과일주스
BREW
믹스드베리큐브케이크
생일상
모시조개
상하이진한짬뽕밥
벚꽃향기딸기생크림피스
수원왕갈비
##누가크래커
게살크림고로케
그린앙케이크
카라멜마끼아토
후레이크갈릭치킨
Meduim
할라페뇨
봄냉이우삼겹된장찌개
레몬치킨클럽
##샤오마이
딸기요거피스
매운철판돈카츠
연남연가
브리스킷
핫크리스피버거
에스프레소콘파냐
여수꼬막불고기
매운라면맛
##민물장어
SPRITE
buger
싱가폴
치킨난반
420cc
JUMBO
산지오베제
자리돔
천년약속
리얼체리치즈케익
버라이어
부팔라
매콤불차돌비빔밥
세블락
참고소한김
달위니
선운산
옥보단
잘차린
교촌마라떡볶이
스트로베리요거타르트
CHIANTI
000cc
4미
5가지
700
8인
930ml
935ml
Bott
Cot
Hall
Is
KGB
Lu
Mich
Meat
Oliv
PAN
Park
ROM
Tod
Tart
Vodka
au
black
for
full
vanilla
곰장어
까망
까수엘라
꼬지
꽃송이
꿀유자차
낙우
냉라멘
노르
담솔
돌돔
된장국
두레
듀어스
딥바닐라
로호
루트
리틀
리챔
림해설원
마블
마쉬
만다
매직
목우
무사
민속
벨벳
부터
부라따
불도장
블랜디드
뼈사리
산새우
살사리
상견
새꼬막
세발
세븐
세서미
셀렉
셜리
소백
소꼬리찜
신촌
쑥국
쑥떡
아나
알레
애간장
야생
얌스톤
양조
양무침
언리미트
엄지
온더
왕사발
우족
윌리
유키노
이찌방
제일
조미
짜계치
짱구
참꼬막
참조기
창코
천마
첫사랑
청정
치밥
칡비빔냉면
카우
카바
캐리비
코리아
킹프론
타워
탈레
텍스트
통곡물
통후추
파블로
푸실리
프룻
프랜치
플렛
피조개
핀카
한사라
핫후라이드
해시
햄소세지
햄버그
홀스
황진이
후닭
##루엄
##미오
##카사
##라소
##오네
##테로
##한돈
##슈빌
##동동
##서리
##꾸라
##바치
##블린
##2000cc
##채심
##볶기
##Large
##스게
##화로
##화문
##설화
##선지해장국
##씨드
##1조각
##해도
##시저
##나타
##나의
##모스카토
##gh
##OG
##닭다리살
##앙금
##다비
##G1
##ev
##탄불고기
##빠이
##빠진
##SER
##SON
##35
##완탕면
##끼오
##CI
##tl
##퐁닭
##버리
##콜라떼
##X2
##허반반순살
##4종
##커트
##디노
##디치노
##KA
##MON
##거나
##목심
##손칼국수
##팬케이크
##퓨전
##멸치국수
##여우
##쫀득
##넥타
치즈토스트
치즈부대찌개
치즈오므라이스
치즈큐브
##치즈샌드위치
해물만두
해물쌀국수
해물토마토
해물어묵탕
해물아구찜
새우볶음
새우사리
새우로제파스타
레몬크림
매운어묵
순살세트
참치정식
초코마카롱
양념똥집
소고기버섯
소고기미역국
소고기낙지덮밥
12피스
갈비구이
야채춘권
토마토새우
전복추어탕
##ega
녹차마카롱
##족발보쌈
버섯과
버섯야채죽
얼큰만두국
짬뽕2
짬뽕순두부
돈까스떡볶이
##해물누룽지탕
바나나쥬스
미니모밀
16시
마라양꼬치
해산물파스타
해산물쌀국수
곱창사리
모둠어묵
갈릭소스
골뱅이탕
골뱅이와
생선가츠
유산슬덮밥
족발볶음밥
고등어김치찜
묵은지김치찜
묵은지고등어조림
비프칠리
##버터야끼
에그샌드위치
부추무침
게살튀김
게살날치알
2개이상
장어롤
우삼겹부대찌개
우삼겹부대전골
##간장계란밥
로얄캐모마일
스파게티면
청국장순두부
내장볶음
후식비빔냉면
Chian
민트초코스무디
예약필수
코스메뉴
훈제족발
##수제비탕
샤브고기
##asm
COCKTAIL
무뼈국물닭발
크리스피순살
달고나커피
영양족발
자스민티
12년산
옥수수콘
매생이떡국
한정메뉴
명품한우
명태포
관자와
관자구이
11시부터
비엔나소세지
12yr
190g
CHAM
대창전골
인절미빙수
도토리묵사발
치킨가라아게카레
두마리통닭
Coca
Cocktail
카츠나베
##urr
AM11시
섞어순두부
조기조림
홍소전복
##UNG
Stella
Shak
인삼차
##크로켓
허니버터맛
6인용
라벤다
플레인요거트드링크
##오미자차
선택가능
중화비빔밥
민어매운탕
##더블샷
참복지리
오소리국밥
38도
Marg
##andon
콰트로치즈
다이아몬드
텐더와
##사골국
참소라숙회
Carbonara
##찹쌀순대
유니짜장면
Moet
Mosc
알뜰세트
##바지락볶음
간재미찜
그라브락스
XO볶음밥
XO게살볶음밥
구름스무디
행복한
미니족구이
폭탄계란찜
쯔란양고기
교촌반반윙
교촌반반스틱
교촌반반콤보
한우곱창구이
##계절과일
느린마을막걸리
생초콜릿다크
이태원
##녹두빈대떡
냉메밀국수
spicy
황금보리소주
##BOX
그냥라면
Max
##홍어삼합
##오니에
네그로니
##리코타치즈
##하와이안
5시부터
고고제육면
국수나무알밥
Cuervo
불새치킨
얼큰버섯순대국
서더리매운탕
코르타도
PLATTER
##열무국수
BUFF
Text
도라지차
튤립닭발
평일저녁or주말
비단멍게
필라델피아
GRAPE
블로썸
모스까또
스칼렛
꽃게살비빔밥
갈비본살
Jager
닭가슴
아무거나
Austral
스리라차
그뤼에르치즈무스피스
Hendrick
##깍두기볶음밥
##iramisu
자메이카통다리구이
Remy
패스트라미햄
목우촌
살사리코
Chianti
1샷
50ml
5EA
600cc
Btl
Clu
Clicquot
Dan
Fi
FOR
FRAN
Im
Kloud
Pol
Pellegrino
QU
Rh
WITH
ban
가시오
갓군
강쇠
갸또
건포도
고다
고바치
광화문
구어스
굴매생이
그라우스
급냉
깔끔
내슈빌
느어
다카
닭새우
대대포
덜맵게
도깨비
돗돔
듀벨
딤플
떡심
라산타
러스티
럭스
맛쇼킹
무안
바움
바리스타
박대
백세
백억
백명란
베어
본가
불초밥
브라타
비네
빌즈
빙탕
뿌리
사미
사우
사철
살루트
삽겹살
상어지느러미
생레몬에이드
생소갈비살
생삽겹살
소사골
수구
술안주
스탠
스테이
쌀막걸리
쑥차
아페
암퇘지
어사
없는
에다마
엽떡
영덕
완두
요과
우란산
이화
장아찌
재료
쟌슨빌
죽염
쥬도로
쫄뱅이
찌라시
참골뱅이
청량
초록
치빵
카보다
캐롤
캐스크
탱고
토네이
통구이
트윙
팥빵
팥도넛
팥인절미
퍼싸오
푸른
플렉스
피나
피낭시에
피콜로
하카타
할인세트
핫슈프림
해지람
회보쌈
후안
##루엣
##미네
##레허반반순살
##rese
##오돌
##오코
##산성
##리스트
##크라
##타스
##동파육
##르가
##소메
##블러썸
##러웨이
##수량
##수복
##채전
##채무침
##와락
##스끼
##불가
##기뇽
##백립
##세오
##어찜
##특초밥
##쌀막걸리
##1p
##시기
##나다
##밀리아
##장터
##떡복이
##추갈비
##콘샐러드
##큰새우
##iutto
##sh
##폭스
##코치니
##3p
##3마리
##굴밥
##굴국밥
##말벡
##fu
##ILY
##인원
##칠리아
##린기
##참이슬
##터스
##pen
##방어
##옻닭
##벌꿀
##밤바
##벤트
##MA
##홍로
##중량
##손수제비
##푸아
##캔디
##빽스치노
##첼로
##템플
##딱지
##헬레나
치즈를
치즈세트
치즈프라페
치즈후라이
치즈고구마
치즈가루
1인추가
세트D
##치킨마요
김치해물
김치순대국
##치즈계란말이
해물갈비찜
매운간장치킨
치킨토마토
모듬정식
모듬떡볶이
자몽에
한우모둠
아이스라떼
크림탕수육
크림카레
비빔쌀국수
비빔국시
수제등심돈까스
카라멜시럽
참치머리
초코쉐이크
소고기버섯전골
연어반
1200g
돼지간
돼지귀
돼지찌개
돼지곱창전골
삼선자장면
낙지볶음밥
낙지파전
제육백반
제육직화
500ml캔
토마토탕
전복짬뽕
광어묵은지
블루베리베이글
##시미즈
##innie
불고기백반
불고기쌈밥
모카치노
과일치즈
과일사라다
고기잡채
30AM
계절탕
카스생
카스텔라
마늘아
마늘통닭
##매운족발
##ona
그린티스무디
삼겹살찜
##오리보양탕
커피류
커피쉐이크
커피마카롱
등심까스
등심돈카츠
##돼지국밥
##돼지보쌈
##돼지왕갈비
화요토닉
16년
테라병맥주
14Y
##야채무침
해산물카레우동
갈릭마왕
문어보쌈
황태포
황태전골
철판불고기덮밥
직화막창
##che
350cc
날치알계란말이
어묵사리
##베이비
찹쌀꽈배기
일품소주
교촌레허반반순살
REX
우삼겹숙주볶음
삼선짬뽕죽
##간장구이
##된장술밥
##esar
송이죽순
##리브레
숙성특수
그릴치킨
닭고기와
예약주문
고추장육회
보리비빔밥
5인기준
케이준윙
닭발꼬치
사과잼
구운계란
구운야채
닭똥집꼬치
가리비관자
소불고기김밥
##브리앙
로즈플라워
스윗포테이토
##무스비
옥수수냉면
미트킹
현미바사삭
270ml
추어만두
커리치킨
당면사리추가
##12Y
오븐치즈
꿔바러우
할라피뇨치킨
인절미설빙
즉석밥
바삭담백
체다엣지
카츠카레
지평생막걸리
245ml
곤드레비빔밥
마약김밥
마약육회
부채살스테이크
포크세트
##콩나물찜
아마레또
100G
황제짬뽕
봄베이하이볼
식사세트
초콜렛밀크티
##소리술
##미니족
후라이즈
양송이버섯
##버팔로윙
1piece
카야치즈
캬라멜라떼
##utch
삶은달걀
중화면
놀부부대찌개
미나리전
##리시마
딥치즈베이컨
생딸기우유
##hire
CAPP
CAFFE
피망고추잡채
베르가
도루묵조림
산타헬레나
##iana
강정치킨
XO소스
산딸기마카롱
##요거생크림
사이드메뉴
##ogurt
대포잔
Pineapple
##얼그레이티
알새우카레우동
흑당버블밀크티
##갈치구이
교촌반반순살
교촌반반오리지날
고니추가
##히비스커스티
##보우샤
담백한맛
쉬폰케익
장미요거생크림
Classico
가득한
논알콜푸룻마가리타
구스아일랜드
그리고
바스크치즈케이크
##사카리
##ROWN
블랙올리브치킨
치즈맛시즈닝
네네마늘치킨
##지아노
##인절미토스트
호랑이막걸리
모리소바
키조개관자장
베르데호
##sciutto
순보리물냉면
놀부보쌈세트
1KG
포터하우스
##츠마부시
불새피자
Dalwh
평일오후
##할인셋트
클래식가토피스
양념새우장
Montes
##바사키
샤프란
지짐이
##삼치구이
페레즈
니혼사카리
고베정식
단백질
도화새우
##치즈오븐스파게티
순살마늘간장
칼라마리
##모과차
##가제면
우대갈비
##rutti
Jameson
힘찬정식
Turkey
감탄우동
병아리콩
부쉬밀
킹피셔
##티넬리
GLENFIDDICH
VALLEY
반한닭
제갈량
겐마이차
막심커피
목동피자
바베치킨
낙우새
만다린
상견례
텍스트북
게살날치알죽
Club
FRANCE
가시오가피
갓군샌
에다마메
토네이도
트윙클
숙성특수안창
바삭담백한
Dalwhinnie
26
3kg
520g
65
6줄
6pc
6PCS
79
7분
720g
BAR
Bra
Bone
Dia
Fe
Fit
Funghi
Kha
Meal
Pla
PEACH
SOU
SKY
Tor
Tem
Tiramisu
VI
orange
per
rice
tom
간단
간제미
감홍로
갑오
경양식
고반
공보기정
그랜드
꿀떡
꿀차
남부
내가
냉삼
네비
네코
느타리
닭쌀국수
데니쉬
돌초밥
듀체스
따청귤
로봇
리쉬
리버
린데
마산
마카오
무슈
무청
문득
물떡
미구엘
발디
뱀파이어
보신
보코치니
봉피
북어탕
불삼겹살
불오뎅
블론드
비비
빅토리아
빠니르
삭힌
산동
살리스
세작
소롱
숏립
술래
슈바인
스이
스프레드
신화
실중량
심플
씨리얼
아동
안매운
안맵게
알쌈
알찜
알코올
암꽃게
앙금
얼얼
영국
오소
오다리
올라
유아
잇콘
자가제면
지레
천도
청미
초이스
초계탕
최고급
캔달잭슨
컬리플라워
코케
콘차이
쿨러
큰새우
키바
키토
탄단지
토르
통팥
통등심돈까스
팟카
팥라떼
페트론
피꼬막
핑거
해바
허쉬
헨켈
혜화
홍천
화산
휴롬
흑삼
##루즈
##루스
##자케
##자반
##레제
##라클
##치탕
##마인
##마녀
##쌈닭
##만스
##만원
##산낙지
##리갈
##테카
##테리안
##도주
##도쿠리
##슈룸
##우잔
##동갈비
##로사
##로쏘
##르고
##보세트
##소곱창
##비빕밥
##러피
##포케
##어물
##두유
##하초
##조절
##조개장
##장칼국수
##장아찌
##착즙
##다다끼
##NO
##ean
##차우더
##게츠
##코미
##코라
##샤르도네
##oc
##배기밥
##발효
##ford
##항아리
##CL
##부키
##통매운탕
##통마늘
##버지
##wo
##아삭
##4인세트
##쿠마
##쿠헨
##는닭
##맛있는
##KF
##쥬얼리
##ba
##재료
##텐구
##들인
##농어
##함흥
##꿀떡
##ju
##델라
치즈갈릭
김치세트
김치부대세트
김치가츠나베
해물추가
해물수제비
해물아구
새우감자
새우미역죽
레몬드
매운양푼
치킨바베큐
모듬카츠
한우스페셜
한우야채죽
한우버섯죽
바닐라시럽
순살치
##크림생맥주
딸기치즈
수제소시지
18pcs
초코민트
양념쪽갈비
소고기잡채
연어불초밥
돼지양념
오징어와
오징어다리
##alo
오리닭가슴살
오리고추장불고기
차돌강된장비빔밥
낙지해물파전
에스프레소프라페
에스프레소앤크림
망고프라페
토마토계란
블루베리주스
허니머스타드
김치찌개전골
순대지옥국밥
얼그레이라떼
##프라운
오렌지비앙코
매콤떡볶이
매콤갈비찜
얼큰우거지
얼큰순대국밥
탕수육정식
베이컨에그
##감자찐만두
고기드신
플레티넘
두부두루치기
마늘쫑
마늘볶음밥
##순대전골
##ccio
삼겹살꼬치
삼겹살숙주볶음
플레인베이글
육회물회
레드넥타
14개
##계란후라이
쭈꾸미철판볶음
모둠수육
모둠버섯
##샤브칼국수
250ML
애플파이
메밀정식
황태떡국
황태콩나물해장국
해삼주스
더치맥주
에그베네
명란계란탕
##가지튀김
연유커피
코다리회냉면
숯불꼬치
왕새우김밥
왕새우소금구이
교촌에그
도미머리탕
우삼겹세트
##연어덮밥
플랫브레드
프리미엄피자
한방닭백숙
모짜렐라인더버거
Set4
Chil
Chandon
##ranberry
가지요리
그릴토스트
일품진로25
라임티
고추장불백
##그리지오
##참치주먹밥
21Y
소시지카레
어린이떡갈비
자연송이죽
자연송이전복죽
프로방스
##소세지김밥
닭갈비철판
##망고스무디
함박까스
Cake
오향삼겹살
양지육개장전골
오전10시
275ml
1943
봉골레파스타
PM3
##유자에이드
인절미마카롱
요거스무디
바삭튀김
활어모듬
##urry
24p
보드카토닉
##오븐돈까스
소금막창
나쵸칩
나쵸치즈
간바치
##라임스
바다가재
##점심특선
안주세트
참치회정식
솥밥정식
인삼닭죽
약간매콤
원조백
고구마치즈돈가스
특수부위모듬
우리콩
놀부세트
놀부부대세트
##ELLA
가오리무침
##IGH
아쌈밀크티
Alph
크레미
오리로스구이
두유라떼
베이크드
생오리구이
##레어치즈
750ML
훠궈용
얼큰이국밥
네이블
황금올리브속안심
특별한판
싸움덮밥
진미김밥
##코코넛라떼
##들깨칼국수
##들깨수제비
하루견과
모듬해물죽
특제소스
슈퍼슈프림피자
맵기조절
베이컨체다치즈피자
칭다오맥주
브로콜리새우죽
Lemonade
양선지
키위바나나주스
새알만두
통밀빵
##페이퍼
명인안동소주
52도
##오니기리
##타코야끼
Thai
그레인
실론티
헤즐럿
잔치쌀면
Breakfast
Chamomile
##마니샐러드
연어장덮밥
가족특선
모시조개탕
돼지김치구이
슈퍼콤비네이션피자
Golden
트리플초콜릿무스케이크피스
활우럭탕
season
Syrah
1837블랙티
흑당달고나라떼
버블흑당콜드브루
대마전복
후렌치후라이
돼지머리고기
르뱅쿠키
BREAKF
topping
열라매워
##cchiato
츠케멘
NON커피프라페노
두반장
춘천식닭구이
만들어먹는
스티븐
가르나차
로인햄
피크닉
시바스리갈
##꽈리닭
##TELLA
Banana
부위별
용호전골
에스트렐라
우아한
##블랙빈소스
유키노보우샤
Moscato
카보다로카
봉피양
오리닭가슴살떡갈비
교촌에그마니샐러드
BREAKFAST
3반
3잔
340ml
5세
6inch
7번
8시까지
90
9pcs
BAN
Bro
BALL
CRI
Dutch
En
GO
Kim
LIM
Oc
PAR
Pes
PAT
SL
SGP
SWE
TERRA
by
double
drip
high
ma
pieces
가족세트
견과
굴밥
글루
금정
금태
김떡
깜닭
꾸이
꾸웨이
꿀커피
꿀마늘치킨
나나
남산
다릿살
닭산적
담근
대표
덕혼
도너츠
동과
따자몽
떡튀
라제비
로띠
말랑
목포
몰리
무쇠
민족
밥포함
베이스
베르트
벨라
보드
불목살
불닭갈비
비오니에
빠리치킨
뽈탕
사바
생라면
샬롯
소뼈
스패
시메이
식전
신메뉴
쌍쌍
쑥갓
아프리
알자스
암돼지
양대창
얹은
에피
엽오
오겹
오로시
오돼지볶음
오페라
왕교자
원기
율마
은하
이천
이꾸라
조식
차쭈
찰떡
찹살
치플레
카브루
콜렉션
콩물
키슈
파우치
패스츄리
펜넬
퓨전
프린
한되
허벅
헤븐
호타테
흑산도
히츠마부시
##가타
##레아
##마구
##반초밥
##오미
##정과
##브뤼
##브랜드
##베나
##프릭
##2g
##2샷
##27
##수염차
##AF
##스치킨
##무뼈
##불짬뽕
##세상
##플로
##위에
##1kg
##해초
##안코
##안띠
##나초
##나잇
##모반
##ga
##까츠
##갈탕
##갈낙탕
##Pcs
##cino
##SCH
##men
##게탕
##게더
##ny
##구육
##부꾸미
##tea
##통치킨
##버번
##랜트
##꽃게장
##뼈구이
##아마
##디시
##왕구이
##감베
##호퍼
##멜랑
##릉지
##른자
##BON
##Box
##슬러쉬
##들의
##FRUIT
##넬로
##처음
##젓갈
##뿌링클
##온반
##광어회
##콰트로
##닙스
##고기국수
치즈스테이크
치즈감자전
치즈치밥
1인닭볶음탕
##OTH
##구이삼겹
김치부대찌개
해물탕면
해물빈대떡
해물잡채밥
##만두탕
레몬기
매운탕수육
매운까르보나라
1인분추가
치킨볶음밥
치킨가츠
치킨소시지
한우주물럭
한우설렁탕
순살한마리
순살뿌링클
볶음공기
수제고로케
1000
감자국
감자뇨끼
참치등살
초코릿
양념불고기
양념순살치킨
소고기안심
##스트립
오징어김밥
샐러드피자
삼선누룽지
볶음밥추가
고추밥
고추건두부
피자돈까스
낙지탕
고구마골드
유자아메리카노
##las
전복인삼
녹차라뗴
페퍼먼트
과일안주
버섯샐러드
버섯육개장
매콤크림
화이트블링치킨
고기준
두부비빔밥
30개
복분자차
매운맛3
제주식
제주목살
허브탕수육
오뎅국수
하이디
더블우드
로제크림
민트라떼
반반튀김
부대라면
육회초밥
복숭아티
클라우드생맥주
##전복삼계탕
마라소고기
해산물세트
곱창모듬
사천해물
모둠해물
모둠소세지
갈릭맛
갈릭스프레드
육개장전골
카레소스
단품메뉴
문어연포탕
황태채
흑당커피
철판해물
철판모듬
쉬림프로제
마파덮밥
파인샤베트
옛날왕돈까스
##ough
숯불돼지갈비
##목살구이
RESER
코코넛밀크
##간장게장
##된장전골
소스류
소스를
소스가츠동
파인애플주스
가지카레우동
가지크림카레파스타
##del
여름철
닭고기쌀국수
##딸기레어치즈
콩나물뼈찜
예약메뉴
돼지고기묵은지
##amon
##isker
##ash
깐쇼새우정식
홍합찜
홍합미역죽
##소고기김밥
구운연어
##쇠고기볶음
21cm
어린이세트
어린이김밥
##버블밀크티
소불고기비빔밥
로스구이
로스편채
##솥밥정식
히레정종
##rug
시나몬슈가
22알
Caesar
똥집후라이드
골뱅이무침과
미트러버
매생이전
한정수량
명품세트
##book
##모둠튀김
와규초밥
믹스동
석류에이드
##ENN
Sale
땡초추가
##훈제오리
우롱밀크티
중간놈
중간매워
타로바른
부산밀면
##플레터
##플레이크
스시코스
28알
통새우김밥
##eep
민물장어덮밥
##로네제
궁중떡볶이
제철생선
라구파스타
황제살
당근케익
##low
떠먹는딸기레어치즈
하절기메뉴
드라이버
중화냉면
한우불고기정식
미나리추가
검은깨
##노베제
##으로변경
참소라찜
##머스캣
CAKE
피망김밥
간바레오토상
캐러멜마끼아또
설중매스파클링
##구리다리
##que
따뜻한차
비스코
죠리퐁라떼
곤이찜
##에이션
##먹태구이
코스타리카따
팝콘치킨
모듬해물된장죽
아드백
##아보카도샐러드
게장추가
돌문어숙회
백향과에이드
238mlX
Peck
삼선고추짬뽕밥
페스츄리피자
머스켓
마끼아토
보쌈김치추가
아그와밤
명태회막국수
불사윙
##130g
카시스오렌지
조갈찜A
조갈찜C
조갈찜B
페파로니피자
바스켓
코코넛커피스무디
##페퍼로니피자
고고제육덮밥
핫칠리치킨
##활어세트
순보리비빔냉면
쿠보다센쥬
스크린피자
제이앤비
##그릴드치즈파니니
알룰로스텐더
뜨끈탕면
Guin
온센타마고
차이티라떼
교촌신화오리지날
##azz
카라멜마끼야토
배도라지차
부침개
##중하새우
##부라소바
흑당달고나커피
공심채볶음
버블흑당라떼
##IGNON
강황떡
아삭아삭
진국정식
조리장
미더덕찜
작설차
##커플세트
마주앙
지중해식
오후1시
극한왕갈비치킨
Talisker
간소중새우
야관문주
대관령
##배꼽살
한우양념불고기
FREN
##GRINO
Absolut
Sapphire
FAMILY
해담채
##즈노고
간빠레오또상
굴라쉬
##omodoro
BOWL
소백산
천마오리보양탕
캐리비안
해시브라운
Textbook
Australia
살사리코버거
다카시미즈
사철탕
##장터국밥
tomato
에그베네딕트
Alpha
SWEET
베르트랑
쌍쌍치즈
율마치노
1b
1월
1번
1set
1스쿱
1shot
8PCS
BA
Bul
CAS
Don
DEC
DRAFT
Esp
FRES
FLAT
GINGER
GLS
Jazz
LO
MUS
Oban
POT
Rye
Two
VEG
WEE
Zu
beef
il
mo
가모
개매운
건어물
경장
경양
구미
구민
금강
긴자
깊은
꿀벌
꿍팟퐁커리
노호
뉴란산
다루
달구
닭내장탕
담양
담양식
대게장
덕산
동충
드라
드리
따끈
땡모반
뚜스
러시아
루피노
마즙
마인
말린
맘모스
맷돌
미르
발몽
벌떡
베러
병천
보냉
복칼국수
봉커리
불고추
브룻
브레이즈드
비에이
비조리
사퀴테리
사사미
산페
삼식이
상아
상해식
생관자
서해
성수
솔잎
송추갈비
수초면
쉐어
슈페
시레기
시칠리아
신사
써프라이드
알감자
알프레도
압력
애기
야사이
양아들
어메이
오션
온메밀
옻닭백숙
왕족
왕노가리
우삼
육류
있는
장인
저크
저세상
죠센
지아
진달
진수
짱뚱
쭈글이
참숯불
천하
천겹살
츠쿠네
치돈
치맛살
카쿠
카타르
커즈
코이
콘버터
키노
키모토
테바사키
텐푸라
통찜
통만두
파우더
팝핑
팥옹심이
펠롱
플라우
플랜디드
피터
핫파이어
해내
해우리
횡성
후루
후카
흑산
흑생맥주
흰밥
##루나
##미스
##튀각
##카베르네
##라쥬
##마마
##res
##rom
##aw
##오크
##막스
##리야니
##크랜베리
##타루
##타래
##도련
##우메
##서비스
##비타
##고루
##수박
##스띠
##무한
##포니
##기니
##생오겹살
##시칸
##국떡
##돈코츠
##떡만둣국
##떡닭세트
##유린기
##ORI
##DA
##GH
##신관
##메랄
##lis
##초계
##oice
##oibos
##day
##배전
##원한
##쭈삼
##순댓국
##요이
##피칸
##류주
##터링
##키니
##키키
##ura
##47
##4ml
##호마레
##담금
##성찬
##곤드레
##숭이
##BA
##bu
##홍삼
##촌피자
##맘마
##몰리
##쌍화
##푸틴
##온스
##년산
##탁주
##흙구이
##번데기
##팽이버섯
##납작
치즈알
치즈돈
치즈설빙
치즈가츠동
치즈야채곱창
카페수아
세트10
김치만두국
김치고등어조림
##치즈밥
해물2배
새우후라이
새우감바스
매운쟁반짜장
치킨카츠
치킨치즈죽
한우라면
한우미역죽
한우버섯불고기
크림리조또
크림카라멜
##크림커피
계란을
수제밀크티
수제초코렛
10대
밀크초콜릿
초코범벅
양념순살
소고기수육
소고기등심
소고기직화
연어아부리
##스트리
고추간짜장
고구마롤
베이징
블루베리레몬
그린빈
깐풍똥집
스테이크와
##짜장떡볶이
허니브래드
간장뼈찜
과일도시락
만두리아
얼큰국밥
얼큰김치죽
##ange
##ante
짬뽕나베
베이컨볶음밥
베이컨김치볶음밥
두부튀김
30부터
점심세트
##곱창구이
##보쌈구이
그린티초코
##cca
##테이블
보쌈추가
오뎅라면
##오리주물럭
칠리탕
##해물순두부
##해물조개찜
더블초코라떼
스페셜A
##모듬찜
##돼지김치
클라우디
화요세트
##마요동
13p
13CM
마라칸치킨
쭈꾸미추가
제육볶음정식
기본카레
생선찜
카레밥
문어삼합
애플베리
홍어추가
철판두부
철판명란
트러플향
라조우육
직화족발
직화스테이크
쟁반자장
묵은지고등어
굽네볼케이노
명란크림파스타
명란아보카도
##가지덮밥
옛날빙수
어묵꼬치
단호박샐러드
교촌궁중
버터프레첼
도미탕
도미사시미
##고추튀김
##INA
아보카도바나나
소스와
set3
파인애플쥬스
열무냉국수
한방토종닭백숙
내장순대국
가지하야시라이스
스트로베리피치
예약상품
돼지고기숙주볶음
##ils
오돌뼈와
디카페인변경
된장국수
##ozz
하우스샐러드
떡갈비스테이크
진저티
진저레몬티
무뼈매운닭발
사과유자차
바질토마토
구운버섯
베리믹스
##화이트치킨
주말공휴일
6개입
생크림추가
생크림와플
돈가스오므라이스
물회정식
오레오프라페
아이올리
옥수수스프
포도주스
한돈삼겹살
한돈명품
타코와사비군함
##부추무침
와규등심
19CM
메로탕
할라피뇨통살버거
즉석우동
수제청귤
우니한판
아주매운
불닭치킨
Coc
멸치고추김밥
멸치견과류김밥
향라육사
크리미라떼
##메기매운탕
24CM
마약커피
마약옥수수
꼬마만두
대하튀김
통오징어짬뽕탕
곁들여
홍소샥스핀
호박식혜
바다치즈죽
##직화족발
Rosso
해물볶음짜장
애플망고치즈
45도
허니버터갈릭스
찌개류
오리훈제구이
##오미자에이드
선택시
##AMON
하쿠슈
건강차
순살파닭치킨
줄돔세꼬시
슈프림양념치킨
Alc
##iche
##이치방
텐더로인
##슈가플럼
##광어초밥
양푼이비빔밥
스페니쉬라떼
청경채볶음
SPARK
##라구파스타
사이공라떼
야마모토
추천세트
춘천막국수
춘천물막국수
북촌만둣국
웨딩쇼마이
노주단
드레싱추가
##paccio
##부르쪼
크렌베리쥬스
##ronach
굴비구이
굴비정식
##어니언치킨
모짜치즈
##안티구아
호유채심
한라토닉세트
쫄깃한
쫄깃감자찐만두
속풀이짬뽕
##스팸김밥
닭모래집볶음
파마산치즈
Santa
##라조기
##에비동
크라상
##석쇠불고기
##지짐이
알찬세트
황궁쟁반
가쓰오우동
특상한우
김치참치볶음밥
호로요이
##EGA
Soft
소이갈릭반
빠가사리매운탕
산해진미해물조개찜
몽골리안비프
찰밥추가
##나가사키
##리마사무네
오비라거
증류소주
BASE
seafood
새끼만두
송어튀김
데미그라스
곰치탕
머드쉐이크
피카로
간장마늘통닭
대통주
가이바시라
미꾸라지튀김
초코브라우니설빙
땡초불강정
오지치즈후라이
##나가사끼짬뽕
호르몬동
버섯들깨죽
말렌카케이크
DOCG
골목막걸리
##ELLEGRINO
몬탈치노
보데가스
##lette
가마골갈비
Super
fried
green
히카리마사무네
610ml
##시카고피자
돈꼬츠라멘
제라르
cup
##페페로니
이이찌
해물섞어찜
자몽허니블랙티
##크리스토
마쯔리텐구
베린저
스마트
유산균
치요무스비
피단두부
##UCCINO
Cotes
무사시노
양조장
##urrata
Rhone
바움쿠헨
수구레
아페롤
##오코노미야끼
린데만스
소롱포
키슈호마레
전복인삼닭죽
돼지고기묵은지찌개
238mlX12캔
Guinness
##즈노고토시
Zuppa
가모츠루
동충하초
해내탕
##도련님
교촌궁중닭갈비볶음밥
SPARKLING
02
1회
1통
2K
2번
3번
6구
630ml
99
AG
Age
Aset
BAL
Cat
Crem
Cello
DAY
ET
Gi
Gai
Har
Ham
Hom
Ir
MEA
Mol
MOR
Or
OM
OIL
One
OLI
Olio
Ron
Soup
TEN
Taval
Vine
Win
WAL
apple
sc
감잎차
건조
고택
골동
골고루
공룡
광우
그르
그라운드
금화
금계찜닭
기아
길거리
꽃갈비
꿀밤라떼
꿈을
날다닭
남해
다락
다시
단즈
달고마
닭찜
더식당
데드
데코
돌냄비
돗쿠리
동남
떡튀김
락사
랜덤
롱김말이
마사
마누
마성
마넨
맥치킨
맵달
머슈룸
메스
멜란자
모다
무우
미도
미시
바라
바르베
반근
반되
밤이야
브룩
비리야니
빠빠
뼈한마리
사발
삼해
삼다
삼삼
상시
선데이
소테
쇼비
슈프리모
스쿼시
심변
쌀면
써머
쏸라
아크
아야
아시안
안매움
알타
알떡
알사리
알주먹밥
알고니
야들
양옥
어썸
여심
열대
예멘
오뜨
옻나무
왕양념갈비
울프
웃음
윙스
인생막걸리
잘생
장뇌
정육
정관
제리
제노베제
조쉬
쥬라기
지파이
쯔쿠네
차파이
참외
치즐
치쿠와
카파
퀘소
탠저린
테판
토우
파케
파파닭
파푸아
팥추가
포테
포인트
폭찹
폴레로
피타
피처
한강
한끼
해선
햄김밥
##가오리
##미나
##카리
##라드
##이치킨
##치쌈
##마더
##마약
##ake
##yard
##개성
##반미
##오차
##오므
##리데이
##크루아상
##브라
##브랙퍼스트
##즈니스
##우엉
##보시
##보신
##보아
##꾸온
##소배필
##바도
##바로
##블레
##고량
##주류
##2탄
##2시까지
##스텍
##지는
##불보쌈
##포터
##세라
##파주
##파운
##쌀밥
##생딸기
##건강
##그래
##냉콩국수
##유황
##유식
##DER
##양배추
##ey
##니즈
##mus
##콕콕
##코이
##배양근
##발라야
##녹는닭
##경산
##꽃목살
##웨이트
##병어
##참꼬막
##대기
##키아
##래빗
##prow
##uf
##벨보
##쿠죠
##칼만두
##감튀
##호우잔
##낙새
##성게
##성특밥
##벼밥
##VEE
##탈레
##쥬르
##클라스
##ki
##BE
##손님
##맘대로
##실론
##꼴뚜기
##팅비
##옥돔
##쿨러
##슐랭
##엇국
##벵이
##톨텐
##증류주
##랍스터
##및공휴일
치즈돼지
치즈제육
치즈부대세트
1인부대찌개
##이스티
##갈비천왕
세트족발보쌈
김치카츠
김치뚝배기
김치오뎅탕
##치즈돈가스
해물간짜장
##새우구이
새우카레덮밥
매운찜
매운새우
매운돼지갈비
매운해산물
매운오돌뼈
##arc
치킨랩
치킨덮밥
모듬조개
자몽라떼
한우투
한우버섯
한우치마살
한우뚝배기불고기
##ced
추가반마리
비빔우동
비빔칼국수
##크림팥빵
딸기청
딸기밀크티
딸기와플
딸기버블라떼
계란김밥
계란프라이
수제소스
수제요거트
수제함박
##김치국수
10구
105
감자술
참치스페셜
참치와사비김밥
초코밀크티
양념소
양념주물럭
##프레스
소고기숙주볶음
연어세트
12ea
돼지구이
블랙슈가
블랙커런트
피자M
낙지철판볶음
제육보쌈
유자주
##gel
전복치
전복해물탕
녹차스무디
불고기반
간장윙봉
요거트생크림
##ers
##마일드
버섯전
00부터
콜드브루바닐라
매콤제육
만두육개장
얼큰육개장
정식메뉴
베이컨크림
고기농장
30cm
복분자와인
11AM
점심뷔페
##삼겹덮밥
생맥주2000cc
##순대해장라면
##순대곱창볶음
제주녹차
##오리탕
하이포크
##해물떡볶이
##해물요리
스페셜B
청포도스무디
동태알탕
민트쵸코
##돼지껍데기
반반막국수
부대떡볶이
복숭아맛
복숭아요거트
클라우드맥주
##마요밥
새우튀김롤
새우튀김정식
13pcs
평일11시
##리오크
모둠꼬치
모둠어묵우동
뚝배기우동
뚝배기꼬막비빔밥
문어추가
문어라면
산낙지데침
철판오징어
##orough
포테이토베이컨
##ition
비프세트
루이보스레몬
명란계란찜
진로소주
국물라볶이
국물통닭발
3개입
세트메뉴14
찹쌀도넛
크로칸
왕새우초밥
교촌퐁듀
교촌고르곤
목살구이
도미초밥
##수제오뎅탕
코코넛젤리
##마늘소스
우유팥빙수
##icotta
##순살닭강정
생강티
생강레몬차
꽃게랑
바지락순두부
Chai
글렌파
런치스페셜
능이갈비탕
싱글세트
##디아스
조개술찜
삼겹수육
삼겹김치찜
냉모밀국수
##iew
달콤바삭
홍합짬뽕밥
클래식초코
베리바
어린이음료
어린이설렁탕
자연송이소고기
##ATER
소불고기정식
소불고기김치덮밥
도토리무침
함박카레
##tew
가라아게마요동
히레소주
##rup
스파이시치킨피자
아몬드브리즈
해물순두부전골
아이리시
양지곰탕
한돈목살
에비텐동
에비덴뿌라
11시30
핫치킨골드피자
포장용
##50cc
##ppier
땡초갈릭
모듬전식
Cos
블랙티라떼
이과주
이과두
소라사합
부산피자
부산어묵탕
스위트칠리
스위트골드피자
세꼬시물회
소금똥집
섞어떡
더블치즈떡볶이
##불백피자
곁들임
웨지포테이토
핑크레몬
뉴욕스트립
##콩나물짬뽕
##돈카츠통핑
혼마구로초밥
##떡갈비정식
몬테크리스토
자두주스
모짜렐라치즈찜닭
안주물회
콘치즈피자
쿠앤크프라페
Str
Rooibos
코로나리타
백반정식
##청귤티
차돌된장전골
Americ
하얀짬뽕밥
카야잼
홍시스무디
##OMB
대만죽엽청주
##nejo
##더블치즈
참복수육
꼼장어볶음
##OLO
385ml
카카오닙스
통마늘똥집
##고추장찜닭
##카라멜라떼
북경탕수육
가정식냉채
정종대포
DoubleX2
부르스케타
##ISH
산채정식
기린이치방
##핫치킨피자
Mono
누들떡볶이
스트롱
비스마르
산오징어회
석쇠구이
인디안
곤이추가
로투스라떼
로투스쉐이크
벌교참꼬막
도우선택
참치김치컵밥
통우럭구이
마왕보쌈구이
허니갈릭스
허니갈릭치킨
얼큰해물짬뽕탕
##미트볼
빠가매운탕
해초고등어
항정껍데기
청어구이
##김말이튀김
##흑당버블밀크
cass
##녹두삼계탕
모래집볶음
인디카IPA
샤케라토
수퍼디럭스
쿠바리브레
파파드
후토마키
간풍새우
상큼한
##라조육
플로트
어린잎녹차
오야코
어니언치즈뿌치
Drappier
민물새우탕
우드박스
Quar
##ablis
메인즈
핫스파이스치킨
대박막걸리
두가지초밥
헤페바이스
뵈브클리코
CONE
Kaprow
Lob
블루베리치즈설빙
크리스탈
크리스마스
뜨끈우동정식
김가루밥
Caprese
모로칸민트
어깨피자
660ml
경성꽈배기
굽네반반B
레페브라운
##싱글오리진
자장밥
Prime
독일식
##가라아케
제주한라봉차
India
땡초불꽃
CUVEE
##bbi
시로미
블랙펄버블티
Lasanta
쏘가리매운탕
와이키키
버섯매운탕칼국수
기름떡볶이
마녀의
젠틀맨
##보통맛
도원결
엘레베
##카르파
##비에소
쉐이큰
양송이스프
##자바칩
세이로무시
로아커
신세개
특생선초밥
뽀삐아
리큐르
스베드카
##파르페
치즈스노우퀸
스프리츠
세블락소시지
파블로바
BUFFET
GRAPEFRUIT
Daniel
banco
팥인절미설빙
돼지간볶음
커리치킨죽
CAPPUCCINO
베르가못
Khao
천도복숭아
혜화동
##쿠마사무네
금정산성
뜨끈탕면정식
FRENCH
FRESH
노호홍
카타르시스
커즈마인
그린티초코설빙
한돈명품구이
애플망고치즈설빙
Tavalon
꿈을피자
단즈카
멜란자네
잘생긴
정관장
교촌퐁듀치즈볼
교촌고르곤치즈볼
비스마르크
1셋트
1Shot
2종
2병
2가지맛
51
5꼬치
5PCS
6y
64
6가지
75
78
Bol
BRI
Cr
Cast
Corkage
EV
EARL
FRUIT
HO
Lamb
LONG
Mix
Non
PET
PELLEGRINO
Ragu
ROTH
Sur
Sang
Wan
WATER
Yam
grig
in
kg
pro
risotto
가미
가슴
가재미
간치아
갈낙전골
게딱지
고구
광양불고기
구절
굴2배
까지
꾸덕
낙원
내츄럴
냉쌀국수
네팔
닭볶이
더화이트치킨
돌게장
돌냄비우동
동동
등골
등뼈
디마레
따유자
레제르바
렌틸
로우
로쉐
로스터
롤케익
롱그독
마롱
마론
마라면
마무리
맵닭
맵신
머그
머쉬
메달
명랑
모르
목삼겹
무진
무기
묵은
미경산
바칼
박속
반세오
백두
벼락
보족
볶짜
불뚝배기
브랑
브릿
브레이크
블로우
빠스
뼈전골
뿌팟
산테로
소왕
소꼬리
소프라니
쇼콜라떼
순사골국
숨두부
슈토
식스
신불
애기밥
어반
얼린
에디
엘본
열탄불고기
영계
오화
온반
온라인
우지
유메
이가
일일
자유
작살
잔파
전설
죽력
진심
진대
짜이
쪼꼬
쪽파
쭈삼겹
차오
차지
참맛
참기름
찹찹
초카이산
치치
칠러
카키
칼리
캔콜라
케찹
코우
쿠웨이트
쿵파오
클리어
타래
탕짜
토로
토스카
톰얌
통노가리
특모둠초밥
파베
팍붕
퍼지
퍼니르
푸타
피베리
한양
한통
햄스페셜
호롱
홀케이크
황비
후쿠
후레시
히어로
##미까
##카프레제
##카카오
##레소
##트리플
##라벤
##이네
##affle
##찌오네
##만주
##리움
##브룩
##프터
##소프트
##소르베
##바가지
##쇼룽샤
##러리
##러너
##고인
##빙어
##수리
##음밥
##와규
##스피
##볼로
##필드
##설라
##등뼈
##백세주
##야베스
##씨네
##1탄
##노츠
##하얀
##안상
##나이트
##모음
##토레
##검은
##콩불
##육단
##앙버터
##콘버터
##큰놈
##다이브
##다쿠아즈
##ior
##탄바
##네이트
##네스카
##메를로
##일레
##3탄
##30g
##구니
##발란
##발사믹
##HN
##부각
##ton
##51
##5cc
##머틀
##꽃갈비살
##대리
##터드
##아치
##pos
##4탄
##4시까지
##왕족
##단콩
##클라우드
##따로
##따로국밥
##올라
##함바그
##솔로
##앤치노
##잉글
##잉어
##첼라
##삽겹
치즈불
치즈샌드위치
치즈국물떡볶이
카페사이공
##이크림
##치킨편
##치킨세트
김치참치김밥
##치즈볶음밥
해물샤브샤브
소주참이슬
소주처음
새우를
새우샐러드
새우탕면
새우관자
새우2배
새우크림파스타
아메리카노2잔
레몬꿀차
매운냉면
매운쪽갈비
치킨링
치킨볶이
치킨탕수육
치킨로제
한우부속
##베리에이드
크림와플
크림더치
순살바베큐
순살불닭
비빔밀면
딸기듬뿍
볶음쌀국수
수제레몬티
수제왕만두
수제자몽에이드
##김치탕
##김치김밥
##비빔쌀국수
초코볼
양념감자튀김
소고기카레
소고기무한리필
연어추가
돼지주물럭
오징어김치전
샐러드바
샐러드와
삼선굴짬뽕
오리능이백숙
낙지전
낙지사리
낙지소면
낙지해물탕
낙지돌솥비빔밥
제육두루치기
##lach
전복볶음
스테이크샐러드
##ina
##ETTI
불고기버섯전골
간장찜닭
과일맛
과일요거트
오렌지차
매콤맛
매콤갈비
매콤강정
매콤간장
매콤닭강정
얼큰짬뽕
얼큰수육국밥
짬뽕순대국
화이트에일
정식A
정식B
베이컨할라피뇨
고기빈대떡
30년
생맥주3000cc
돈까스김치나베
##onut
##과일샐러드
커피포함
플레인스무디
더블레귤러
로제쉬림프
청포도레몬
미니국수
반반닭발
##전복탕
##레몬그라스
17곡라떼
제육볶음비빔밥
사천볶음밥
모둠포
골뱅이사리
카레동
카레맛
문어찜
문어무침
황태북어국
철판순대볶음
트러플감자튀김
매화주
족발추가
족발반반
##ory
333
굽네갈비천왕
대구노가리
안심과
리얼그린티
##레드콤보편
날치알추가
키위에이드
옛날우동
찹쌀떡
게살삭스핀
목살소금구이
준마이팩
##수제돈까스
코코넛쉬림프
##ULT
스팸주먹밥
낙지볶음과
열무비빔냉면
Choco
Chile
Child
Chablis
순대국정식
돼지고기김치찜
카모마일티
싱글킹
싱글레귤러
까르보나라떡볶이
오돌뼈세트
진저하이볼
COC
COOL
홍합짬뽕탕
티라미수설빙
베리딸기
##쿠키스무디
어향우육
##차돌된장찌개
특선냉채
고등어구이정식
로스가스
로스티드
##망고에이드
##ASH
패션후르츠티
오레오빙수
아몬드캬라멜
##우럭매운탕
Cava
하프갤
옥수수동동주
옥수수수염차
미트스파게티
##CHO
올리브오일
##관자볶음
이베리코목살
##12p
PM5
오븐감자
꼬치우동
우니꼬
##러스크
바삭클
LAB
LA양념갈비
##허니콤보편
##lant
삼치회
이과도주
루꼴라피자
흑돼지삼겹살
커플팩
##한상차림
핑크피치
##불닭소스구이
간바래
뉴욕오리진
##2018
눈꽃치즈떡볶이
Stout
카프리썬
##직화족발세트
숙주나물
전주콩나물국밥
##ARDEN
브뤼셀
##미니밥
김치우동정식
1PC
고급갈비
버팔로윙봉
떠먹는스트로베리
마리당
중화식
가오리날개
##OLI
나초치즈
누텔라와플
##얼큰탕
Tofu
다이긴조
숯불고기덮밥
##명란구이
아르헨
카이켄
베이크치킨
제주청귤티
##꼬마한줄
부르기뇽
##tois
새우장초밥
매운양념족발
시카고딥
니트로커피
또띠아피자
Moon
##15개
등갈비김치찜
##지오네
##바지락칼국수
##깐풍치킨
Salmon
듬뿍야채
##ianco
쇼킹핫양념치킨
Pak
죠리퐁쉐이크
##토종닭
특별한
##EMADE
벌교꼬막비빔밥
레이티드
팝콘볼
보리밥정식
산삼배양근
전어회무침
대왕새우튀김
누드순대
쭈삼불고기
얼큰해물라면
감귤에
서대구이
##콤비네이션피자
실속세트
게장정식
##누들떡볶이
포트와인
불타는짬뽕
불타는짜장
육수추가
레게노레드콤보편
레게노허니콤보편
가이서
180G
보스턴
##베네쇼비뇽
##숙주덮밥
비지장
그리지오
##탄탄멘
##탄탄나베
각종사리
토리텐
검은콩라떼
공주밤
58도
Adult
32oz
Blueberry
카니버
한우소머리곰탕
레게노치킨2탄
레게노치킨1탄
레게노치킨3탄
레게노치킨4탄
뼈닭한마리
슈가플럼
##파운드케익
우르켈
##ugar
뽀로로음료
Vegetable
##ordon
도리가라아게
두툼한
매운미니족
Peppermint
후추치킨
로열밀크티
템프라니오
초당순두부
하이랜드파크
2000CC
바이스비어
프란시스
##azel
찜햇닭윙
영광보리굴비
Tequ
롱아일랜드아이스티
아임파인
특수모듬
리얼초콜릿라떼
곰치국
##리치킨편
굽네반반A
Hands
쿠스미티
피카츄
패션프루츠
호유우육편
고흥유자주
발레벨보
##ooker
쭈꾸미삼겹철판
스크류드라이버
Duck
바디3
붓카케우동
종로김밥
fresh
아지매국밥
조랭이떡
해신볶음밥
sauce
진도홍주
JOHN
킬리빙빙
소고기무국
스트로베리초콜릿생크림케이크
코돈부르
우도땅콩막걸리
산토리가쿠빈
리스트레토
키마카레
Biste
요세나베
꽉찬꼬마김밥
코노수르
해독주스
부타야끼동
HOMEMADE
복껍질무침
싹쓰리치킨편
에소프레소
##마이다이긴조
버라이어티
선운산복분자
꽃송이탕수육
마쉬멜로우
세발낙지
애간장녹는닭
##스게타
##시저샐러드
모둠어묵탕면
트윙클치킨편
SOUP
LIME
highball
##SCHILD
1bottle
진달래
진수성찬
Irish
WALKER
기아해삼
American
Quarter
ROTHSCHILD
죽력고
푸타네스카
황비홍
##라벤더
리얼그린티설빙
떠먹는스트로베리초콜릿
1SET
1BOX
2셋트
2SET
2스쿱
3일
3세트
3셋트
3SET
3PCS
57
8미
8pc
8꼬치
A정식
BI
Blan
Bianco
CS
Clo
DU
Deg
DAI
Fish
GI
HE
Iber
Jul
Jasm
Krug
Les
Mel
Pi
RU
SAND
Sec
Squ
Sandwich
TAR
Van
Yogurt
cloud
lemon
sum
가정
가또
갓마더
거제
고루
고양
고소리술
골벵이
과즙
과콰
광개
구구
구움
근위
금액
꼬또
꽃빙수
꿀샘
꿀아메리카노
꿀대추차
난자
냉커피
냉쫄면
노른자
달인세트
닭반마리
대4인
더백
덕자
덕장
둘이서
딥핑
딥모카
랑게
래빗
로라
로티
롤치즈
롱고
롱보드
링거
마틴
맛있
맛보쌈
망원
머시
멀티
멀롯
메쉬
몬다비
무가
무항
무똥
미미
바밤바
반쎄
발비
별난
볏짚
봉투
부스트
부야베스
분홍
불냉면
붐베이
브랜
비안코
비즈니스
빨미까
뺑오
뿌리고
삼채
새치
생만두
생모짜렐라
샤슬
샬루트
성공
소유
소호
소2인
소안창살
소심줄
송아지
순하게
숭어회
슈비
슬림
실루엣
쌀똑
쏘야
아가
아일
알배기
양미리
어항
언더
연경
열빙어
오또
오름
오굿
왕자
왕순대
용궁
유러피
이시
잠발라야
잣죽
장떡
장국밥
장인세트
재첩
점퍼
젤큰놈
증3인
지마구
진갈비
진하게
짜빠
쭈구미
찜갈비
참이
첼바
충남
카발란
캘러웨이
캠핑
쿠스
크램
큰것
키스
타임
태권
탱글
통태
통전복
통간장새우
특품냉채
티아라
파미
파블랑
팥골드
페코
포차
풀드
품격
플루
플러
하오
하몬
하츠
햄추가
허파
활문어
효자
##가르
##가람
##미로
##치즐
##마음
##마시
##개구리다리
##만15개
##오골
##리완
##크러시
##타로
##타야
##타구아
##타꼬야끼
##황과
##우민
##로기
##프룻
##꾸닭
##비냉면
##고명
##고집
##와프
##화산
##포르
##포그
##설기
##백이
##파파
##어다
##두라
##새주
##생채
##생제
##하도
##밥세트
##시티
##나카
##나스
##냉짬뽕
##냉소바
##모가리
##콩팥
##까바
##떡찜
##Only
##양밥
##Glass
##sco
##네우동
##초에이드
##34
##심장
##davi
##nier
##청국장찌개
##ILE
##IRA
##9시
##체레
##통밀
##꽃돈
##꽃피자
##빈라떼
##쑥라떼
##대문
##키리
##켄터키
##아쌈
##pus
##RLOIN
##너리
##커틀렛
##상맛
##상어지느러미
##쿠치나
##연탄
##방울
##쫄깃
##성포
##센동
##멘치
##엔젤
##데스
##띠오
##룽바오
##엑스트라
##활어회
##슐리
##져브
##큘라
##챗살
##고기튀김
치즈가
치즈밥
치즈새우
치즈샐러드
치즈스파게티
치즈바게트
1인가격
카페바닐라
##치킨가라아게
김치국밥
##치즈추가
라떼음료
##튀김세트
해물사천
##새우초밥
새우피자
레몬딸기
레몬머틀
##덮밥정식
매운쭈꾸미
매운닭갈비
매운돈가스
매운닭강정
매운육수
매운멸치김밥
맥주테라
##aro
치킨새우튀김
치킨마크니
모듬세꼬시
모듬스시
한우염통
한우우거지탕
##두부찜
##두부구이
순살블랙
순살바삭
순살뿌치
비빔공기
딸기맛
수제생
수제왕
수제레몬에이드
수제식혜
수제피클
##les
##김치컵밥
세트메뉴C
밀크빙수
콜라다
참치모듬
참치오므라이스
초코우유
양념추가
양념바베큐치킨
소고기스테이크
돼지곱창
돼지보쌈
돼지부속
오징어부추전
오징어직화
삼선간자장
##레이슈
##레이션
갈비조림
차돌구이
차돌초밥
망고스틴
야채쌀국수
야채계란말이
전복탕
깐풍동구
허니레몬차
순대와
얼그레이리저브
간장반
간장양념치킨
##ert
매콤제육덮밥
매콤시래기
얼큰곰탕
얼큰만둣국
##anic
짬뽕우동
##카레돈까스
탕수육셋트
고기찐만두
두부탕
두부면
두부스테이크
계절요리
11도
##ssion
##삼겹쌈밥
돈까스냉모밀
냉면세트
제주맥주
제주그린밀크티
삼겹살사리
초콜릿밀크
150
오뎅전골
커피세트
칠리핫도그
더블바베큐피자
##닭발세트
##버섯탕
##버섯구이
스페셜코스
바나나와플
미니돈까스
미니카레
육회덮밥
육회탕탕이
사리류
참이슬클래식
##마요김밥
14인치
캐모마일메들리
우럭통매운탕
##야채순대
175g
쭈꾸미만두
쭈꾸미닭갈비
기본세트
모둠세트
모둠김밥
수육무침
돌솥김치
육개장순대국
카레라면
카레찜닭
문어통
메밀콩국수
메밀비빔국수
##호박전
황태정식
황태설렁탕
차돌박이와
철판불고기
20온스
해삼죽순
쟁반국떡
묵은지삼겹살
묵은지뼈해장국
홍차그린티
굽네오리지널
##베르드
고추잡채덮밥
리얼고구마
리얼바비큐
키위요거트
키위요거트스무디
초밥5
크림치즈스틱
어묵김밥
세트메뉴15
숯불삼겹살
숯불닭발
숯불무뼈닭발
찹쌀치즈볼
찹쌀타코야끼
찹쌀타꼬야끼
단호박영양밥
##목살스테이크
REAL
버터난
준마이긴조
우삼겹정식
까르보돈까스
골드치즈
골드에일
골드크러스트
스팸사리
탄산에이드
낙지볶음소면
우유아이스크림
쇠고기샤브
꽃게짬뽕
한방추어탕
한방반계탕
내장만
페퍼로니플러스
후식된장
모짜렐라인절미토스트
Chiv
패션후
숙성사시미
브루독
##ALA
콩나물불고기
능이토종닭백숙
샤브칼국수
##illi
케이머스
된장가지
바베큐로스트
녹두한방삼계탕
COLA
무뼈불닭발
##소고기탕수육
구운치킨
구운가지
구운마늘
라이스치즈볼
소시지사리
특선메뉴
하이네켄생맥주
사골감자탕
프렌치얼그레이
로즈자스민
스윗칠리
스윗누가
햄치즈순두부
패션후르츠히비스커스
무침족발
오전8시
SIRLOIN
옥수수막걸리
매실주
##CHE
명태알찜
에비카레
베이글칩
##비아니
##칠리크랩
##ESS
이베리코흑돼지
CHIP
##120
뼈다귀탕
하와이안스페셜
갑오징어볶음
갑오징어불고기
메로소금구이
할라피뇨피자
페리에라임
땡초치킨
안동국밥
SIZEUP
멸치칼국수
##알밥정식
부산오뎅탕
치킨텐더샐러드
시래기국
##urple
맑은이슬
##izz
딸기바나나스무디
스시오마카세
돈카츠동
쇼콜라라떼
가츠산도
조기탕
##ICY
피노그리지오
와사비톡
궁중떡갈비
가자미찌개
410ml
아마로네
콘치즈그라탕
닭날개구이
식사냉면
양배추볶음
평양물냉면
죽엽청
숙주추가
전주모주
매드쉬림프
허니버터브래드
##미니덮밥
과테말라안티구아
양송이덮밥
곰탕만두국
닭껍질교자
북어구이
스노윙후라이
깻잎순대
우리집
통영굴전
대파양고기
소바정식
납작군만두
건강한방삼계탕
어향가지새우
Lait
사천식탕수육
누텔라바나나
웰빙세트
레드벨벳라떼
쥰마이750
떡닭SET
Carmen
블루베리요거트드링크
##콜드브루라떼
##hion
한우생갈비
##ave
피스타치오카페라떼
매운양념반
##숙성회
##ITO
핫윙봉
Mocha
알뜰할인셋트
베스트SET
베스트콰트로
##바지락탕
Mondavi
##프로스트
SPICY
트레와
순대만순대국
죠리퐁프라페
야마하이
맛보기순대
1병당
양주볶음밥
옹심이칼국수
누드닭발
스피나
정통세트
##돼지고기김치찌개
ABS
알파카
제주말차프라페
과카몰레
블랙타이거슈림프
##레스코
골드메달애플주스
통통유자차
네기마
잉글리시브렉퍼스트
블랙빈라떼
cake
##시래기국
##유부김밥
김치치즈볶음밥
마리아쥬프레르
속풀이해장
티카마살라
##intner
파파야
##도미타
OB라거
까스텔
까페모카
생생레몬차
오돌곱창
##섞어찌개
단팥라떼
크라켄
##IDS
복어찜
##피노누아
##아포카토
스테미
##바질페스토
##LOW
사피엔스
Thin
그레놀라
백화수복
참치샐러드김밥
검정콩국수
메인메뉴
##트러플오일
시리얼칠리크랩
오토상
핫스파이스피자
빠에야새우볶음밥
인도식
##3종세트
대새레드
매운불양념치킨
민트초콜릿칩
통골뱅이탕
##melette
BASIC
렌치스파이스
레몬크림새우치킨
매운낙갈찜A
매운낙갈찜C
매운낙갈찜B
##피망볶음
에스프레소샷추가
어른들의
Terra
우렁강된장쌈밥
풍천민물장어
오후2시30분
저온숙성
창고스페셜
미친맛
SEASON
Slim
pepper
립톤아이스티
매운소양볶음
카스텔로
Edge
Aglio
Hoega
가케우동
치킨주막스페셜
NYC
Crab
삼슬샥스핀
스푼떡볶이
##선물세트
빠따따
자루우동
쥬시쿨
##오삼불고기
##황금올리브
멜로디아스
세계맥주
##깔라만시
88불닭
반포6
할리치노
왕창포테이토피자
전라도식
필스너우르켈
살시챠
육해공피자
슈크림치즈골드
여러가지
쿠로마츠
노르웨이
셜리템플
윌리엄
창코나베
Shakes
Fitness
SKYY
발디비에소
원조백순대
BALLANT
아프리칸
하이디라오
코스타리카따라주
쌍쌍치즈가래떡
mocha
금강산
꿀벌닭강정
저세상불찜닭
##돈코츠라멘
##납작만두
치즈알떡
스트로베리피치프라페
스마트팩
Vineyard
길거리표
양옥추천
열대과일
웃음꽃피자
치즐치즐
고기농장피자
Lobster
도원결의
오화구육
토스카나
##posado
##lachie
아몬드캬라멜큐브케이크
아르헨티나
Tequila
과콰몰리
광개토
머시룸
무항생제
반쎄오
빨미까레
오굿박스
플러터
1단
1시이후
3set
4셋트
5장
5배
540ml
6세
69
72
As
Anejo
Bset
Ce
Cranberry
Do
EB
Fa
Fra
Frutti
Hamb
Kor
Mas
Por
PIC
Plate
Purple
Rare
Ricotta
Som
Sour
TE
TAKE
VOD
Zac
classic
fruit
flat
man
non
out
pan
vip
가격
간지
갈리
감투
개인
개나리
경장우육
고김
공리
군트
굴우동
그라스
글레이즈드
김마끼
까버네
꺳잎
껌승
꼬제
꼬리탕
꼰빠냐
꽃삼겹살
꽃맛살
꿀생강
나스
나탈
낙차
낭풍
내맘대로
너겟
너비아니
네추럴
녹각
다부르쪼
단골
달빛
달팽이
대마끼
댓잎
데이
데빌
디킨
딸보
떡볶
떡강정
떡왕만두국
라우
람빅
레시오
레모니
로코
로맨
리미
리아
마장
막대
만찬
맵스터
메생이
모노
목화
무쌉
물오징어
물닭갈비
미만
미녀
미꾸리
미네랄
발폴리
밥도둑
백탕
백짬뽕탕
볼살
봄도다리
북해도
불독
불곱창
불찜닭
뷰티
브레이즈
빽돈
뽀모
쁘라
사직
산토스
새벽
생목
생돈까스
생막창
선셋
소소
소생
소염통
소내장전골
소곡주
솜씨
순곱창
술밥
스펠
시그
식후
쌀통닭
쌈정식
쌈야채
아삼
아팔
암염
애슐리
양고급
어부
어울
언니
얼티
엘토
여우
오직
오십
올리비
와라
왕호
우전
우국
육사
은갈치
이달
이유식
인분
인디아
인도미타
잡어회
장국
정글
조커
죽을
중맛
지공
집게
짱아치
차우더
천사
청포
청피
체끼
치오
칙피
칡즙
카와
카제
컵떡볶이
코인
콰이
쿠카
키리
타트
탈리
테린느
토론
특삼선
파랑
파더
파눌
파김치
팍루엄
펑크
페타
페르
포션
포켓
폴리
프랭
필립
학교
한가람
해빔
핵폭탄
행사
행운
허그
홍굴
흑두부
히말라
##가정식
##루미
##루이
##루비
##사탕
##김초밥
##트러스
##치모
##속살
##찌로
##만코
##땅져
##오후
##정찬
##리따
##리카노
##크루
##브미
##도토리
##로프
##르자
##보신탕
##보이차
##꾸와
##소한마리
##바속
##바게뜨
##비노
##비벼밥
##블러
##러즈
##고다
##2병
##채김밥
##곱전골
##LLE
##LAND
##스폐셜
##스무벨라
##지살
##필스
##불사
##백주
##세르
##세스
##세요
##알비빔밥
##파베스
##선생
##두커
##짜용
##하여
##골든
##시크
##시금치
##그나
##식콩나물국밥
##쵸조
##모모
##국화차
##육계장
##육칼면
##까사
##석화
##석갈비
##떼기
##닭칼국수
##다루
##다노
##다스티
##EAN
##NIE
##PHRO
##챠슈
##샤부
##of
##ople
##nese
##TY
##92
##먹은
##피문어
##버스터
##6개
##콜키지
##핫티
##망스
##아서
##아에
##아나
##란지
##pol
##4pcs
##상궈
##디브
##쫄쫄면
##링가
##봉투
##멜팅
##750ml
##ME
##MER
##vy
##곤약
##쥬니어
##BL
##BALL
##컬리
##뚝불고기
##잔술
##푸르츠
##약선
##함유
##택1
##뿌리
##예주
##솔밥
##쁘릭
##월남
##쿨라
##붓카케
##맵달
##팝콘
##맞이
##뜻한
##고기까스
치즈닭
치즈날치알
치즈제육덮밥
##구이세트
김치베이컨
##치즈닭갈비
라떼마끼아또
해물물회
해물특밥
##새우덮밥
새우쭈꾸미
새우청경채
레몬콕
레몬민트
레몬석류
레몬블랙티
레몬글라스
매운부추전
매운바지락볶음
맥주카스
1인분씩
##arella
치킨골뱅이
한우물회
한우명품
아이스카페라떼
아이스청귤티
크림치킨
크림아메리카노
수제크림
초코초코
초코식빵
양념맛
소고기추가
블루밍
블루사파이어
돼지숙주볶음
오징어보쌈
오징어다리튀김
샐러드볼
샐러드빵
오리바베큐
고추강정
고추윙봉
갈비츄러스
차돌볶음밥
차돌순두부
차돌깍두기볶음밥
사이다500ml
전복과
전복갈비찜
전복냉채
블루베리빙수
블루베리쥬스
블루베리와플
블루베리크림치즈
그린올리브
허니크림
##insp
00am
콜드브루크림
매콤소스
매콤오돌뼈
매콤코다리조림
##초코스무디
만두한접시
얼큰탕
화이트치즈
베이컨까르보나라
##감자고로케
고기고기
고기모듬
30도
##ARE
계절차
계절별
계절한정
계절별미
##ssian
SET6
##순대철판볶음
아구전골
짜장라면
짜장찜닭
등심구이
순두부라면
##해물라면
더블린
더블쥬니어
로제캐모마일
미니등심
160
##라이나
새우튀김만두
##전복갈비탕
마라롱샤
마라쇼룽샤
##야채전골
쭈꾸미새우
쭈꾸미보쌈
해산물모둠
수육지옥국밥
골뱅이숙회
육개장설렁탕
25개
250G
애플폭스
산낙지숙회
산낙지철판볶음
코코팜
철판새우
철판김치
철판닭갈비
20마리
해삼관자
해삼삼겹살찜
직화양념
직화제육덮밥
직화불족
잡채볶음밥
##itron
##itiv
루이보스슈가플럼
날치알데마끼
에그미니
명란파스타
명란버터
연유콜드브루
연유꽃빵
##att
숯불소금구이
단호박튀김
게살유산슬
버터새우
오후12시
##고추마요
버블그린티라떼
우삼겹덮밥
##된장구이
##된장비빔밥
골드스윗
##마늘족
##마늘구이
청국장정식
쇠고기덮밥
리코타링
꼬막찜
글렌고인
민트초코설빙
능이주
능이추가
한치물회
훈제삼겹살
돼지고기덮밥
까르보나라스파게티
조개순두부
1마리당
삼겹구이
케이퍼
##amber
##통닭구이
된장라면
##rey
떡갈비피자
COM
COUP
겨울특선
닭가슴살샌드위치
바질크림
##elf
베리메리
##참치볶음밥
마르티넬리
어향동구
##조개전골
어린이초밥
어린이주먹밥
2pieces
국내산생삼겹살
##ONN
어니언베이글
로스핀
물회국수
서울찜닭
떡사리추가
땅콩버터
스파이시윙
시나몬모카
22개
22도
Caf
##리에르
자스민그린티
아이파베스
양지차돌
SIL
##로스카츠
생대구매운탕
명태식해
파닭파닭
마른고추
와규타다끼
믹스가츠동
석류티
볼케이노피자
##ppe
꼬치어묵우동
참치마요덮밥
인절미아이스크림
##다랑어회
LAPHRO
##보리국수
##허니버터
샤브샤브탕
호두마루
##10pcs
뼈없는찜닭
멕시칸비프
시래기조림
전통주
꽁치조림
메뉴2
생고기김치전골
프라이빗
꼬마고기까스
더덕무침
##샥스핀찜
민물장어초밥
##베이크치킨
월남쌈스페셜
궁중수육전골
라구소스
메기탕
안주류
3시이후
##INGU
초코롱세트
공휴일제외
신선로
카프리제
칭타오맥주
##LAIN
전주돌솥비빔밥
차슈추가
오리훈제바베큐
닭껍질꼬치
수비드닭가슴살
##가체페
우리쌀
메이플시나몬
알리오올리오파스타
대만흑당
중화풍
촉촉노가리
국산차
브라더스
All
제임스
왕갈비치킨
장어구이정식
##우거지해장국
BBQ치킨
##topus
7세이하
VIP초밥
알뜰셋트
50cm
얼큰이순대국
기린생맥주
##15y
##가득부대찌개
Salute
애플시나몬티
트레이스
순대만국밥
산오징어통찜
##토종순대
BOUR
특별세트메뉴
진한대추차
##65g
##영양돌솥밥
##꽃게된장찌개
놀래미세꼬시
즈란소고기
##들깨탕
하루가
가든샐러드
다슬기추어탕
얼큰해물우동
쁘띠뜨
##돼지고기볶음
베이컨치즈버거
어향육슬덮밥
까르네
##OSA
##UTTER
통문어숙회
꼬들목
서대찜
츄러스치즈볼
송화강주
브라운슈가라떼
빌라엠
짝태볶음
파울러너
고수추가
베이컨체다피자
장미차
달걀후라이
알리고
569ml
선지국
##양지쌀국수
프랑스식
##호두과자
휘핑크림추가
치즈닭갈비철판
아카부
신의주술국
##프라니요
오가피
칠레산
##프리미어
카르멘톨텐
레몬진저티
참게매운탕
Main
백합조개
이태리식
Glenmorange
MOJ
신전치즈김밥
##perial
아지타마고
##복음밥
한식뷔페
옛맛세트
통큰오
스위티
세이지
쿼터파운
화끈한
계란토마토탕
함께닭
Highball
사모님
상추쌈
Russian
엔젤스
##낫또동
##meister
60cm
브라운치즈크로플
Cono
화로구이
니꾸우동
코코넛스무디커피
봉평메밀
봄냉이된장제육덮밥
우메보시
이쿠라동
##몬스터설빙
오레오초코몬스터설빙
CLASSICO
치즈김치도리아
290g
고마워
치즈롤까스
리오하
##뼈다귀전골
치즈해물떡볶이
NAPA
BERRY
김포예주
이치방
이소노
물메기탕
어탕칼국수
##SHB
버팔로스틱스
혼자닭
##몽땅set
ADD
다섯가지냉채
블록버스터
해분샥스핀
##포르마지오
딸기마카롱설빙
오코노미야키
한신통닭
한촌냉면
바바리안크림
고이꾸온
매운맛2단계
매운맛1단계
오골계
페리치즈볼
##홍게품은죽
장조림버터비빔밥
Jagermeister
Imperial
##미네르
##크라상
돼지귀무침
무청시래기
살리스버리
술래양념정식
GOLD
나나쿠
몰리두커
에피타이
매운맛3단계
미트러버피자
illy
달구나
담양식떡갈비
드리즐
후루룩
##ozzarella
Coconut
MEAT
달고마떡볶이
맵달맵달
브룩라디
테판정식
한우투뿔
grigli
구절판
에디찌오네
하프갤론
듬뿍야채쫄쫄면
떠먹는스트로베리초콜릿생크림
샤슬릭
차돌초밥용
20온스컵
Chivas
ABSOL
Hoegaarden
Korea
VODKA
Zacapa
낙차새
목화솜
사직단
아팔타구아
왕호라이드
죽을맛
치오피노
갈비츄러스만두
COUPLE
LAPHROA
000원
1알
2쪽
2set
2SHOT
265g
4도
4세트
4kg
4set
5대
5잔
7시
8oz
90ml
Ass
Asa
Brown
BUTTER
Cset
CIT
DO
EL
EG
Ge
Hite
HONE
HIGH
JACK
Lea
MAL
OR
OF
Oil
Oven
POL
PLAIN
SE
See
SUN
STELLA
TRI
Vintner
brea
del
lim
pol
plate
가끼
가펠
간쇼
개구리
거북
겉바속
고로
고젠
곰국시
군고구마라떼
굴해장국
굴기름
궁물
그대로
금전
급랭
까나페
깐꿔
깨찰
꽃길
꿀레몬차
꿀자몽차
냉소면
너티
노루
다미
다스띠
단테
달래
더팔
덕산막걸리
도르
도나
돈나
돈불고기
동원
디톡
뚜레
라푸치노
라이타
라쿠치나
렉켈란
로켓
루왁
린드
만복
만체
만남
말바
맛탕
맛태
매달
맥너겟
명장
모쯔
목항정살
밀떡
반줄
반달루
버갈
베티나
보름
본인
볼로
부챗살
북엇국
불매운
브레스트
블렉퍼스트
비앙
비니
비냉면
비비드
빅사이즈
빛나는
산골
산양
삼백
삼원
삼천
상동
생망고
생우유
서서
서룡
석굴
석갈비
셋이서
소아
소담
소모스
소갈빗살
쉐리
슈냉
슈니
스윙
스컬
시에
심야
싸다
썬더블
아스티
알마
압구
양힘줄
언제
여신
여의
열불
영그레이
오랑
오꼬
오버
오몽
오이시
온천
옻한방삼계탕
왕특
외부
요샌
욜란다
우바
우나
우사골
우연이
원산
웬티
유동
유로
육짬뽕
이모
이벤트
인퓨전
일레
자르
자파
전채
정원
조셉
줄노가리
진생
진한우
짬봉
쯔유
찌짐
찐하다
차도리탕
차우면
착한맛
참문어숙회
채식
천국
철솥
카미
카메
카사바
콘도르
콜팝
큰쫄
클락
킹쉬림프
태양
테레
테킬라
투플
투다리
투게더
티팟
파냉
파머스
페트
펫낫
폭스
퐁닭
퐁크러쉬
푸주
프릭
플롯
피에
필렛
학센
한스
핫바베큐
핫쉬림프
해우
햄야채
혼조
홀리즈
홈뷔페
홍성
활광어회
황토
후난
##가키
##케이
##자도
##카제
##레전드
##라당
##라자냐
##이용
##치기
##마구로
##ret
##반입
##오로
##오늘
##오릉
##금계찜닭
##리향
##리버거
##크릭
##크셔
##타나
##한피자
##도삭면
##로빈
##베레
##프타
##르네
##소양
##소양념갈비
##러멜
##주곰탕
##26
##창구이
##몬테
##A코스
##볼로네제
##무어
##진짬뽕
##설리
##기정
##백짬뽕밥
##선셋
##선지
##씨푸드
##회보쌈
##노리
##새끼
##물국수
##물쫄면
##시루
##애비
##밀떡볶이
##토막
##국화
##돈육
##티에르
##티꾸닭
##닭도리
##양반
##양갱
##NG
##cini
##sch
##차차
##네비
##SA
##초절임
##코먹태
##매시
##330ml
##굴전
##운대
##dure
##nut
##nello
##말랭이
##맥스
##셀러드
##th
##통오징어
##피트
##피차
##릴라
##빔밥
##빈달루
##엉이
##핫바
##핫윙
##핫초코
##XO
##참숯
##키자미
##래머
##아사
##uine
##곡미숫가루
##점퍼
##상자
##상치쌈
##명이
##릭터
##링고
##단위
##단짠
##느아
##MINT
##분짜
##VSOP
##쯔께
##궁뎅
##멘토
##kin
##거야
##따바오
##B코스
##히어로
##홍어회
##실버
##팬케익
##형제
##온다
##평양
##숄더
##샬루트
##휘낭시에
##퀴즈
##뤄우
##곁들인
치즈난
치즈빨
치즈순두부
치즈감자튀김
치즈식빵
치즈범벅
1인사시미
1인간장찜닭
카페인
2인셋트
김치떡
김치국수
김치갈비찜
김치가츠동
김치잡채밥
해물치즈
해물쟁반짬뽕
##새우회
##새우버거
소주진로
새우카레
새우칠리
레몬크림소스
매운크림
매운도가니
매운꼴뚜기
치킨콤보
치킨랜치
모듬고기
모듬돈까스
모듬셋트
자몽오렌지
한우샤브샤브
한우양념갈비
한우숙성
한우부채살
한우꽃게된장찌개
아이스홍시
추가토핑
##스타일
크림추가
크림연유라떼
바닐라프라페
순살간장치킨
비빔쫄
볶음과
수제갈비
수제불고기
수제모듬
수제생강차
수제패션후르츠
수제리코타치즈
10장
10피스
감자빵
참치반
초코에
초코크림
초코시럽
소고기모듬
소고기불초밥
연어갈릭
연어타다끼
연어양파
120
12inch
125g
돼지껍
돼지꼬리
오징어스틱
샐러드파스타
##alone
삼선볶음
오리전골
고추군만두
에스페
에스쿠
갈비정식
차돌육개장
낙지해물
제육돌솥밥
야채토스트
콜드컷
토마토샐러드
토마토스튜
유자요거트
##lam
전복라면
전복송이
블루베리잼
그린밀크티
스테이크갈비
스테이크덮밥
스테이크불갈비
녹차샷라떼
##그레이프
##iner
##ETT
불고기치즈
간장찜
오렌지그린
매콤쭈꾸미
매콤오징어볶음
만두탕
만두곰탕
얼큰어묵탕
얼큰한방삼계탕
얼큰순두부찌개
##ans
베이컨추가
고기밭
복분자막걸리
##ARA
##라이스볼
마늘닭
마늘맛
마늘추가
마늘돈까스
스파이크
##eam
돈까스샐러드
돈까스도련님
##순대곱창
아구매운탕
제주유기농
보쌈구이
삼겹살구이
삼겹살추가
오뎅추가
짜장덮밥
칠리빈
칠리불갈비
더블세트
##버섯볶음
스페셜피자
스페셜모둠
##모듬전골
반반이
복숭아스무디
복숭아망고
##마요소스
13개
마라대하
우럭찜
##카츠동
쭈꾸미불고기
해산물물회
곱창뚝배기
모둠치즈
모둠족발
수육순대
갈릭난
오리지널치킨
오리지널피자
##ento
뚝배기알밥
애플레몬
애플사이다
메밀사리
메밀쟁반국수
황태튀각
코코로
부대찌개전골
트러플베지
족발반
고등어정식
고등어자반
묵은지전골
대구전
##버터갈릭
##레드커리
350
날치알계란찜
##모밀세트
에그누들
진로복분자
국물무뼈닭발
코다리양념구이
##ation
숯불곱창
##카도로
말차우유
말차슈페너
부추계란
##갈릭족발
일품향
##라미소
도미니오
##고추치킨
장어한마리
물만두사리
우삼겹부대
##아이스테이크
로얄샬루트
고르곤졸라치즈
아보카도샐러드
두부김치전골
스팸두부김치
##마늘볶음밥
낙지볶음정식
##바나나라떼
우유생크림
##icot
내장수육
모짜렐라토마토
Set5
가지구이
닭고기볶음
소세지김밥
도가니무침
돼지고기순두부
유기농티
##ame
디카페인라떼
2010
##ashion
떡갈비비빔밥
달콤라떼
홍합스튜
##소고기샤브
사과차
사과케일
##inguine
라이스볼
소시지구이
##대구뽈
까베르네소비뇽
크리스피후라이드
생굴한접시
##쟁반자장
프로메
서울핫도그
##riach
오레오쿠키
히레가스
아몬드바나나
양푼돼지고기김치찌개
쟁반짜장밥
떡국설렁탕
아이싱
SIDE
생대구머리탕
옥수수면
옥수수잣
고기추가시
##tac
고로케카레
##모둠회
##모둠구이
믹스주먹밥
이베리코돼지
석류레몬
석류아이스티
197
1964
CHAR
CHARD
CHIL
##게리타
소금구이막창
하와이안버거
슈퍼시드
스텔라생맥주
치즈떡볶이피자
Saint
바게트추가
땡초라면
체다골드
우롱하이
프레르
프레스카
로얄밀크티쉐이크
계란후라이추가
작은컵
스위트갈릭
스위트칠리소스
크리미연어
크리미어니언
##ignan
아사히생맥주
스노우빙수
스노우와플
맑은육수
##30cc
2단계보통맛
1단계순한맛
3단계매운맛
##ect
메뉴1
메뉴3
##드립커피
더블치즈햄
통오징어찜
참다랑어대뱃살
에티오피아예가체프
타이완
타이쿠
와사비크림
##껍질튀김
가자미튀김
가자미식해
모밀세트
##오무쌉
B코스활어세트
베트남국밥
닭날개꼬치
프랑크
##사과주스
A코스단품
레귤러컷
##usage
신선찐만두
500mL
월계관준마이다이긴죠
Shack
전주불백피자
10PS
##emade
##돌솥정식
##시나몬라떼
류산슬덮밥
##OPIA
##완자튀김
원두판매
우리고구마
메이플시럽
그랑리제르바
홍시주스
리치고구마
체다치즈김밥
대만밀크
연탄불
놀부사리
한입맥주
줄돔회
##얼큰전골
##얼큰칼국수
오믈렛라이스
소떡강정
##카라멜마끼아또
북경소주
##우거지국밥
캐러맬
양념게장정식
베이비립
##믹스동
얼큰이추어탕
##15년
실버문
##핫치킨버거
냉면사리추가
alcohol
몬스터찜닭
누들로제떡볶이
스트링
##타르타르
##ACO
산딸기오미
진품전복죽
새콤간장
진한생강차
흑염소전골
맛보기보쌈
마리아주
할매보쌈
##ogato
480g
북촌국시
즈란심관
탕수우육
옹심이메밀칼국수
쭈삼새
별미약선
시사모튀김
데킬라선라이즈
크루져
##roni
Arran
Artois
##카나페
모래집튀김
스끼다시
1808
올드파
올드패션
곤드레밥소불고기
비지니스
엄나무백숙
엄나무삼계탕
염소전골
모든메뉴
냉이우삼겹된장찌개
Barley
##ache
박스포장
14시30분
##GNE
바베큐치킨피자
타르타르소스
붉은생새우
진미채튀김
딱새우회
##ANGO
남도꼬막
네그라
엄마손
와락간장치킨
##rawn
##리코타치즈샐러드
마카다미아라떼
우드스
Abalone
ABV5
응급실국물
야키토리
##now
미디움
피문어숙회
##생과일쥬스
##ills
쏘세지야채볶음
파이어볼
BRUNCH
Kaeng
돼지김치두루치기
대나무술
Rucola
포항물회
더블초코렛
토요일은
겨자소스
##전통육개장
금사오룡
49도
고메버터
헛개한방삼계탕
30까지주문가능
디핑소스
Syrup
핫불고기피자
Buffalo
##HIOPIA
매운조갈찜A
매운조갈찜C
매운조갈찜B
풍천장어
##추어전골
Primitiv
샤토브리앙
칠백한우
당도1
라스푸틴
##대패삼겹살
한우우족탕
short
배다리막걸리
비뉴베르드
오로라
Benriach
Edition
지중해
치즈해물도리아
오후1시이후
리스보아
2시간전예약
Basil
BELT
카야버터토스트
넥타도르
##리소토
잎새주
십전대보탕
launch
끄라빠오
누꼬진짬뽕
##복어살
##장작바베큐
##HROOM
의성마늘
팔자피자
소내장볶음
앙시앙땅
폼비스런
캐나디언
레전드4
미용한방삼계탕
SPAGH
##게이터
프리마베라
짱구의
##355ml
내슈빌핫치킨버거
캐롤라이나
7분돼지김치
느타리버섯
불오뎅김밥
올라간
##착즙주스
레몬드랍
BANANA
Octopus
글루텐
김떡만
샬롯연어
식전빵
은하수
프린스
##감베로니
비스코티
DECAF
MUSHROOM
경장유슬
병천순대
어메이징
코이마리
흑산홍어
##EGAARDEN
Aged
ETHIOPIA
Homemade
Molly
골동반
그르나슈
바라온다
바르베라
쇼비농
파케리
##생딸기설빙
##arclas
글렌파클라스
오야코동
HOEGAARDEN
Sangria
진대감
소주처음처럼
PM5시
JOHNNIE
Bistecca
Clos
Iberico
Julio
TART
구움과자
무가당
슈비버거
연경맥주
참이맛
플루마
##켄터키치킨
칠리핫도그엣지
로즈자스민티
속풀이해장피자
군트럼
단골손님
발폴리첼라
이달의
지공다스
쿠카부라
히말라야
SILVER
MOJITO
통큰오짱
이소노사와
grigliate
Asahi
HONEY
더팔러
만체고
버갈퐁
베티나르디
썬더블크러스트
##오늘의
트러플베지테리안
##ashioned
슈퍼시드함유
산딸기오미차
1mm
2도
5l
55
5셋트
5mm
6초
6년
600G
75ml
7조각
8년
9p
Av
AUS
Bit
Burrata
CUR
Dam
Deep
Ex
Eew
F세트
G7
Gar
Gri
HEN
Hib
Hazel
ITA
Kend
Kiew
LE
LAS
LINGU
Linguine
MINT
MANGO
Ol
OLD
PL
Ph
Pas
Rom
Sem
Tro
Vari
best
chi
earl
egg
ml
new
reserv
간편
강강
개코먹태
갯장어
겉절이
경복
고트
고객
곱대
굴돼지보쌈
규스지
극장
글라
까베네
꽃삼겹
끼안띠
나막스
나바로
네일
노블
노조
농가
농어탕
뉴질
닌자완스
다과
다른
단콩볶음
달곰
달링
닭국수
대원
데친
도치
도그
돈불
또우
뚜르
라크로
랑그독
량피
레오
로건
루벤
리몬
리프레
릴리
림스
마나
마키야또
만수르
맛배기
먹는
메종
메독
메카도로
몰디브
무국
미드
미식
미라클
미초에이드
밀레
바론
발채
밥으로
백자
백립
백하우스
밴댕이
버미
버베나
법성포
베가
벤또
병음료
보글
보석
복서
복죽
부리
뽈뽀
뽕주
쁘리완
사우스
산소
산초
산카이
산더덕
산아나고
살짝
삼양
상해
상상
상요리
생초코
생토마토
생보리
서초
서교
서던
세팅비
소울
소풍
속초코
수국
수삼
수철
순금
스쿠
슬링
시락
시칠리
시니어
싸만코
쌈추가
써니
쏘맥
아바
안디노
알롤
알짬뽕
앞다리살
애비
앤젤
앵거스
야콘
약닭찜
양삼겹
얼그
에밀리아
엠파
연인
영국식
옐로
오카
오즈
오동
오빠
오래
옻백숙
왕주
왕김밥
왕만두국
왕김말이
요금
요하
요커트
용량
우노
위한
위샹
육칼면
육고명
으뜸
으라차
은성
은대구
이나
정선
조센
족탕
존슨빌
주안상
죽생
죽한방삼계탕
중뱃살
차쫄면
참다랑어회
체코
초특선
초리소
총알
최족
치키
카슈
카프치노
칼루아
캄파리
쿠마
쿠차
크치
킷도
킹스팸김밥
테리
템플
토리카
통버섯
통가브리살
트레이
트라가
특짬뽕
파테
파주
파족발
파소불고기
파코라
팬볶이
페드
페드로
펠리
펠프스
푸팟퐁커리
프루트
플랩
피데기
한과
핫양념
해운대
헤쿨라
현금
호메
홉하우스
홍칼
홍짬뽕
화통
화담
화이어
황후
회식
흑초
##가락
##가원
##가닥
##사한
##미만
##레니
##라바
##치떡
##치폴레
##ale
##달달
##반연
##쌈정식
##오이스터
##오키아
##뎅블루
##리가
##리베
##테나
##브릿
##한식
##도정식
##슈퍼
##동정식
##보타
##보르
##소안심
##바운드
##바구니
##쇼유
##블스
##태미나
##고로
##고지
##수삼
##수플레
##에르보
##스크림
##볼레
##볼도그
##지도
##무조림
##화가
##판치킨
##야초
##글레
##알리
##전가복
##어린
##플라이
##두루
##1L
##1g
##노브
##짜죠
##새콤
##생트
##하노이
##츄딥
##밥정식
##나이
##나치노
##쵸킹
##토모
##콩차
##go
##티본
##유니
##콘디
##롤케익
##양파닭
##다방커피
##iro
##eye
##신선
##돌구이
##네토
##뉴기니
##SING
##lum
##짱뽕
##매쉬
##매직
##굴탕
##굴짬뽕탕
##dd
##배럴
##TR
##원의
##원숭이
##텔리
##CIL
##CINI
##셀로나
##부코
##부쉬
##통삼겹살
##피크
##피뇨
##렐리
##뼈감자탕
##엉차
##대마끼
##롯케
##키겐
##후반
##래판
##아주
##아메
##계인
##uel
##RATA
##명작
##디마레
##송송
##옻백숙
##듀오
##담근
##단팥죽
##단콩볶음
##찰밥
##저우
##UG
##벤토
##VO
##VIGNON
##따이즈
##bi
##펠롱
##슬리
##컬릿
##손만두국
##햄에그
##데링
##뚝배기밥
##WICH
##넬라
##푸가타
##업진살
##썸머
##뽈로
##학센
##쪼꼬
##갑오
##덩이
##웜랩
##휠레
##좋아
##퀴드
##했어
##고기짬뽕
치즈왕
치즈알밥
##이스페셜
김치불고기
김치삼겹살
김치어묵우동
김치꽁치
##치즈와
##치즈치킨
해물백짬뽕
##만두칼국수
##새우링
##새우깡
새우젓
새우필라프
새우덴뿌라
새우알찜
레몬새우
레몬스무디
레몬사와
매운갈비
매운참치김밥
매운낙지볶음
매운양꼬치
매운돈가츠
매운왕돈까스
매운왕족발
##arita
치킨봉
치킨제육
치킨카라아게
모듬마른안주
자몽소다
자몽히비스커스티
한우사시미
한우꽃살
한우모듬구이
한우국수전골
한우토시살
한우양곰탕
한우명작
아이스홍
##두부조림
200g이상
바닐라아포가토
순살맛
##크림밀크티
딸기쨈
딸기생크림
볶음국수
수제티
수제양념
수제어묵탕
##불고기꼬마
18cm
##김치찜닭
##김치두루치기
10인
밀크초코
참치롤
참치치즈
참치육회
초코빙수
양념간장
양념꼼장어
양념양꼬치
소고기반
소고기와
소고기전골
소고기비빔밥
소고기탕면
소고기장조림
12미
12월
돼지반마리
돼지김치전골
돼지왕구이
블랙커피
파스타떡볶이
차돌배기
차돌쌀국수
차돌삼합
낙지버섯
낙지숙회
망고소르베
고구마크림치즈
제육세트
야채비빔만두
토마토와
토마토치킨
토마토치즈
토마토베이컨
유자레몬
전복낙지
전복해삼
##말이김밥
##말이꼬치
우동추가
스테이크세트
허니자몽에이드
김치찌개정식
불고기추가
순대튀김
간장낙지
간장닭강정
간장아구찜
요거트쥬스
모카빵
과일과
버섯탕
버섯을
버섯리조또
오렌지초코
매콤탕
매콤새우
매콤족발
매콤닭발
매콤멸치김밥
##anc
##ance
##anner
짬뽕수제비
베이컨사리
베이컨크림파스타
베이컨크림스파게티
고기전
카스병
마늘구이
마늘버터
##ssi
##sse
##ssert
점심12시
##소스추가
Larger
##ont
그린티민트
그린티밀크
제주항정살
제주펠롱
허브갈릭
##낙지짬뽕
1500ml
오뎅볶이
오뎅떡볶이
##오리갈비찜
짜장돈까스
플레인치아바타
칠리쉬림프
칠리나쵸
더블크러스트
##버섯샐러드
로제치즈오븐스파게티
바나나막걸리
튀김정식
튀김족발
청포도그린티
동태찌게
미니과일
민트크루
반반족
반반가능
16Y
참이슬오리지널
새우튀김오므라이스
##전복찜
##계란마리
누룽지반계탕
쭈꾸미숙회
해산물을
수육과
갈릭스테이크
오리지널로스트
##샤브전골
문어짬뽕
애플마티니
황태국밥
##송이버섯
철판낙지
트러플크림
트러플포테이토
트러플포테이토피자
해삼삼겹살
쉬림프샐러드
쉬림프카레라이스
쉬림프카레우동
고등어회
깐풍기세트
더치바닐라라떼
##chi
묵은지김밥
묵은지참치김밥
양장피세트
대구막창
대구지리탕
고추잡채정식
날치알마끼
에그샐러드
명란무침
옛날치킨
옛날탕수육
옛날김치찌개
##ated
세트메뉴16
찹쌀밥
찹쌀등심탕수육
찹쌀볼도그
왕새우찜
덮밥세트
부추구이
일품참치
구이정식
게살볶음
게살새우볶음밥
게살삼슬
버터오징어
오후6
오후9시
알탕전골
##냉채족발
우삼겹부대볶음
코코넛샤베트
히비스커스에이드
##된장뚝배기
##나베우동
스팸옛날
##연어샐러드
set4
우유가
청국장비빔밥
쇠고기김밥
송이주
열무국시
##icil
프리미엄닭다리
##ump
꼬막덮밥
꼬막초무침
꼬막데침
꽃게전골
한방차
한방모주
내장곰탕
페퍼로니그릴드치즈파니니
후식누룽지
Chick
패션드
그릴치즈
그릴소세지
브루스게타
##딸기우유
콩나물추가
스트로베리라떼
스트로베리민트
일품진로19
능이2배
코스A
코스B
코스티에르
라임민트
훈제베이컨
짜장면2
고추장구이
고추장주물럭
삼겹추가
저녁코스
저녁안주
디카페인아메리카노
갈비살꼬치
바베큐족발
푸라푸치노
떡갈비오므라이스
떡갈비카레덮밥
우거지뼈해장국
진저라임
##소고기국밥
일반맛
일반초밥
눈꽃등심
##ings
라이스페이퍼
##가라아게동
치즈돈까스정식
흑임자크림라떼
어린이메뉴
##백반정식
소불고기우동
특선코스
사골전골
##후라이드반
도토리전
오미자티
달고나밀크
스윗텐더
##파닭꼬치
함박스텍
##타이지
##안심요리
패션후르츠차
야끼도리
간짜장면
간장새우밥
아몬드크림라떼
양푼동태찌개
쟁반짜장면
영양삼계탕
똥집구이
똥집감자튀김
양지탕
현미녹차
2700ml
##토닉세트
에비깡
에비카츠
관자볶음
405ml
민물매운탕
365ml
참치마요밥
##메밀전병
요거프라페
살치살스테이크
수제청티
230ml
불닭볶음
불닭피자
체다치즈볼
##훈제치킨
청양불
프레디치노
활어덮밥
##크러스트피자
작은사이즈
호두고구마
호두단팥빵
꿔바로우치킨
##ffogato
전통식혜
##ada
##오븐치킨
##배추볶음
큐브연유라떼
흑돼지목살
##eek
수박빙수
##불백정식
##불백비빔밥
마약콘치즈
자바칩프라푸치노
대하장
대하새우
차이밀크티
핑크로즈
##우육면
포크벨리
홍소잉어
##삼선짬뽕밥
양파플레이크
혼마구로정식
와사비크래미
호박라떼
바다의
한우차돌된장
한우차돌삼합
자두에이슬
카프레제샐러드
410g
아이리쉬라떼
쿠앤크쉐이크
천진고량
##agli
식사메뉴
500G
규동식
조니워커블루
삼선짜장밥
##LA갈비
Shake
10Pcs
계절과일주스
아스파라거스와
아스파라거스삼겹
아스파라거스관자
##미니족발
수비드통닭
고급수제오뎅탕
##irloin
시골보쌈
##큐브스테이크
##육수추가
떠먹는피자
선택1
##완자전
캬라멜마끼야또
##OMILE
연탄구이
카르네
어향가지볶음
놀부부대
##띠아오
매생이굴떡국
380cc
치즈크러스트추가
숯불구이덮밥
클럽소다
소떡심
뿌링감자
##17y
요리셋트
340g
아르망
떡닭꼬치
마구로동
오도로초밥
CAP
##쇼비뇽블랑
꽃살크래미
##15cm
##깐풍새우
소면사리추가
가래떡구이
##카이도
cola
비스테카
완도전복죽
특별셋트메뉴
하쿠시카준마이
하쿠시카쥰마이
##꽃게탕
샤워도우
##ognese
즈란오돌뼈
즈란염통줄기
탕수소스
통우럭탕
심술12
행복해
##꼬리곰탕
마카로니
오니레이슈
이즈니
초계비빔국수
엑스퓨레
쭈삼볶음
얼큰해물짬뽕
가평잣막걸리
까르미네르
##블로썸
완자꼬치
퓨어더블
30분부터
서대회무침
12PS
21년산
실장님
잉글리시블랙퍼스트
그래스
##더치커피
백향과차
우엉김밥
윈터드림
알로하
똠얌쌀국수
루이자도
홍삼원
홍삼라떼
자반고등어
사랑해
Barolo
##KEND
인도네시아만
우설구이
죽순과
싱싱한
새알심
보양탕
딸바주스
송죽매준마이
유황오리훈제
마라우육면
송이해삼전복
BURRATA
흑마늘한방삼계탕
MOON
매쉬포테이토
델리리움
베일리스밀크
Regal
그레이트
쉐프의
팔라도우
야키소바
야키니쿠
##바다가재
오토코야마
클렌즈주스
##tina
Soho
산해진미해물탕
카사네
팔도피자
CHOCO
블랜딩티
치즈칠리로스트
##ount
군함말이
Panna
수만두설렁탕
오제끼
##콜로지
글렌드로냑
잉글리쉬브렉퍼스트라떼
영광굴비
지라시덮밥
카라탄바
통감자새우
테이터
수제레몬청
Boxer
Selection
패션프룻
Calam
아스파라가스
착한샐러드
치미추리
caramel
리얼딸기우유
##화이타샐러드
데리갈릭로스트
BREAD
SANTA
비노레또
열라계
오이양장피무침
런던포그
Mex
Ribeye
people
클램차우더
MONTE
잡어매운탕
칠리치킨프라이드
로꼬믹스
불향차돌
수라상
##미나리전
주꾸미볶음삼겹살
시즐링화이타샐러드
##로얄밀크티
네그로아마
투썩점퍼
헤이즐넛시럽추가
십전대보차
소양념갈비살
제주흑돈
verdure
쉑쉑치킨
자이언트펭자몽
자이언트펭자두
캐나디안
스윗츠갈릭
스윗츠갈릭치킨
SAUVIGNON
Negroni
PIECE
눈맞은치킨
뼈뺀라조기
##어깨튀김
김치콩나물우동
순살매운양념
grape
베리아사이
비에호
존슨탕
Olive
ROMAN
Today
햄버그스테이크
CHAMOMILE
박대박
스탠다드
스테이키
죽염청주
Plain
남부비진
##ocado
##맛있는오뎅
##쥬얼리밀크티
macchiato
무쇠솥밥
고추건두부볶음
POTATO
WEEKEND
개매운치킨
깊은맛
드라큘라
지아콘디
짱뚱어탕
동남아
파푸아뉴기니
포테토
Strong
510g
EVENT
블로우잡
##프터눈
DAILY
망원동
언더더
쿠스쿠스
문어통오리갈비찜
스피나치
길거리표떡볶이
EBC
고김떡세트
나탈리스
스펠바운드
양고급갈비
어울림
카제노
타트체리
학교앞
##짜용치킨
##inspanner
쿼터파운더
블록버스터4
나나쿠보
ABSOLUT
가끼아게
고젠슈
슈니첼
싸다김밥
언제나
여의도
진한우엉차
비빔쫄우동
오렌지그린마테
스파이크치킨
프로메사
옥수수잣볶음
응급실국물오뎅
Primitivo
LINGUINE
경복궁
극장판치킨
뉴질랜드
라크로이
속초코다리
알롤로스
엠파나다
으라차차
##반연반
오렌지초코루이보스
스팸옛날도시락
네그로아마로
1도
2소금구이
2불족발
3g
312
4번
4가지맛
440g
5세트
6대
67
7P
9세
9종
94
Ara
ACL
Bush
Bab
BONE
BROWN
CR
CID
Dai
Fl
FI
GIN
Grig
Gamber
Ha
Hu
HOUR
IMP
Just
KO
KIDS
Li
MEL
Mand
Mint
Plan
Pho
Petit
Pomodoro
QQ
Ras
RIB
SQU
TY
Tan
Tignan
TACO
We
With
ag
blue
dra
pa
pork
ru
rose
smoothie
tonic
가야
가는
간창
갑부
강화
개복숭아
갯벌
고아
골프
광연이
교체
구기
그림
기장
김실
깜장
꼬불이
꽃돈
꽃닭
꽈트로
꿀배
꿀꿀
끓인
난반
냉골뱅이
냉열무국수
너무
네네스
녹순
논커피
누룽
다정
단지
단풍
달피자
달맞이
당고
대도
더컵
더뷔페
도톰
도지마
돈직화구이
돌도다리
동죽
동대문
두르
듀오
드미
딥소스
떡만
떼땅져
레터링
로랑
로메
로뽕
로드레
로망스
르사
리져브
마곱
마후
마차라떼
막회무침
망바
매란
맥플러
맵피자
맵싸한
머설라
메까
메를
메누아
면역
모월
모링가
몰츠
문래
물곰
미쓰
미숫
바하
반개
반합
반모밀
백산
백자몽
뱅상
벤리
보이
보신탕
복음밥
부엉이
불갈비찜
붐바
비취
빅치킨마요
빨래판
빵속에
뿌치
뿌팟퐁커리
사그
산도
산적
살고기
삼미
삼총사
새레드
생트
생양갈비
생양꼬치
생버섯불고기
생아구탕
샤커
샤벳
샹라
샹베르
서로인
세라
세하도
소잘
소혈관
속시
손질
송로
송담
수다
순면
슈스틱
슈앤치노
스니
스털
슬라이
시마
신라
심관
쌈닭
쌈싸
아부라소바
알짜
알토
알렉
알펜
알등심
약하게
양태
양전골
양삼겹살
양쪽갈비
에어
에끌
영구
오낙찜
오모가리
온족발
와우
완탕면
왕카레돈까스
우즈
우짜면
웨이
윈져
유채
유기
육칼
이니에
이일레
자쿠
재래
제네랄
주귀
쥬쥬
진곰탕
짤라
짱아찌
쫄삼
참마
챠오
챠슈
청국
초바
출렁
충북
츠루
카케
카비
카펠
캐슬
캡틴
커스타드
컵볶이
케잌
콩불
콩피
콩라떼
크뽕
크린
크래
크러시
키쿠마사무네
킬러
킹푸
타카
타꼬야끼
태뽕
텀블러
테누
테루아
토마스
토미노
톡쏘
퇴근
특물회
튼실
판타
팝만두
팬텀
평창
포테이
폴드
푸룻
푸틴
피냐
피코
피에르
한솔
핫바
핫쏘
핫앤
핫콤비네이션
핫플러스
핫초콜렛
핫쵸킹
햄볶음밥
향기
향긋
호노
호텔
호남
홍백
화성
회관
회물회
회장님
후반
##사키
##케스
##자면
##자기
##레르
##레뜨
##이에
##이떡볶이
##이찌방
##이동갈비
##치스카
##마오
##yle
##반세트
##만난
##오도
##오르
##오디
##오도로
##리지
##리언
##크랑
##한되
##한웅
##슈크림
##슈패너
##로아
##베토
##프룻마가리타
##보바
##꾸베츠
##소위
##소킹
##소머리
##비냉
##비향
##드라이드
##고야
##고독
##23
##에네
##와함께
##LET
##스턴
##제대로
##지지
##무료
##포갈비
##세보
##야들
##야사이
##살구
##알찬
##전문
##전구이
##전기구이
##파불고기
##파김치전골
##파히타
##어썸
##특탕
##선데
##복국
##위틱
##1부
##1대
##1000cc
##죠리퐁
##하라
##해천탕
##시리즈
##그런트
##나주곰탕
##토부키
##까쓰
##티에
##티스
##티아
##콘피자
##양꼬
##양구이
##PO
##iri
##cus
##차오
##네프
##일식
##STER
##mag
##초크
##350g
##굴튀김
##삼정
##샤벳
##TH
##튜나
##구치
##fill
##닉스
##청크
##thi
##tory
##58
##요단
##통가슴살
##피카
##받이
##버기
##숯불고기
##way
##8개
##뼈전골
##향의
##참나물
##규어
##pul
##pin
##plant
##ula
##4피자
##디스
##벨레어
##쿠치
##봉지
##zve
##han
##단새우
##찰떡
##MT
##VEN
##근고기
##넘버
##쯔유
##BIG
##bound
##borough
##중화
##중독
##슬포
##농약
##겟버거
##촌정식
##FO
##FOOD
##콥샐러드
##워시드
##패키지
##룽포
##엑스
##깔루아
##겐모어
##별한웅
##활전복
##끄라
##끄럭
##져스
##곶감
##ㆍ우동
##여름
##맵소킹
##덥밥
##탱탱
##퀴리
##핵도그
##쨔오
##쟈스민
치즈콘
치즈라떼
치즈가스
치즈부대
치즈타르트
치즈바이트피자
치즈머핀
치즈멜팅
치즈갑오
ICE캔
##OTE
2인상
김치부대
김치비빔국수
해물계란찜
해물야끼소바
해물오꼬노미야끼
##카노카
새우마요
새우야채
새우완탕면
레몬케이크
레몬갈릭
레몬소다
레몬그린티
레몬캐모마일
레몬얼그레이
레몬스윗
레몬라벤더
매운족
매운김치
매운보쌈
매운단계
매운참치
매운국물닭발
매운닭똥집
매운양지쌀국수
치킨가라아케
모듬햄
모듬쭈꾸미
##수육보쌈
자몽비앙코
한우막창
한우내장탕
한우도가니탕
한우티본
음료세트
음료콜라
음료사이다
아이스모찌
아이스프로스트
순살꼬치
비빔메밀국수
##크림모카
딸기케이크
딸기레몬
딸기망고
딸기자두
계란사리
수제함박스테이크
수제함흥
수제담금
##김치칼국수
##김치뚝배기
10줄
감자별한웅
밀크바
참치모듬회
초코케이크
초코생크림
초코머핀
양념닭갈비
소고기라면
소고기해장국
소고기가지
소고기된장
연어와
블루라벨
1200ml
12조각
오징어한마리
오징어회무침
삼선매운
삼선자장
오리가슴살
고추치즈
고추쟁반짜장
##레이디
에스메랄
갈비곰탕
갈비레오
피자빵
차돌쭈꾸미
차돌로제
낙지칼국수
낙지직화
낙지해물전골
사이다1
망고피치
망고라씨
제육김치덮밥
야채순대볶음
유자애플티
##lad
##lato
전복아구
##말이국수
깐풍우육
깐풍왕새우
##돈까스김밥
##eter
허니치즈
허니아메리카노
허니까망베르치즈
순대탕
모카프라푸치노
과일프라페
버섯탕수육
버섯카레
버섯탕수
콜드브루화이트
콜드브루티라미수
매콤곱창볶음
얼큰김치찌개
얼큰갈비탕
얼큰설렁탕
짬뽕칼국수
화이트치킨
화이트포레스트
베이컨김치
베이컨숙주볶음
##감자세트
고기냉면
고기김치전
고기통만두
30치즈
복분자음
11am
카스카스
마늘후레이크
마늘전기구이
점심코스
##소스를
아구스페셜
##cco
제주옥돔
Bottles
허브삼겹살
허브윙스
삼겹살정식
##과일빙수
커피스무디
플레인크로플
등심사천탕수육
순두부짬뽕
순두부짬뽕밥
하이직
##해물짬뽕탕
더블업
스페셜모듬회
로제크림떡볶이
바나나스무디
튀김과
청포도쥬스
부대김치찌개
레드불
레드핫치킨
16개
##라이브
##라이프
평일13
##전복짬뽕
카라멜마키야또
마라전복
우럭회무침
##야채샐러드
헤이즐넛카페라떼
쭈꾸미우삼겹
해산물볶음
사천마라
기본M
기본주문
모둠고로케
300g이상
##애플쥬스
문어초밥
애플유자
메밀꽃
메밀막걸리
메밀부침
황태양념구이
황태계란탕
철판제육
철판콘치즈
##lyn
쉬림프로제파스타
##야끼만두
직화스테이크피자
##이즈미
더치큐브라떼
묵은지꽁치
##itan
##ited
대구전골
대구머리
안심쌀국수
354ml
날치알비빔밥
##모밀정식
생과일요거트스무디
명란밥
명란오일
크림치즈와플
어묵국수
국물쫄볶이
말차초코
말차크림라떼
왕새우꼬치
부추해물전
팔보쟁반짜장
양념치킨소스
일품돈카츠
교촌치즈볼
##리아니
##고추짬뽕
장어소금구이
##수제차
##간장절임
골드스페셜
골드리치
아보카도에그
스팸계란말이
낙지볶음사리
##edic
우유빙수
쇠고기볶음밥
##르츠트
환타파인애플
생강청
꽃게양념
한방녹두삼계탕
깐쇼불갈비
깐쇼작은새우
돌체콜드브루
모짜렐라스팸
패션푸르츠
런치B
런치특선
숙성목살
여름계절
소세지볶음
##음료수
능이한방
라임차
고추장삼겹
삼겹정식
##iscus
바베큐맛
##ress
들깨탕
들깨한방삼계탕
하우스막걸리
##ieo
2012
보리숭어
우거지순대국
##토마토샐러드
##토마토스파게티
왕만두튀김
케이준프라이
CORON
##고구마튀김
##소고기덮밥
겨울별미
닭발구이
클래식프레즐
베리에이션
흑임자크림
주말가족
주말및공휴일
특선모듬
특선카노카
돈가스정식
##망고쥬스
##안심스테이크
야끼오니기리
서울냉면
##ried
오레오스무디
##문어조림
스파이시포테이토
아몬드봉봉
아몬드코코넛라떼
산토리프리미엄
영양밥
영양부추
자스민차
아이소메
Spell
명품아구찜
현미팥
##CHI
한돈숙성
추어숙회
관자고추볶음
꽃빵추가
베이글세트
##ESAR
##부추잡채
대추생강
마른생선찜
와규베스트
핫치킨MVP
12yrs
19도
민물새우튀김
오븐바사삭
##게리따
##une
갑오징어무침
##메밀면
인절미라떼
요거프라노베
즉석치즈떡볶이
##반반치킨
우니추가
Sausage
##ZEL
빨간소떡
프레스
카츠볼
로스트갈릭
로스트비프
##한우육회
멸치견과
작은넘
##그린커리
소라와사비
소라데침
뼈없는닭갈비
시래기순대국
24pcs
맑은조개탕
꽁치김치조림
곤드레돌솥밥
후레쉬망고
함흥회냉면
생등심돈까스
마약왕갈비
곡물추가
##라임에이드
홍소명태
스페어
양파튀김
오이냉채
와사비크림새우
소곱창떡볶이
##대창덮밥
한라봉티
발베니12y
아마애비
크랜베리그릭
핫도그퐁당
12YR
해물짬뽕나베
모짜렐라치즈추가
황제물회
생우럭구이
##agna
식사용
Shots
셀프초밥
양배추샐러드
with랍스터
##ustac
##직화족보
머리고기수육
하몽과
인삼라떼
453ml
허니버터치킨
##날치알주먹밥
날개피자
차돌된장술국
프로슈토와
그랑데
트로켄
그릭콜로지
민어지리
놀부단호박
놀부직화족보
추억의호떡
가오리회무침
Mark
소프트쉘
콰트로포르마지오
15years
선물이에
디아볼로
스지오뎅탕
다이키리
##카라멜모카
뿌링소떡
북경샥스핀
참소라무침
요리세트
초등생
##베이글샌드위치
Carpaccio
참숯구이
냉동삼겹
덴뿌라우동
크런치새우
##찹쌀떡
버터구이오징어
아라비아타
샥스핀찜
얼큰이칼국수
17년산
해물모듬물회
##깐풍육
싸이끄럭
##그릴토스트
2008
Passion
사이공맥주
순수요거트
탄탄나베
야마야
##요거스무디
오후3시30분
구름찜닭
이슬차
choice
##캐모마일티
참치김치김밥
참치김치주먹밥
마르게리타피자
간사이오뎅
할매토종순대
놀래미회
심술7
행복간장찜닭
행복고추장찜닭
고소미
오니타이지
생면사리
##리조토
별미국수
맵기3
바다장어구이
화덕초벌
쯔란소고기
쯔란심관
블랙앵거스스테이크피자
서대무침
제주흑돼지목살
SALMON
##우롱티
하겐다즈아이스크림
달콤한나의
네기토로
한우소곱창
까치복수육
굴비백반
민트초코칩라떼
아게교자
매운해물쌀국수
CHEF
낙곱새전골
논알콜프룻마가리타
##채끝등심
베네치아
sparkling
불사조
냉이된장제육덮밥
포르치니버섯
아카시아
Barrel
향라육슬덮밥
카시스프라페
그냥김밥
간풍육
생생레몬에이드
시그니처70아메리카노
시그니처70카페라떼
상큼자몽
standard
Anc
귀리우유
몽키47
팔진초면
트리플베리에이드
달인피자
##ERICO
##디핑소스
사라다빵
육즙가득
BURT
바른김밥
찐새우초밥
가마솥국밥
분모자떡볶이
이동양념구이
카버네소비뇽
##oklyn
##AGU
독도자연산
응급실국물떡볶이
쿼터캐스크
백년고독
오토로
주전자막걸리
##opia
화끈불찜닭
치즈폭탄찜닭
CARAM
Jackson
가쯔돈
매운불양념
Dessert
낱개튀김
낱개초밥
##가쿠니
김치나베우동
로네펠트티
찐맵치킨
IBERICO
BASIL
해물모둠볶음
##블렌드티
빨강떡볶이
프란치스카
어깨살
칼집삼겹살
##브로콜리
송화단두부
통감자새우피자
##주먹고기
누가크래커
ALL미트
머드하우스
##KYO
하나기자쿠라준마이긴죠
Medio
아메라
크렘브륄레
헤즐넛라떼
로마노
1988
Fines
우메슈
프랄린
##herita
킹콩부대찌개
##궁중불고기
##코우지
한우우족
SEAFOOD
Slice
shrimp
혼밥세트
##rise
치즈폭포순살
필리치즈
소맥세트
월계관준마이750
리스칼
몬탈토
보데가
야시장라면
한방수제닭꼬치
한방수제파닭꼬치
Basic
##모듬전식
fries
grey
마음이
벽제개성
김일도냉면
450cc
JOSE
SOFT
동백꽃
샤오마이
Belg
솔티드카라멜라떼
쉑쉑양꼬
팔선이과두주
스타셰프시그니처
오도독살
글로벌레전드
1일전
가라아케
로사토
수수부꾸미
아바이순대
Montepul
Neua
TOKYO
통갈비김치찜
오뎅꼬치우동
대새핫블랙스페셜
##ienna
MARGAR
캐밥볼
##파워볼
##플래버
##패밀리세트
Island
홀스래
Margherita
굴매생이탕
요과기정
바삭담백한후라이드
내가만든
네비올로
코케허니
해바라기
흑삼한방삼계탕
우리콩감자탕
SLICE
스패니쉬
##레아스
철판해물볶음밥
철판모듬소세지
마인크랑
슈페리어
팝핑보바
##ORIZO
마사하루
모다카레
미도인
야들야들
##그래네이트
매운해산물쌀국수
달콤바삭치즈볼
뉴욕스트립스테이크피자
prosciutto
묵은김치찜닭
박속연포탕
벼락국물떡볶이
Degustac
SANDWICH
유러피안
##연탄구이
매콤시래기명태조림
베스트콰트로피자
블랙타이거슈림프피자
시리얼칠리크랩피자
대새레드스페셜
Cezve
manzo
리미티드
엘토키
올리비에
토론테스
홍굴이
##불사조
##월남쌈
베리메리마테
##ONNAY
에피타이저
개구리다리튀김
겉바속촉
노루궁뎅
도나쓰
돈나푸가타
모쯔나베
비앙카
삼천포
서서갈비
소아베
스컬핀
원산지
일레븐
##키자미와사비
매운꼴뚜기볶음
에스쿠도
서울핫도그피자
CHARDONNAY
참이맛감자탕
Avocado
Kendall
Semana
달곰만쥬
미드나잇
쿠차라
페드리에
망고소르베빙수
트러플포테이토스틱
오후9시반
카제노모리
CIDER
TYPE
Tignanello
draft
간창치킨
김실력
네네스위틱
도지마롤
로메스코
르사이트
매란방
맥플러리
벤리악
붐바스틱
소잘라떼
스털링
이니에스타
이일레스티
킹푸레소
톡쏘는
##magg
##thiopia
##통가슴살버거
레몬스윗플럼
수제담금차
감자별한웅큼
에스메랄다
모짜렐라스팸계란마리
Spellbound
와규베스트플래버
with랍스터볼
선물이에요
달콤한나의고구마
프란치스카너
벽제개성만두
쉑쉑양꼬치킨
글로벌레전드4피자
Montepulc
Degustacion
0고
1고
1g
1k
1컵
1사라
1Box
2고
2회
3고
3쪽
3구
4호
560g
6꼬치
6셋트
75g
950g
Ap
AGE
Aber
AFF
B정식
Bay
BOMB
Cin
Cro
Combo
Fix
G세트
JA
My
MU
May
MINI
Mozzarella
Nach
Nect
ORE
PINT
RAGU
S코스
Sol
SUM
SUP
Sout
Stew
Snow
Ti
Ts
TER
TIG
TAG
TIRA
VA
VE
Vi
Vol
Vign
WA
Wit
Waffle
Zin
bone
can
combo
oz
po
ro
soup
tender
ve
we
water
감사
갓절임
건진
건새우
계떡
고운
고봉
곰취
과자
광양
괴물
구엘
구보타
기운
기분
김선생
까리
까뮤
꼬레아스
꿀막걸리
꿩만두국
나리
나우
나이트
냉라면
냉삼겹살
냉삼겹
냉묵사발
넓적
넵머
능소
다래
다방
달바
담금
당신
덜매운
덩어리
데판
도리탕
도야지
도삭면
돈목살
돈불백비빔밥
동고
동래
동윤
두루
둘둘
듀얼
드실
라오
라바
러버
레빗
로프
로미오
루카
르플레
리코
마구
마가리
마타리
만죠
만가닥
맥시칸
메이드
모스
모차
모란
모스카
모서리
목항정
몰리노
무설탕
물고기
물밀면
미야
미엔
미러스
바로
반코스
백차
백돼지
백짬뽕밥
버무
버본
벨리
벨즈
벨라스
복고
복탕수육
봄참나물
봉구
부뚜
불난
불만두
불사리
불쟁반짜장
비오
비엘
빈센
빠삐
빵새우튀김
뻔데기
뼈해물찜
뽈락
뽕골레
뿌려
삐뚤
사보
사쿠
산수
산낙
산야초
삼곱
상어
새조개장
샌디
생우동
생버섯
생배추
생자몽에이드
생도미
생오겹
선샤인
세오
세코
소불
소위
소노
소이크
소룽포
솜사탕
쇼가
쇼부
수와프
술도둑
슈렉
스토
스내
스폰
시가
시치
시덕
시실
시보리
신불찜닭
썬드라이드
씨즐링
아샷
알아서
앙리
얇은
양식
어죽
에드
에이스
에르미
엔다이브
연희
연하게
연인세트
연잎차
열혈
영동
오자
오만
오와
오자몽
오도리
오자몽에이드
와사
완숙
요새
우가
우미
우마
원글라스
웨스턴
은이
이카
이품냉채
일호
자오
자약
적새우
조야
조닌
존스
종이
주전
지글
지단
차우
차닭
차뽕
참도미
천지람
천비향
청화
초딩
치라시
카드
카밤
캄포
캐논
캐스트
캐비아
캐릭터
커스
커티
컨디션
컬렉션
콘차
콩가
콩국물
크래프트
크라임스
클렌
키츠
킹프라운
타마
타고
탈리아
태안
토하
토레스
통치킨
통갑오징어
특가
특모둠
티타임
파운
페논
페르디
포숑
포두부
포슬포
푸아
푸리시마
플란
피로
피순대
피닉스
한점
한박스
핫불
핫치즈
핫양념치킨
핫살사
핫치즈불닭
해녀
햄구이
향신
허벌
헬로
혈관
형제
형가원
혹은
홀릭
홀리오
홉노브
홍자몽
화권
황고
회세트
휠렛
흰쌀밥
히비스
##가닉
##가요
##가린
##루왁
##사브
##자로
##미즈노고토시
##킨치
##카니
##레라
##라쿠
##라데
##마차
##마키아토
##속젓
##만찬
##오카
##오버
##오픈
##오다리
##오곡라떼
##산채
##금액
##막살
##막대
##리트
##리수
##테린느
##크리어
##브스
##브륏
##타타키
##도수
##우지
##우야
##동이
##베기
##프란
##프루트
##르치
##보탄
##바우
##비끼
##고수
##고래
##고블린
##주얼
##주는
##주택
##2부
##2피스
##수끼
##에로
##에빠진
##와비
##와땅콩
##스톨
##스태미나
##지글
##진토닉
##포카
##포유
##판나
##파오무쌉
##특가
##특제
##선방
##큐라소
##회식
##렌드
##넛츠
##1장
##노스
##노틱
##생라면
##생오리
##하닭죽
##물냉
##시리얼
##그로
##냉우동
##밀맥주
##토피넛
##콩물
##장떡
##장정식
##gl
##까쇼
##까나페
##OK
##DOC
##다이긴죠
##PUL
##car
##cat
##니와
##니타스
##신안
##네일
##일라
##페어
##lour
##게띠
##코르마
##39
##굴라
##샤쿠
##oon
##dronach
##ni
##fan
##ted
##57
##통목살
##피처
##받은
##민어탕
##버릿
##종합
##환타
##wood
##쉐리
##린지
##츠케
##8inch
##6종
##헤드
##대야
##의정
##명주
##디치
##디카페인
##누드
##왕꼬치
##연포
##연인
##링롤
##호이
##호프
##호지
##엽살
##저스
##UB
##갸또
##MIS
##ved
##VET
##근위
##거면
##내음
##박사
##목이버섯
##편백찜
##홍탕
##퍼커
##앞다리
##띠에
##띠네
##띠여우
##뚜르
##젓국
##컵빙수
##옥면
##좌빙
##솔솔
##혼죠조
##평채
##잡곡
##캐슬
##ja
##덜미살
##빌베리
##델루나
##땡면
##견주
##첼리
##홀리데이
##닷가재
##뚱캔
##톳쌈
##뒤론
##뀌베
##JA
##낚지
##늑간살
치즈라
치즈찐
치즈치킨
치즈계란
치즈스프
치즈바사삭
치즈참치김밥
치즈케잌
치즈시즈닝
1인피자
카페쓰
2인추천
세트11
김치돈가스
김치빈대떡
김치찐만두
김치콩비지
##otan
해물야채
해물부대찌개
해물닭한마리
해물뼈다귀
##새우볼
새우치즈
새우우동
새우요리
새우오일
새우춘권
아메리카노리필
레몬요거트스무디
레몬허니
레몬페퍼
매운돼지
매운야채
매운불닭
매운닭날개
매운데리야끼
매운굴짬뽕
치킨도리아
치킨할라피뇨
모듬짬뽕
모듬가츠
모듬조개탕
자몽청에이드
##마리치
##정식A
##정식B
한우사태
한우설화
한우업진살
음료1
##짬뽕전골
순살치즈
순살커리
순살아구찜
순살전용
순살불사조
비빔사리
비빔짬뽕
딸기쿠키
딸기레몬에이드
딸기크림라떼
볶음공기밥
수제등심
수제버거
수제오뎅탕
수제바닐라
수제매실
18도
감자구이
##비빔쫄면
세트메뉴0
카라멜크림라떼
밀크크레이프
##우동나베
참치샌드위치
참치특초밥
초코케익
초코라뗴
양념닭발
양념돼지
소고기우동
소고기간장
연어플래터
블루큐라소
돼지한판
돼지생갈비
오징어전골
오징어떡볶이
샐러드추가
음료수콜라
삼선냉채
삼선차돌
고추참치
고추마늘치킨
에스페셜
차돌짬뽕탕
차돌탄탄나베
차돌백이
낙지아구
##00CC
망고멜랑
망고링고
제육구이
야채철판볶음
야채볶음면
콜드부루
유자탱탱
##gen
전복소갈비찜
전복영양밥
광어우럭
광어회무침
블루베리차
그린자몽
깐풍전복
깐풍강정
우동볶음
스테이크햄
##짜장볶음
##etto
허니브라운
허니멜론
##inum
##ETTE
불고기볶음
불고기바베큐
불고기낙지전골
페퍼콘
된장찌개와
간장버터
간장레드
간장똥집튀김
요거트볼
모카크림라떼
과일라떼
##eray
매콤비빔
매콤참치
매콤후라이드
매콤양념치킨
매콤참치김밥
매콤멸치
매콤김말이
매콤낙지덮밥
##초코케이크
##초코프라페
얼큰해장
얼큰해장라면
얼큰국물닭발
얼큰쌀면
##감자피자
30p
11P
마늘스태미나
매운맛양념치킨
##소스와
##소스의
##eater
아이스티복숭아
그린티카페라떼
그린티프라푸치노
아구와
아구해물찜
아구지리탕
제주갈치조림
제주생오겹살
삼겹살백
삼겹살과
##낙지밥
초콜릿루이보스
15P
오뎅매운탕
커피우유
등심사리
칠리라구파스타
##해물우동
페퍼민트루이보스
스페셜라볶이
로제치킨
로제스파게티
바나나쉐이크
##모듬떡볶이
##모듬보쌈
##모듬사시미
##모듬물회
청포도막걸리
미니식빵
미니붕어빵
민트카페라떼
반반만두
반반돈까스
부대세트
복숭아요거트스무디
테라맥주
한마리세트
##마요주먹밥
##코스B
마라상궈
##야채추가
1750cc
쭈꾸미구이
쭈꾸미제육
쭈꾸미샤브샤브
해산물토마토파스타
사천치킨
사천탕밥
사천찹쌀탕수육
사천등심탕수육
모둠만두
모둠해산물
모둠조개찜
수육김치찜
생선살
생선정식
생선매운탕
뚝배기소불고기
카레치킨
25°
애플유자차
애플민트티
산낙지탕탕
메밀물냉면
황태짬뽕
황태순두부
황태두부전골
차돌박이추가
차돌박이짬뽕밥
코코망고
흑당스노우
철판낙지볶음
37개월
2021
직화닭발세트
고등어초절임
쟁반냉면
사시미세트
사시미모리아와세
더치카페
더치아이스
묵은지돼지갈비
홍차밀크티
칼국수추가
비프홀리데이
루이보스시나몬
루이보스빌베리
##레드티
날치알돌솥밥
초밥3
에그랩
에그포테이토
명란가슴살
크림치즈추가
크림치즈김밥
어묵추가
연유라뗴
##ous
코다리회
숯불돼지
숯불돼지고기
찹쌀동동주
말차라뗴
크로포드
덮밥단품
먹태와
스프라우트
도미조림
##INK
##INES
우삼겹추가
##ULLE
와인콜키지
골드라벨
두부김치볶음
스팸1조각
##연어반초밥
쇠고기볶음
쇠고기샤브샤브
송이소고기볶음
타코가라아게
##umb
##igal
꽃게된장찌개
한방수육
바지락된장찌개
갈치회
Charge
글렌그란
글렌버기
글렌킨치
패션플
런치A
숙성한
숙성증류주
소세지카레
소세지꼬치
브루고뉴
##스페셜정식
스트로베리요거트
스트로베리쿠키
능이오리
코스1
훈제구이
##어묵김밥
고추장제육볶음
싱글빈
조개추가
조개칼국수
삼겹두부김치
##파이탄
된장비빔밥
떡갈비구이
달콤퐁당
COR
일반족발
바질치킨
구운김
##elch
토종옻닭
소갈비살꼬치
주말11
주말저녁
어향소스
##초콜릿라떼
자연송이해삼
토피넛샷라떼
소불고기도시락
어니언순살치킨
##25g
돈가스카레
##소세지피자
사골순대국
달고나우유
##쭈꾸미찜
##쭈꾸미철판
로스팅
##타이담
간짜장밥
우렁무침
간장새우정식
##문어우삼겹
##런치세트
스파이시디럭스
아몬드카라멜
시나몬티
시나몬카푸치노
22g
이상주문가능
쟁반짜장2인
알리오에
오일을
아이오
##프리콧
양지설렁탕
옥수수탕
옥수수치킨
미트칠리
매생이칼국수
##우유식빵
한돈돼지갈비
올리브치즈
커리덮밥
##tage
꽃빵연유
##모둠세트
대추라떼
대추쌍화차
와규스테이크
포장시
포장판매
19크
199
1924
CHORIZO
##12pcs
##12inch
##골뱅이숙회
홍게라면
##ppio
뼈다귀추가
##블랑카
360
갑오징어초무침
슈퍼곡물
인절미밀크티
오삼두루치기
즉석김밥
무뼈닭발볶음
바삭순살
아주매콤
Salen
Sauv
불닭소스
불닭바베큐
불닭마요구이
##르바레스코
씨푸드아일랜드
Cod
##오렌지티
앱솔루
작은접시
호두타르트
##생선회
부산식
껍데기볶음
아사히맥주
시래기국밥
##urn
전통맛
전통순대
전통갈비구이
가마살
스노우커피
앱솔루트보드카
맑은곰탕
소금양념
소금소스구이
##비프버거
통새우카츠
흑돼지오겹살
셋트B
발렌시아
설원고량주
섞어전골
토종닭능이백숙
##비지찌개
차이니즈
곡물빵
발렌타인17년
뉴욕치즈케익
콤보세트2
##2020
피노키오
자연산막회
##떡갈비피자
가자미물회
가자미세꼬시
가자미식혜
반건조노가리
몬테레이
##준마이긴조
한우차돌짬뽕라면
자두스무디
##사이더
B코스계절
크랜베리치킨
제철회
메기찜
##ORT
Glendronach
황제갈비탕
오마주
해쉬포테이토
해쉬베이컨
GRAN
##소다밀크
##라시오
##OUD
##cmX
콩비지탕
인삼튀김
##acon
찜닭덮밥
##돌솥쌈밥
##날치알밥
빠네파스타
볼로네이즈
날개반
콜롬비아수
북어콩나물해장국
돌솥밥포함
##irg
포르투
하얀순두부
##게살스프
##완자쌀국수
우리피클
홍시쥬스
리치몬드
아메리칸쿠키
대만망고
건강식
390g
소이갈릭치킨
베리베리와플
점보믹스동
Mars
Bruich
##복숭아티
슈프림양념
##얼큰수제비
채끝등심스테이크
Toast
주물럭등심
스지탕
스지오뎅나베
##1인세트
뿌링스
뿌링치즈볼
뿌링핫도그
북경고량주
숯불고기컵밥
##1700cc
생태지리
##명란밥
##명란마요
펩시제로
제주청귤블러썸
##바이오
##체다치즈
CAESAR
피스타치오라떼
능이버섯오리백숙
알뜰세트메뉴
알뜰셋트메뉴
해물쟁반짜장면
기린이찌방
2시30분
해물모듬찜
all
새우살튀김
Montal
모듬꼬치세트
애플시나몬와플
프리티
ALLA
##qua
##queray
##타르가
##대하구이
안티오키아
완도전복
죠리퐁스무디
바싹불고기오징어
바싹불고기제육
바싹불고기닭구이
스카치에그
까이팟
무알콜맥주
아란치오
비잔크리어
로스카츠정식
셋트메뉴1
흑염소수육
준마이긴죠팩
choco
부타가쿠니
샤워크림
스모크햄
탕수갈비
##코다리냉면
4Pcs
산삼삼계탕
##얼그레이밀크티
옹심이만두
주꾸미꽈리닭
모듬생선초밥
##돼지고기탕수육
베이컨치즈샌드위치
##PPY
연어뱃살덮밥
연어뱃살초밥
동치미막국수
가지튀김볶음
완자쌀국수
더덕구이정식
닥터로빈
42도
실속모듬
제주흑돼지오겹살
##도가니수육
대장부25
크루와상
##황태탕
##황태구이
고수무침
민트초코칩프라페
달걀말이
cappuccino
초코바나나라떼
슈크림빵
Take
알리제
통단호박
56도
선지술국
오크라
호유청경채
##ibre
pm3
염소무침
Beefeater
속풀이된장술밥
##mopol
리소또
strawberry
밀복찜
참게메기매운탕
Angel
몽키숄더
토쿠베츠쥰마이
325ml
치악산
포카챠
FRIT
아리랑
불짬뽕치킨
##세이하
##cake
##okie
강된장비빔밥
쉐프추천
아보카토
피자치즈라볶이
Italian
##스미스
우르겔
쫀득쫀득
김치참치찌개
잔치집
마테차
##iva
##noc
##활어단품
##arty
메밀묵밥
헤페바이젠
완전초코
완전매운맛
##40도
Cuba
나물비빔밥
CONTI
생일복숭아
카사블랑카
벌꿀라떼
마시멜로
##AIR
얼큰버섯순대해장라면
피치트리하이볼
마라룽샤꼬리
파르미
##열무냉면
궁보계정
초당옥수수
김가루주먹밥
3꼬치이상
Woodford
나루생막걸리
새끼보
슈슈버거
##베지터블
##안동찜닭
Platinum
Signet
레몬생강티
땅땅불갈비
오미가
우렁강된장삼겹쌈밥
북창동보쌈
##건두부무침
강황밥
Sunrise
날치볶음밥
창고43
페이버릿
BLUEBERRY
코크제로
##까이텃
생골뱅이탕
통등심돈카츠통핑
버섯들깨탕
이네딧담
##머랭쿠키
Benedic
순살반반치킨
아지매보쌈
남자국밥
마마에이드
유정란
잡곡식빵
차돌양지쌀국수
하나야구준마이
히카리
##타니스트
##OOSE
##메론설빙
시크릿양념치킨
고창복분자
구룡포과메기
이용한
##부타동
하쿠쯔루마루
다섯가지
신안지도
등심불고기구이
Corona
바르셀로나
설탕토마토
HAPPY
계피차
부귀중새우
토속촌
한신닭발
Nebbi
메가크런치포테이토
Prix
가로막살
다마고야끼
무릎도가니탕
벨로타
아티초크
밀크카라멜마키아또
실속형족발
대나무통술
MANZO
특색냉채
페이스트
회오리감자
볶음밥용토핑추가
신촌관
치밥왕
플렛화이트
##앙금빵
##CIANO
##쫀득이
##하와이안피자
고다치즈
빙탕설리
뿌리채소
사우어
어사세트
푸른밤
person
슈바인학센
화산계란찜
인절미마카롱설빙
Brooklyn
떡튀순
패스츄리도우
##플로트
##해초비빔밥
RESERVA
Especial
VEGAN
산페레그리노
묵은지고등어찜
OLIVE
##가오리찜
##병어조림
##ufo
김치카츠나베
모듬조개구이
콜드브루바닐라모카
한돈목살갈비
모로칸민트라떼
784g
고구마리치
무기시루
진심치노
##노츠키
매콤갈비만두
꽃송이탕수육통핑
Blanco
Jasmine
브랜디
오또코야마
품격코스
허파볶음
초밥5피스
Carmenere
BALLANTINES
시그넷
프랭크
##오후2시까지
##BLT
콜드브루크림넛
철판새우함박
COMBO
##허니버터브레드
TRIPLE
단테웨
말바시아
매달구
비니거
석굴찜
오이시이
후난식
##아사다
고등어자반구이
우드스톡
의성마늘떡
리몬첼로
스쿠너
시칠리안
야콘냉면
요하찌로
화이어윙
낙지버섯소불고기
제주펠롱에일
일품진로1924
호두고구마와플
Calamari
MONTEPUL
Tanqueray
두르뜨
백산수
슬라이더
주귀주
테누타
토미노호우잔
피냐콜라다
매운김치갈비찜
##laddich
평일13시이후
CARAMEL
Montepulciano
Aberlour
Fixe
OREO
TIGER
TIRAMIS
Zinfan
구엘포
넵머이
동윤영
마가리따
봄참나물문어우삼겹
부뚜막
비엘티
스내플
시치다
시실리안
아샷추
오만둥이
지글지글
차닭물쫄면
포슬포슬
##주택치노
##glish
레몬페퍼민트티
낙지아구연포탕
유자탱탱막걸리
마늘스태미나치킨
아몬드카라멜큐브케이크
B코스계절활어단품
Bruichladdich
##mopolitan
MONTEPULCIANO
06
1코스
1피스
1가지맛
1공기
25ml
2코스
2피스
225g
3L
3품냉채
4세
5구
660g
7인
724
9L
9시까지
AS
BY
Bai
Bell
Cloud
Cris
Crown
Curry
Citron
Ciro
EN
Ev
E코스
Einspanner
Ethiopia
Fla
Flo
FIL
FOOD
Fashioned
Ga
GA
GOOSE
Hor
HER
IMA
Je
Jim
Jean
Lang
Mi
Mak
MOUT
Nature
On
Po
PU
RIC
RUS
SR
Sam
Smo
Scho
Sugar
Sirloin
TAN
T샌드위치
TEM
Up
Va
Vit
Villa
blanc
burger
bacon
cru
curry
king
lev
pin
plat
ragu
sour
vin
가꾸
간딴
갈은
감동
갓지
갱시기
검을
고딩
구르
굴랍
굴삼계탕
굴회무침
굿포유
궈보
궈바로우
그렌
그집
금성
까프레제
깐펑
꼬친
꼬냑
꿀소스
꿀대추
꿀호두
꿩만두
난꼬츠
너트
넷이서
노이
노탄
노스트
녹파주
누디
누룩
누릉지
느억
늘품
다랑
다담
닭파
닭윙
닭치고
당일
대딩
대체
대도미
더진한
덮면
덮고
델라
뎀푸라
돈차돌
돈커리덮밥
동평
동학
돼꿀
두가지냉채
둘이
디비
디스
따라쥬
딴딴
떡칼국수
똥카롱
뚜렌
라사
라야
라시
라피스
랑데
러블리
레트로
룩벨레어
류육단
리카
립아이스테이크
마운
마블링
막내
맘마
맛차
매생
매코미
맥콜
모두
모레띠
몽라
묶음
문의
민찌
밀양
밀싹
반샤쿠
발리
밤새주
백마녀
벨루
보테
보르
보뱅이
보타르가
복맑은탕
볼락
뵈르
부루
부들
분량
불마녀
붕어빵
브랜드
블라
블랜
블래
비포
비밥
비용
빅치즈스틱
빈땅
빨봉
뽈지리탕
삔초
사또
사시
산나물
산고등어
살고기만
생레몬차
생도넛
생돼지김치찌개
서래
서오릉
석식
석관
선호
성북
세르
세마리
세인트
섹시
셀라
소적
소갈비탕
소토닉
소살치살
소방어
수미
순우유
숭룽
쉐퍼
스플
스토리
스트리
스나기
시카
시래
싶은
쌀식빵
썬드라이
쑥스
아루
아히
아잉
아모르
안델루나
알볶음밥
압생트
앗차
약초
약도라지
얄리
얼룩
에고
에콰
에비스
영귤
영월
오복
오감
오목
오란다
오와리
옥수
옻술
와카
왕소금구이
요이
요크셔
용왕
우둔
운남
육개
육식
육반연반
으깬
이사
이된장
이니스
장화
장상
장흥
전국
정열
종류
죽추가
준마이다이긴조
줄리아
중딩
중순
지니
진지
진장
진셍
진피즈
짜2
짜글
짜짜
짬짜
쫄돈까스
쭈보세트
찐전복
차림
참갈비
참장어
첨가
첵스
초장
최루
춘향
츄앤
츠꾸네
츠카사
치폴
카베네
카라미소
칼수제비
케사디아
코발
코랄
코프타
코롯케
콘길
콘소메
콜린
콜리플라워
콤포트
콩고기
쿠치나
퀸타
큐슈
크룩
큰판
큰넘
클래스
타타키
탐라
태극
텐손
토뽕
통항정살
통모짜
통치즈카츠
트라디
특트러플
특왕갈비탕
특회정식
특자연송이
파소
파래
파무침
파시스
팥이
팥스노우
펑리수
페탈
페브르
펭자몽
평안
폴더버거
표현
프리즈
프렌즈
플랑
피뿔
하양
한냄비
한주전자
함경
핫봉
핫간장
핫토마토
핫바닐라
핫바비큐
핫시크
햄과
햄토스트
햄김치컵밥
햅쌀
햇님
향의
향시럽
헐크
헤물
현대
호린
호차오
혼다
혼죠죠
홀인원
홍일품
화포
활력
황복
황생
회초밥
흑도
희레
힐링
힙노틱
##가나슈
##케찹
##미미
##킨슈
##레야
##레세르바
##이아
##치새
##au
##ymus
##달님
##반죽
##쌈세트
##쌈냉면
##만조
##만의
##만자로
##만호이
##오면
##오야
##오우동
##산삼
##정탁
##리쎄
##크뤼
##즈루
##한촌
##슈타이
##우룡해삼
##우나기
##로덕
##로변경
##서드
##르델레
##보감
##소왕갈비
##바니
##쇼추
##비바
##랑고
##러빙
##러니티
##드라
##고당
##고갈비
##고피자
##주아
##2조각
##수상
##수프림
##수정과
##와노츠키
##무국
##무엉
##화당
##불낙전골
##판왕
##백짬뽕탕
##야슈
##알튀김
##전장
##파무침
##어향
##특양
##1접시
##1박스
##노바
##노교
##새알
##새조개장
##새전장
##생생
##물에
##시라
##시래기밥
##시트러스
##나파
##나더
##모트
##모이
##모나타
##토지
##조사
##장군
##gle
##gos
##ganic
##grey
##까데
##떡순튀
##티스무디
##유즈
##유림
##추안
##OIB
##DB
##DRI
##닭불고기
##빵빵
##갈이
##곰장어
##다케
##다래
##다볼라
##니스트
##네디
##뉴욕
##페레
##ma
##lom
##lborough
##게이샤
##초고
##초빵
##코트
##코크
##36
##300ml
##완즈
##꼬와사비
##구세트
##원특밥
##끼리
##발론
##텔레
##IER
##Iced
##CT
##C세트
##HO
##셀프
##부산
##tle
##통갈비
##통새우
##칠리에
##칠면조
##당고
##당콩볶음
##꽃게장정식
##wa
##쉐어
##츠유
##8종
##8조각
##6ml
##헤페
##허그
##키즈
##아까미
##uch
##uit
##RED
##점보
##상한
##누이
##누릉지
##벨로
##방세트
##옻오리
##칼칼
##링구
##봉커리
##hia
##릉도
##족찜
##단케이크
##뽀위
##남보
##KET
##저리
##느리
##분모자
##vp
##쯔마
##멘티노
##클리
##클라시코
##bble
##히야시라이스
##홍련
##핑거
##엔테
##들러
##공주
##실속
##팬치즈
##넬로니
##잔치
##잔떼
##푸짐
##깨밥
##솔루트
##혼밥세트
##앤몰트
##똠양
##쿨링
##칭구
##잇콘
##잠뽕
##햇복분자
##뻘낙지
##꺼비
##썬라이즈
##´S
##쩡쨔오
##웍스
##끓인
치즈참치
치즈소세지
치즈버터구이
치즈육포
1인1
HOTOnly
세트12
김치오뎅
김치고등어
김치통만두
김치가쯔
김치구이삼겹
##치즈만두
##치즈라면
##치즈에그
##치즈막대
##oto
해물떡찜
해물굴짬뽕탕
새우게살
새우샤오마이
레몬모히또
레몬마테
매운해
매운볶음밥
매운순살
매운오뎅탕
매운치즈돈까스
매운구이삼겹
##arin
치킨안심
치킨리조또
치킨까르보나라
치킨휠레
모듬바베큐
자몽소주
자몽하이볼
한우미역국
한우내장전골
한우스지
한우새우살
한우파김치전골
##cen
##스타샤
크림돈까스
크림양파
바닐라아메리카노
순살닭볶음탕
비빔소바
##크림우동
##크림콜드브루
딸기티
딸기퐁당
계란게살
수제육개장
수제돈카츠
수제사과
수제물만두
##불고기비빔밥
##ler
##leit
185g
##김치주먹밥
감자떡
감자볶음
감자부침
감자퓨레
카라멜프라노베
##우동볶음
참치추가
참치마끼
참치불초밥
초코파이
초코와플
초코나무
초코스콘
초코프라노베
초코오레오
양념변경
양념갈매기살
양념히어로
소고기세트
소고기감자
소고기토마토
연어아보카도
연어키자미와사비
12구
12곡
돼지감자
돼지삼겹살
오징어소면
오징어돌솥밥
샐러드가츠
##allachie
오리한방백숙
고추부추전
갈비우거지탕
피자오븐돈까스
낙지젓
낙지짬뽕밥
에스프레소프라노베
망고패션
망고치즈케익
고구마케이크
제육돌솥비빔밥
야채구이
야채세트
유자몽
유자고추
##lay
전복초밥
광어무침
광어고노와다
그린레몬
깐풍탕수육
라면땅
라면포함
스테이크를
허니벌꿀
불고기파전
순대수육
##브루쪼
간장제육
간장돼지갈비
요거트요프치노
모카프라노베
모카스타우트
과일황도
##프라이스
버섯볶음
버섯찌개
버섯샤브
버섯크림파스타
오렌지파인애플
콜드브루원액
매콤궁중불고기
만두수제비
만두설농탕
얼큰오뎅
얼큰차돌
얼큰한우
얼큰칼제비
얼큰돼지국밥
##ane
##카레세트
화이트크림
화이트라구
##감자국
##감자볶음
고기반
고기짬뽕밥
두부피
##ARI
##ARELLA
##AROSA
계절야채
마늘곱창
마늘스틱
마늘닭도리탕
##ssel
점심11
##삼겹찜
##allop
스파쿨링
생맥주1000cc
SET7
##양념통닭
돈까스볶음밥
그린티프라노베
##cci
허브순살치킨
##낙지탕탕이
1551
오뎅김치찌개
칠리윙
##해물나베
페퍼민트차
##오징어전
더블에스프레소
100gr
##모듬꼬치
##모듬한판
##모듬해물요리
청포도모히또
후라이드한마리
반반게장
반반한피자
부대햄
부대찌게
복숭아홍차
레드자몽에이드
##마이포
##코스A
14세
14P
캐모마일레드티
마라떡볶이
마라쌀국수
마라양갈비
##계란덮밥
우럭물회
우럭통구이
누룽지삼계탕
쭈꾸미샤브
쭈꾸미쌈밥
해산물샐러드
곱창만
곱창찌개
곱창떡볶이
곱창부대찌개
모둠감자
모둠어묵탕
수육한접시
갈릭마요
갈릭콘샐러드
골뱅이반
오리지널에그
##ens
##ente
##enache
돌솥치즈
돌솥오징어
돌솥제육
생선머리
생선내장탕
뚝배기탕
뚝배기김치찌개
뚝배기굴밥
카레순두부
카레고로케
산낙지비빔밥
메밀비빔냉면
메밀비빔막국수
황태칼국수
황태콩나물
황태해물찜
황태떡만두국
황태미역국
차돌박이된장찌개
흑당치즈볼
트러플바질
쉬림프피자
쉬림프파스타
쉬림프크림파스타
쉬림프칠리에
직화국물
직화제육볶음
직화쭈꾸미볶음
직화족발세트
직화매운족발
##oria
##or새조개장
쟁반모밀
##조각케이크
##ANI
포테이토짜용치킨
양장피셋트
대구해물탕
대구머리탕
파인볶음밥
비프카레
비프샐러드
##베르토
안심콤보
리얼밀크티
3550ml
아이스크림추가
아이스크림카페라떼
초밥용
에그스
에그치즈
명란덮밥
명란오일파스타
옛날순대
옛날소세지
옛날편육
진로햇복분자
어묵채
어묵라면
코다리강정
코다리시래기
쌀국수M
세트메뉴17
숯불꼼장어
말차화이트
부추보쌈
단호박크림
단호박스프
구이야채
게살죽
게살샐러드
게살고로케
게살로제
##ERIAL
##ERVO
목살김치찜
버터크림
버터야끼
버터크림라떼
쫄면순두부
도미구이
버블크림밀크티
##수제돼지갈비
##esame
아보카도와
아보카도추가
스팸과
##마늘볶음
##콤보도시락
##연어사시미
##자몽주스
##제육도시락
파인애플떡갈비피자
쇠고기순두부
쇠고기탕면
송이쇠고기
##ican
프리미엄SET
##순살세트
꼬막부추전
##igat
꽃게라면
꽃게무침
한방갈비탕
한방왕족발
갈치속젓
전골볶음밥
Chi
Char
##내장추가
오징어볶음사리
민트초코프라푸치노
브루어리
##스페셜샤브
콩나물순대국
일품진로세트
능이전복
돼지고기탕수육
##수제비짬뽕
##어묵튀김
블랑쉬
유기농허브차
피치크러시
##하이라이스
쿠키슈
##샌드위치박스
디카페인으로
된장짜글이
코카콜라제로
들깨떡국
##이시스
깐쇼새우세트
우거지국
달콤한맛
달콤닭강정
##소고기볶음밥
##소고기비빔밥
호가든생맥주
닭가슴살스테이크
유부초빵
일반정식
눈꽃모듬
구운새우
##elv
##참치비빔밥
소시지야채볶음
마르케스
##조개볶음
어린이정식
어린이짜장
##버블요거트스무디
크리스피반
오늘의싱글오리진
생굴추가
소불고기백반
프로슈
프로스트
프로베토
##ONS
어니언스프
생크림X
생크림딸기
특선정식
돈가스카레우동
스노잉
프렌치렉
체리티
스윗블라썸
닭갈비정식
막창양념
감자전병
물회안주
##안심치킨
##뚝배기정식
야끼토리
##도로동
오레오라떼
오레오생크림
스파이시하와이안피자
시나몬애플
시나몬와플
양푼돼지김치찌개
깐풍육정식
Caymus
영양닭죽
영양왕갈비탕
떡국설농탕
곱빼기추가
12년세트
매실레몬
포도쥬스
명품곰탕
버팔로봉
2마리이상
한돈양념구이
한돈생삼겹살
올리브유
스타벅스커피
스타벅스돌체라떼
에비가츠
##비아노
##모둠꼬치
마른한치
믹스드
핫치킨에그
##골뱅이소면
홍게살
핸드앤몰트
하이트맥주
오븐순살
오븐스파게티
꼬치5종
메로간장구이
데리돈까스
슈퍼푸드
인절미팥빙수
인절미꿀떡
##로제리조또
탄산음료세트
바삭이
##보리냉면
체다베이컨
빨간짬뽕
안동국시
##허니브레드
프레도
Cobb
육전냉면
삼치조림
##한우등심
멸치쌀국수
멸치육수
##10조각
##스키야키
한판보쌈
시래기고등어조림
##ured
24cm
가마치즈볼
가마치즈막대
##adian
스노우러빙
맑은육개장
맑은오뎅탕
꽁치김치찜
스시단품
28개
28pcs
돈카츠마요
돈카츠카레우동
돈카츠야끼우동
머쉬룸버거
나쵸칩스
큐브시나몬라떼
흑돼지김치찌개
셋트2
셋트A
버드나무
섞어보쌈
2PM
2Pcs
생선까스정식
##밀리옹
보리굴비한상
보리굴비반상
참다랑어초밥
김치만두설렁탕
핑크솔트
부채살양념구이
메이보
콤보돈까스
포크슬라이스
##2016
양파돈까스
오이마끼
##당면잡채
랍스터테일
삼선간짜장면
모밀소바
양갈비구이
모과유자
크랜베리주스
제철사시미
모짜렐라치즈에그
눈꽃치즈치킨
##ORN
3시간
100ML
Glenallachie
쿠앤크요프치노
닭한마리칼국수
without
샤또네프
미소된장
차슈라멘
##크림치즈김밥
그레이비
양송이피자
##스노랑
곰탕콤비
수비드치킨
시즌추천
스노윙가마
스모킹
##육슬볶음
##라다이스
다리후라이드
약간매운
시골된장
##녹차빙수
포르타
##게살튀김
고구마치즈롤
병어구이
특양모둠
##숯불바베큐
우리돼지
잭다니엘스
키조개구이
대만감자
드라이에이징
건강주스
건강하닭죽
연탄초벌
##더블돈까스
참복불고기
나마쵸조
소이바베큐
##포크스테이크
가오리탕
베리베리요거트스무디
매생이굴탕
미나리꼬막비빔밥
Marlborough
##매실차
웰빙비빔밥
사이더
사이야슈
##복숭아아이스티
##소떡소떡
바이올
스지추가
##고추장바베큐
다이퀴리
낫또동
낫또군함
왕갈비쌀국수
##KEY
생태매운탕
##ids
##명란무침
##폭탄튀김
대게다리튀김
마구로타다끼
마구로낫또
BBQ소떡
Carte
제주청귤에이드
##흑돼지김치찌개
파이버
파이퍼
조개찜A
조개찜C
조개찜B
##바게트볼
CAVA
VIP스페셜
능이버섯백숙
베이비백립
Mosco
캐러멜라떼
캐러멜마키아또
50분
얼큰이탕
얼음동동
미니우동서비스
##UME
간재미회무침
스미스티
##그릴구이
돌판된장전골
##quel
소한마리한촌
드레프트
비스켓
특별메뉴
##요거프라노베
추천메뉴
터키쉬
43도
##영양곰탕
셋트메뉴2
셋트메뉴3
사이드카
새싹보리
썸머피치
##꽃게찜
크로와상샌드위치
##오돌뼈볶음
즈란신관
팝콘새우
마왕치킨
4PM
Pina
허니갈릭순살치킨
소대창떡볶이
##닭고기볶음
SHORT
크랩알밥
얼큰해물오뎅탕
감귤차
햄버거를
바다장어한마리
완자탕
퓨어바닐라
제주돼지모듬
서대조림
감베로
송화두부
커플세트A
##orted
치폴레크림
돼지막창구이
포트넘
##레이크림
러시안잭
Art
##소비뇽블랑
화이타퀘사디아
해물된장전골
블랙빈소스
블랙빈모듬해물요리
조금매운
직접담근
바비큐치킨
선지탕
히레카츠정식
맛있는윙
맛있는봉
바카라
##유부우동
주먹김밥
pm1
spr
수퍼수프림
##초코칩쿠키
튀긴소면
튀긴꽃빵
Bud
파파델레
광어지느러미초밥
##크레페
##고르곤피자
과일청티
시그니처70카페모카
시그니처70바닐라라떼
하모샤브샤브
고갈비구이
참게탕
생선회정식
얼큰소고기국밥
마이포
마라우육편
붉은대게
32p
반숙란
##leys
들기름두부
노랑봉투
##소이반
고기듬뿍덮밥
ROOIB
##브레첼
Grenache
MOET
MOZZ
MOCHA
임실치즈구이
##rawford
모리치노
델리치킨
사피톡스
사피루스
##ellar
아쿠아레몬
호지차라떼
PROS
수제과일잼
300G
머스타드소스
초벌후
take
쫀득살
##1마리추가
##ffein
스페인산
언빌리버블에그
살치촌
새조개샤브
새조개샤브샤브
세이슈
삼선해물짬뽕
비타민샤워
##살사피자
##nocchi
치즈폭탄피자
광동식탕수육
끼리치즈스틱
##QUI
해삼송이전복
MARE
암소한우
퀸즈랜드
치즈감자볼
치즈감자고로케
오렌지자몽주스
크레이지피자
3000CC
ARTO
넛츠프라노베
##3인분
화요17도
갈릭치즈브레드
가쯔동
가쯔나베정식
공보계정
마스터즈
홍초소주
##굴소스볶음
##가리비찜
메이커스마크
엔젤치킨
친환경주스
##열무비빔밥
트리플초콜릿무스케이크1호
이탈리아노
꿔보로우
브루잉커피
클래식가토1호
활우럭구이
##mony
##HERITA
Dip
애호박찌개
오사카풍
900ML
세미스위트
##사미아게
BUD
백골뱅이탕
##브로이
치포틀
665ml
핫불고기에그
##표고버섯
##ders
1984
Bert
carbonara
##heri
Suntory
청담동
페이머스
##키토바
오후4시판매
Indian
바디2
파스쿠아
CUERVO
Prosciutto
가락청국장찌개
본래순대국
본래감자탕
##구름막걸리
##앤비뇨블
Vintage
Bowl
추사40
골라먹는
남자피자
넘버원
특미초밥
주인장
특참치초밥
감자말이새우
살코기국밥
1시간전예약
DRINK
벽제설렁탕
조리퐁라떼
양송이크림
킬리만자로
스트로베리초콜릿생크림
스모어쿠키
ADULT
PALE
모스코뮬
빠따떼
소양념왕갈비
##avioli
Matcha
담소모듬
해창막걸리
Cane
Canadian
리스트레또
ABC주스
고래사황금올리브
53도
720ML
깐소중새우
매콤치킨마요덮밥
얼큰김치칼국수
필스너우르겔
Penley
무릎연골
뼈뺀깐풍기
죠젠미즈노고토시
치플윙봉
치플백립
##마카다미아
187ml
자연송이관자요리
MARGHERITA
Camus
경기도
나뚜르
멜랑즈
멜랑주
페이스트리
Bottel
Islay
Lux
아나스타샤
알레냐
토마토새우스파게티
깔끔하고
러스티네일
무안뻘낙지
완두콩
후안길
##와락치킨
##베이비크랩
키조개관자장or새조개장
Temp
신화쭈꾸미
알코올도수
팟카파오무쌉
매운양푼등갈비찜
순살치하오
토마토계란덮밥
고기드신후
Chili
3반순살치킨
CRIST
PATRON
꾸웨이띠여우
순살뿌링클핫
Bulleit
삼식이탕
서해바다
피터팬
##타루반
트러플향이
수제청귤차
파마산치즈가루
2Kg
Harmony
금화고량주
메스퀴드
삼해소주
쏸라펀
장뇌삼
퀘소볼
치즈돼지고추장바베큐
민트쵸코라떼
Cosmopolitan
백두산
브랑드
자유레
전설의
카키후라이
##솔로세트
미트스파게티에그
LABEL
가이서픽
Picc
바밤바라떼
이시가리
파미그래네이트
##마음대로
순살블랙올리브
돼지부속구이
막대감자튀김
미녀와
소생갈비살
오십세주
우국생
키리모찌
까르네아사다
무청시래기갈비탕
MEATBALL
디톡스노랑
알마비바
압구정
테레지아
폭스브룩
혼조죠
##대구뽈찜
1977
마리아주프레르
올드패션드
SPAGHETTI
CURRY
글라리마
노조양
미라클버거
삼양춘
오카네
총알오징어
펠리페
순살맛초킹
오후6시까지
훈제베이컨에그
Grigio
IMPERIAL
Rasp
송로버섯
우즈벡
카펠리니
호노로
##VENIE
고추치즈편
콜드브루화이트비엔나
쭈꾸미우삼겹볶음
메밀꽃술
핫도그퐁당치즈떡볶이
MARGARITA
노루궁뎅이
1glass
AFFOG
Tsing
TAGLI
vegetable
르플레브
삐뚤이
소이크런치
시덕션
에르미따
와사마요
캐논볼
치즈스프링클
소고기간장비빔밥
흑당스노우밀크티
글렌그란트
패션플룻
19크라임스
Nebbiolo
TIRAMISU
72420
Baileys
Ciroc
MOUTON
level
platter
간딴삼겹
갓지은
검을흑
꼬친새우
노스트로스
늘품구이
다랑어
석관동
소적두
아잉거
에콰도르
요이비진
이니스프리
장화홍련
장상궁
정열의
최루탄
츄앤리얼
큐슈짬뽕
특트러플전복죽
핫시크리조또
햇님달님
황생가
##슈타이너
##gosta
##떡순튀세트
계란게살탕
쉬림프칠리에그
가마치즈막대감자
스노윙가마치즈볼
Moscow
소한마리한촌탕
ROOIBOS
MOZZARELLA
ARTOIS
고래사황금올리브어묵
05
0단계
1모
2봉
2XL
3세
3코스
4장
4샷
44
4명
4000
5g
5일
5호
5번
5시까지
5set
5년산
6세트
600
680g
74
7호
8Y
At
Affogato
B2
B1
Bou
Bran
B셋트
Bun
Bod
BLEN
Best
Crawford
DAL
DON
Dooker
El
FE
FLA
Found
Gig
Gang
GOD
Gent
Gordon
Hol
HOL
Hak
IG
Ibu
JAMON
JMT
Ket
KOR
LI
Last
LANG
Libre
NU
Nut
Nero
Omelette
PO
PRO
PAIR
RAT
Rad
Raw
Sesame
Tol
Tast
Tua
TSING
VVIP
WE
WILD
Week
YEL
deca
free
gr
is
lamb
me
meat
mvp
potato
side
sandwich
vongole
vienna
가비
가토
가니
가요
가당
간고등어구이
갈추어탕
감칠
게내장
고비
고유
고베르
고릴라
곰돌이
공연
광주
광연
교차
구채
구지
구겔
구로기
굴회
굴족발
굴칼국수
귀빈
귀리미
규카레
그로
금풍
기계
기문
기절
길조
길쭉
김초밥
까베
까비
까살
까냐
까데
까테나
꼬빠
꽃새우튀김
꿀맛
꿀밤
꿀잼
꿀메리카노
꿀유자
나인
난과
난방
낮술
너를
네스
노엘
농촌피자
누보
다우
다옴
다다끼
달큰
닭사리
닭어깨튀김
대농어
덕후
데블스
도전
도치알
도꾸베츠
돌돌
돌새전장
동물
동북
동두부
동그랑
두배
두껍
디진
디종
딥초코라떼
따로
떡세트
떡토핑
뗌프라니요
또르
똠카
뚱이
뚱뚱
라보
라떡
라코타
란자
람부
레옹
레지아노
로렌
로저
롱티
뢰스티
루미
뤼들
리에
리즐링
리세르바
마불
마니
마코
마리오
마리스
막거리
만주
만강
맛계란
맥적
맥켤
맵크
머니
메디아
멘마
면가득
명량
모자
모에
모임
모습
모스크
모소리
모야시
모스케
목삼겹살
무료
무닭볶음탕
무농약
뮈스카
미성
민치
밀방
바타
바실
바르바레스코
반롤
반통
배비치
배양근
백돈
백종
밸런스
벌크
법주
벡스
변동
병맥
보타
보탄
보쉔
복만두
복어탕
본갈비살
부페
불육회
불라스
붓가케
붕어찜
브르
비알
비벼
비스콘
빵새우
뼈세트
뼈숯불구이
뽈때
뽈지리
산방
산타이
산문어
산나물밥
산우럭탕
산곰장어
상화
샘스테이크
생화
샤갈찜
서브미
성스
세우
세시
세뇨
세숫
세러니티
세키토바
센세이
소부채살
속살
손만두전골
쇼긴
수마
수르
수유
수진이
순정
순쌀떡볶이
쉐차
쉬즈
스킨
스퀴즈
시지
시티
시간
시추안
식물
신통
실레니
싸먹는
쌀소주
쏨탐
아트
아에
아딸
아망
아재
아리조
아프리카
아낙새
안녕
알래
애그
애프터눈
앤쵸비
약수
약10
양추가
양어깨
양저우
어촌피자
어나더
에라
에로스
엑설
엔살
여부
연우
연평
예야
예쁘
옌타이
오드
오아
옥면
온우동
온소면
옹기
옻계탕
왕대
왕십
왕계란찜
왕군만두
왕해물탕
왕쥐포
왕고기만두
왕김치만두
왕몽땅set
요와노츠키
우랑
우등심
우라가
월선
웰치
위치
위스콘
유주
육감
으깨밥
이싼
이스터
이가체프
이디야
이야기
익힘
인사
일도
임해설원
입춘
자작
잔와인
장원
전남
전북
전혀
전신안
정어리
제트
제티
죠셉
주에
주빠
중경
지로
진져
진라면
진하고
쫀도그
쭈새
쭈닭
찍고
찐한
찡따오
차광
천해
천리향
첩세트
청수
청고추
초면
초콜라
치자
치츠
치토스
칡차
카마
카에
카네
카운
카를로
캐럿
켄달잭슨
코지
코체레
콘노
콘빠냐
콜럼
클라
킬호
킬바사
타쿠죠
탕찜
탕평채
털레기
텃츠
테이스
토모
통오리
통고구마
통샥스핀찜
트라
트롤
트리오
특식
특참치회
티에이드
파냐
파사리
파르마
판메밀국수
팟킹
팬스테이크
퍼펙
페밀리
편백
포티
폭포
퐁퐁
퐁프라페
풀팩
프롯
프리시
플럼
피지
피렌
피맥
하슬
하회정식
한봉지
할아
할거면
함양
핫후라이드치킨
햄꼬마
호이
호중
혼족
홉고블린
화떡
활생선
후지
후끈
훈툰
휠랩
휴게소
흑오겹살
희래
히야
##가모트
##사께
##사히
##케시
##케인
##카쿠
##카버네
##카라구치
##레트
##트르
##트니
##라네
##이지
##이는
##치에
##치폭
##치세트
##마타
##마다
##마스터
##rin
##red
##ram
##ap
##ah
##aud
##yster
##찌꾸와
##반석
##만점
##만남
##오또상
##산채비빔밥
##걸스
##리꼬
##리밍
##크무슈
##또짱
##또는
##타슈
##황실
##도마
##도식
##도피오
##슈레제
##우설
##우러우
##로라
##로지
##베이스
##베마끼
##서울
##프랑
##프티
##프너
##르파
##르츄
##르체
##보트
##보이시
##꾸이
##꾸엘보
##소방
##소내장탕
##바겟버거
##비토
##드르
##드러
##드RED
##면추가
##고달
##고뜨
##주니어
##수오
##곱탕
##AGE
##스컬
##스모어
##지만
##지에
##지나
##지니
##무치
##포갈릭
##세키
##야린
##살사시미
##글라라
##알레
##알감자
##알곤이
##전어
##파냐
##파우더
##어복쟁반
##특대
##복불고기
##큐리
##과즙
##흑임자
##흑설탕
##두판
##찹스
##1팩
##노페
##짜파
##짜노
##새기
##하새우
##강스
##골프
##시키
##시보리
##안매운
##나흐
##나세트
##쵸사
##냉동
##토르
##육쌈
##gie
##까르보
##떡라면
##티시
##샷추가
##DS
##닭바베큐
##EAR
##NA
##NE
##if
##corn
##니동
##니기리
##신라면
##돌문어
##차지
##빠다
##빠에야
##메가
##일주
##페리
##페리오
##mig
##mel
##ls
##게란
##게요리
##초이스
##초새우
##코나
##3시까지
##굴탕면
##굴림만두
##삼총사
##oul
##namon
##TIN
##구워
##fish
##feat
##II
##YE
##부자
##부한
##부채
##부토
##부시장
##xand
##x10팩
##tto
##53
##9g
##퐁크러쉬
##인가
##요트
##피르
##피터
##피베리
##버켓
##버라거
##웰빙
##꽃새우
##80
##대장
##임실
##후렌치
##pet
##ub
##ule
##400g
##커니
##디저트
##디까사
##관음
##쿠르트
##왕교자
##연두부
##숙이
##칼만두국
##봉볶이
##즐러
##호랑이
##셔벗
##맛있
##ham
##멜롯
##천주
##센타마고
##남부시장
##찰빵
##UVE
##720ml
##문의
##MI
##MB
##MES
##MENU
##분량
##vor
##쥬탄
##클라
##클렌즈
##따뇨
##따델라
##BD
##퍼스
##핑백
##작렬
##슬림
##햄김밥
##앞발
##공룡
##깜슐랭
##절반
##팬볶이
##WAI
##뚜아
##효모
##패스트리
##론치노
##푸르트
##함박스
##되는
##온센타마고
##째로
##겐란드
##잡탕밥
##앤슬림
##캐슈
##캐러멜
##결제
##월넛
##잎밥
##쿨핀
##학년
##봐유
##엘로
##칭라즈
##쟁이
##여수
##맵스터
##쫀드
##쏙만두
##헌드RED
##탱글
##염갈비
##퀴스
##핵폭탄
##딱새우
##퀸즈
##었던
##랏세
##넥션
##젝트
##고기빈대떡
치즈반
치즈딥
치즈햄
치즈쭈꾸미
치즈로제
치즈브라우니
1인수육
카페깔루아
##갈비설농탕
##치킨윙
김치계란말이
김치돌솥밥
김치떡만두국
김치부대전골
김치생삼겹살
김치부침개
##치즈컵밥
##튀김우동
##otion
해물매운탕
해물국물떡볶이
해물녹두전
##새우전
소주토닉
새우버섯
새우베이컨
새우롤김밥
새우고기만두
새우칠리소스
새우벌집
아메리카노HOT
레몬파운드
레몬유자티
레몬청에이드
레몬마들렌
레몬스쿼시
##세트C
##덮밥SET
매운무침
매운제육
매운라멘
매운짜장면
치킨카레우동
치킨그린커리
모듬가스
모듬해물찜
자몽스파클링
##정식세트
한우갈비
한우머리
한우맑은
한우연인
##베리티
##베리스무디
##cel
아이스카푸치노
아이스에스프레소
크림드
크림해산물
크림돈가츠
크림젤라또와플
바닐라티
바닐라스무디
바닐라마카롱
순살텐더
순살닭튀김
순살맵스터
##크림초코
##크림고로케
##크림크로플
딸기비앙코
딸기라씨
볶음류
수제새우
수제애플
수제딸기
수제도시락
수제찐만두
수제멘보샤
수제생선까스
##led
##김치수제비
10인분
감자피
감자치즈
밀크커피
밀크버블티
참치한판
참치돌솥비빔밥
초코롤
초코초코라떼
초코라테
양념장
양념포함
양념닭강정
소고기국수
소고기콩나물
소고기만두전골
소고기피망볶음
소고기보신탕
연어한접시
연어돈부리
연어대뱃살
120ml
돼지곰탕
돼지고추장
오징어채
오징어사리
오징어파전
오징어철판
오징어쌈밥
오징어제육볶음
음료수사이다
삼선차돌짬뽕
삼선백짬뽕밥
고추볶음
고추라면
고추소고기볶음
에스코트
갈비단콩볶음
피자치즈떡볶이
차돌추가
차돌우동
차돌고추장찌개
4인상
낙지밥
낙지닭갈비
낙지부대찌개
낙지알밥
낙지복음
##무침면
망고쉐이크
망고아이스티
고구마베이컨
제육복음
프라이스
야채버섯
야채스틱
콜드폼
토마토미트
토마토바질
유자막걸리
유자하이볼
유자생강차
전복내장
전복영양
##말이밥
광어덮밥
광어김치
블루베리식빵
블루베리젤라또와플
깐풍작은새우
라면추가
라면정식
녹차버블티
허니티
허니몽
허니밀크티
허니마늘치킨
##inc
불고기맛
불고기떡볶이
불고기레드
순대꼬치
된장찌개백반
간장조림
간장닭갈비
간장대하
요거트와
요거트소스
요거트블랜디드
모카요프치노
과일핫티
##프라푸
버섯피자
버섯꼬치
버섯순대국
오렌지라떼
오렌지레몬
오렌지망고
오렌지한라봉
콜드브루커피프라페노
매콤갈릭
매콤크림파스타
매콤데리야끼
만두강정
만두설렁탕
얼큰양
얼큰새우
얼큰뚝배기
얼큰김치우동
##anmore
##샐러드볼
##샐러드피자
##샐러드김밥
베이컨드러
##감자편
고기와
고기보쌈
고기한판
고기손만두
고기주는
두부와
두부찜
두부김치찌개
두부찌게
두부수육보쌈
30PM
11ps
마늘향
마늘홀릭
마늘닭똥집
##등심스테이크
##등심카츠
##매운뼈찜
##매운등갈비찜
스파클
SET8
돈까스나베
돈까스커리
돈까스쫄면
##순대탕
떡볶이사리
아구불고기
아구해물탕
냉면정식
냉면곱빼기
##ccheri
제주사랑
제주근고기
보쌈set
##포도맛
##과일차
15알
15인치
짜장라볶이
커피빈
등심샤브샤브
순두부비빔밥
칠리라차
##해물된장찌개
##해물된장
더블유
더블브루
더블카페라떼
더블포테이토피자
더블캐스크
더블패티
물냉면세트
스페셜에이드
스페셜블렌딩
로제베이컨
##모듬곱창
튀김주먹밥
튀김어묵
튀김어묵우동
청포도요거트
청포도에이슬
청포도케일
미니샐러드
미니버거
미니보쌈
미니공기밥
후라이드순살치킨
민트레몬
반반쪽갈비
부대국밥
육회비빔냉면
클라우스
레드애플티
16Pcs
##라이소
130
13P
13잔
1300
14일
연태골드
캐모마일차
마라맛
우럭무침
누룽지밥
누룽지찜닭
17시까지
기본안주
수육세트
수육보쌈
갈릭피자
갈릭소세지
갈릭감자튀김
갈릭오일
갈릭페뇨
##순두부정식
뚝배기순두부
뚝배기불백
뚝배기만두탕
카레정식
카레볶음밥
카레부대찌개
카레토핑
카레오므라이스
문어와
25년
25˚
애플블랙
보통매운맛
보통130g
메밀김치전
메밀부추전
메밀물막국수
메밀들깨수제비
코코볼
철판야채
철판오징어볶음
철판참치볶음밥
375
트러플버섯
해삼볶음
해삼동파육
쉬림프세트
쉬림프보이시
직화우삼겹
직화마늘족
족발냉채
깐풍기셋트
사시미동
사시미모듬
##chio
묵은지뼈찜
홍차얼그레이
굽네폭립
포테이토베이컨피자
##itz
대구맑은탕
대구새끼
파인비타
##버터크림
리얼버블
리얼페페로니
루이보스오렌지
##강정콤보
크림치즈포테이토
크림치즈크러스트
옛날소불고기
옛날짜장면
옛날돈가츠
옛날찐빵
어묵전골
Glasses
연유크림라떼
##ats
##atin
쌀국수L
숯불불고기
숯불소금
찹쌀핫도그
##카도리
말차크림
말차밀크티
##LES
왕새우짬뽕
감자탕전골
부추비빔밥
단호박고로케
양념치킨반
일품해삼
게살새우
게살계란탕
##라미너
##리아이스티
버터밥
버터치킨
버터쫀득이
2개부터
##고추전
##장어구이
연태고량주34
우삼겹짬뽕
코코넛워터
코코넛카페라떼
##간장불고기
골드피자
##프라페노
아보카도명란
탄산포도맛
우유변경
회덮밥정식
##나라멘
쇠고기안심
송이닭고기
열무소면
열무물냉면
환타포도
##ici
##한마리반
프리미엄티
##순살찜닭
##순살강정
꼬막밥
생강레몬
한방바베큐
항정살구이
내장모듬
내장없음
##우스레제
깐쇼육
바지락찜
전골세트
##ranillo
오징어볶음정식
가지버섯
##후라이즈
숙성등심
숙성생삼겹살
그릴야채
소세지전
브루넬로
##딸기바나나
##스페셜초밥
콩나물김치
스트로베리크림
능이닭곰탕
한치포
한치초밥
한치회무침
훈제칠면조
돼지고기볶음
고추장우삼겹
고추장돼지불백
블랑드
유기농캐모마일
까르보나라돈까스
1마리반
삼겹반상
피치에이드
피치에일
샤브야채
샤브점심특선
디카페인카페
된장칼국수
된장지개
##ise
##iser
냉모밀세트
코카콜라500ml
들깨메밀칼국수
하우스블렌드
2011
보리차
보리냉면
떡갈비치즈오븐스파게티
우거지곰탕
##토마토스튜
달콤갈릭
진저에이드
홍합우동
홍합칼국수
##소고기무침
한우육회물회
유부김치국수
일반김밥
클래식피자
클래식치즈케익
베리즈
토종백숙
210ml
가리비치즈구이
어향전복
어린이설농탕
자연송이쇠고기
라조육정식
##대구지리
##라스프
오늘의사시미
오늘의스프
##차돌구이
모듬회세트
소불고기볶음밥
소불고기쌈밥
하이네캔
생크림스콘
특선모둠
##소세지와
사골만둣국
사골우거지
체리블라썸
##secco
스윗라떼
스윗마마
주문예약
사케도쿠리
시그니처아메리카노
누룽지탕밥
10piece
우렁순두부
우렁쌈밥정식
오레오누텔라젤라또와플
##아이스티레모네이드
스파이시불고기버거
산토리니
Cab
자스민펄
자스민플라워
자스민그린밀크티
##로스팅
생대구지리탕
매생이죽
매실티
매실청
매실절임
명품갈비탕
명품육개장
##CHER
한돈보쌈
명태내장탕
관자버터구이
커리양념
커리부어스트
찹쌀탕수육세트
꽃빵4개
##비아따
파닭강정
##iness
비엔나소시지
와규꽃살
CHAND
##12개
PM9
PM15
핸드메이드
뼈다귀해물찜
오븐닭발
360cc
꼬치오뎅
##PACC
##unk
갑오징어회
갑오징어전골
메로조림
데리와퍼
인절미허니버터브레드
즉석양념
##반반피자
8개월
아사다
아주순한맛
아주아주
LAGER
Sake
청양막걸리
안동산
안동일품
##허니비
##허니레몬
##에그샌드위치
SIZE변경
##블루스
씨푸드피자
##RIP
##RIER
샤브샤브정식
멸치회무침
멸치땡초김밥
작은돈
호두바나나
호두과자
##그린샐러드
##10y
##10Y
##생선살
부산쭈꾸미
##ffin
##ffer
##bert
아귀수육
아귀지리
시래기추가
시래기불고기전골
24도
24겹
24시간
가마타마
생선구이백반
편육반
##izen
곤드레솥밥
소머리영양곰탕
스시정식
28p
메뉴4
황금귤
머쉬룸샐러드
브라운루왁
설원주
섞어국밥
섞어부대찌개
깔라만
마약삼겹살
자바칩스무디
자바칩프라노베
프라이랩
꼬마김말이
대하회
앵그리포테이토
참다랑어등살
김치말이냉국수
##불닭바베큐
##불닭마요구이
더덕명태
##올리오파스타
포크밸리
홍소갈치
##샥스핀스프
##2017
월남쌈샤브
오이오차
혼마구로동
위스키하이볼
위스키샤워
마늘간장반
궁중비빔밥
STRA
바다애
바다해물찜
양갈비스테이크
415ml
제철재료
케냐피베리
윙봉콤보
##ORE
아이리쉬커피
베트남커피
##명태찜
##INGS
두루치기정식
##64g
당근주스
조각피자
성게미역국
콩비지감자탕
규동정식
진짜감자피자
평양비빔냉면
##부터오후2시까지
미소야사이
##TAO
##TAIN
숙주사리
숙주라면
전주남부시장
애플망고스무디
매드포갈릭
차슈삼겹살
차슈매운
##크로크무슈
##크림치즈빵
##크림치즈프레첼
치즈케이크누텔라젤라또와플
표고탕수육
표고완자튀김
깔라만시차
빠네디까사
찌개용
호세꾸엘보
100mlx10팩
다리반
##ILL
##2인이상
버팔로윙과
Amat
시골밥상
유니자장면
선택메뉴
2인세트B
고구마치즈가스
치아바타샌드위치
##숯불갈비
##숯불닭갈비
원두A
##야키소바
그랑리저브
그랑끼오
훈제오리구이
마리글라라
민어구이
카르니타스
참복매운탕
버섯불고기정식
버섯불고기비빔밥
꼼장어구이
한우불고기덮밥
촉촉칸
##쿠라동
가오리살
산펠레
오소리순대국
베리베리젤라또와플
소갈비구이
미나리차돌된장찌개
소프트크림
까망베르치즈케이크
##포장시
15yr
바이츠
통마늘모래집
다이닝
두유피
참숯초벌
부르겐란드
파이뎅
##OCK
##ISER
브런치세트
한우생불고기
##진저티
피망볶음
피망고추
##숙성삼겹살
베르멘티노
배추김치
##INNESS
양푼이동태탕
또띠아칩
베이비치노
엄청난
##믹스처
크림소스의
2시이후
##묵은지김치찌개
##묵은지닭볶음탕
Monkey
황금올리브핫윙
칼국수사리추가
애플시나몬차
해물우동볶음
브로컬리
스트라이프
소한마리얼큰전골
2005
##토종백숙
##윙봉치킨
인디언
곤이사리
##자장볶음
셋트메뉴4
새싹삼
chardonnay
마루900
썸머롤
썸머베리
참치김치비빔밥
파운드케익
참나무훈제
할매추어탕
헤이즐럿아메리카노
레이즌
웨딩피치
주중점심
마왕소금구이
하루시카
Pint
##블루베리라떼
스피리트
쭈삼철판
order
쁘띠첼
특제간장
잉글리쉬블랙퍼스트티
까르파
미스터보쌈
벌집삼겹살
화덕피자
데킬라샷
완자전
해초비빔밥
해초세꼬시
연어머리조림
엣지추가
송화버섯
##디쉬피자
##우롱차
벨지언
##황태해장국
청양고추마요치킨
까치복국
까치복찜
Alexand
육수불고기
민트초코칩요프치노
굴소스청경채볶음
##양고기볶음
가쿠빈하이볼
매운해물짬뽕
매운해물짬뽕탕
크래미샌드위치
오후2시이후
모짜볼
모짜치즈볼
예거마스터
##시오소바
##시오야키
그리뇽
pm15
부드럽
비트버거
##식스팩
한우대창전골
긴죠나마
티라미슈라떼
##소금소스구이
##플랫화이트
자반고등어구이
다니엘스
##더덕구이
Buger
장조림볶음밥
명동보쌈
수란을
대선소주
고기만추가
OB생맥주
580g
루비자몽
풍미보쌈
풍미작렬
하모회
여름한정메뉴
마제멘
밀복수육
오돌밥
##gganmore
Ancho
귀리밥
유황오리로스
오디랑
##시마비진
마늘소스추가
뿌링클핫
네네순살닭강정
붉은원숭이
32도
32pcs
흥부포테이토
감자채볶음
엔제린블랜딩
##초콜렛쿠키
##ushu
미트소스스파게티
한우소머리수육
남도정식
포카차
FRIED
껍질없는
스팸마요덮밥
부라타치즈와
##석쇠구이
버섯크림리조또
##LIO
##복음탕
##eaux
Three
통뼈국물닭발
300ML
Veggie
국순당생막걸리
김치참치주먹밥
칠리치즈프라이
바삭한허니비
가르노
오픈샌드위치
핫칠리베이컨
응급실닭볶음탕
마테레몬그라스
##ugal
레이디그레이
뽕잎보쌈
CARPACC
시오야끼
시오라멘
##QUOT
개성보쌈
마마스샌드위치박스
마마스초콜렛쿠키
ARDB
Love
프로즌아이스티레모네이드
Peppercorn
IND
Ruam
단짠단짠
장새우초밥
콤비까스
꽃새우살
씨앗통밀
에너지드링크
매콤달콤등뼈찜
해삼과전복
궁보닭고기
통살돈까스
##아인슈패너
볶음김치김밥
버섯모듬강정
##아라비아따
Eggplant
딸리아따
중국음료수
낙새찜
삼각살
상황삼계탕
쏨땀타이
에이징
치킨데리야끼볶음밥
숯불킹떡볶이
눈물쏙
산더미불고기
오색양장피
##gogi
데미글라스
통감자된장찌개
Scallop
Limited
양상추쌈
못난이주먹밥
PANCAKE
치하오날개
토니워터
할라불고기
족발보쌈세트
##orning
패션프루트
샤프론
소보로빵
지름15cm
##IGNAN
Finish
대통령
비냐마이포
암게특
플라잉
벌교꼬막무침
쇼치쿠바이텐
은복찜
카모킨슈
새우로제리조또
조리한
파스칼
Joseph
산지별드립커피
닥치고떡볶이
당도2
보더볼
##코우린
##청포도에이드
##MORE
한우우설
4잔분량
소양볶음
##가이바시
팽이삼겹
##프렌치토스트
GUINNESS
쁠라먹
찰보리초계
Agwa
깍둑소고기비빔밥
노아스
누벨준마이긴죠
빠다갈릭치킨
아빠의
##우렁쌈밥
##아귀찜
에스프레소콘파나
Portugal
둥지찜닭
종합세트
주인상
스테키동
Collection
Columb
파스트라미피자
##카야토스트
슈프림골드양념
Cragganmore
Trace
무지개치즈
비라모
소안심탕수육
스푼피자
육쌈냉면
한우소고기국밥
17곡와플
싱글몰트위스키
Belved
깐밴오징어
메르첸
바사칸닭
사츠마시마비진
##장작구이
숯불갈비만두
Corry
PERONI
PERRIER
미션서드
장작구이
통낙지짬뽕
##그란데
바닐라크림콜드브루
##헤이즐넛라떼
반포식스
평일오전11시부터오후2시까지
PEPPERONI
310ml
색다른에이드
아로이
좋아하는
치즈링크러스트
버터스카치라떼
가로수
꼴뚜기볶음
##꼬들살
치즈슈프림양념치킨
매운오뎅김밥
낙지호롱구이
실속형보쌈
노을구름막걸리
미스팅
김치돈까스나베
실장추천참치
자리돔물회
꼬지사께
두레앙
산새우소금구이
셀렉트
조미노가리
Margarita
깔끔한
뿌리꼬
청량리
##스끼야끼
카야치즈토스트
65세
Torres
VIENN
네코준마이
비비고
스이게이
영국황실
콘차이토로
해바랑
해물아구모듬찜
새알만두사리
English
Pesto
말랑쉐이크
원기삼정
허벅지살
1000억
Bulgogi
상아떡볶이
야사이라멘
천하뼈찜
카쿠빈
키노에네
핫파이어치킨
##카베르네소비뇽
##수박주스
##곤드레밥
베이징덕
##나가사키짬뽕
Superior
이이찌고
Winter
다시마끼
마누카
미시온
삼다수
예멘모카
토우코우
양념소갈빗살
크로칸슈
자연송이소고기안심요리
##카르파쵸
Bolognese
Castell
가슴연골
모르따델라
호롱구이
Vanila
멀티그레인
메쉬드
뺑오쇼콜라
슬림앤슬림
아가베
양미리구이
태권국물떡볶이
탱글탱글
페코리노
##오골계
##방울토마토
스테미나라멘
금강산감자탕
5배200g
녹각삼계탕
마장동
애슐리퀸즈
천사의
##루비치노
##도토리묵
##비노토모
##필스너
##붓카케우동
한우명품팩
골드스윗크러스트
리코타링크러스트
LAPHROAIG
POLPO
금전우육
뚜레쥬르
린드만
볼로냐
산양삼
삼백집
자파타
태양초
활광어회덮밥
초코에몽
돼지껍딱
곱창뚝배기전골
글루텐프리
HENDRI
강강양념정식
얼그레이크림
오동통
호메세라
##브릿지
##쇼유소바
와사비크래미샌드위치
심술12도
퓨어더블초코렛
그래스호퍼
ROMANEE
Flor
rucola
갑부준마이
깜장찜닭
도톰만두
메까도로
속시원한
스니키
에끌레어
츠루우메
핫쏘이치킨
핫앤프레쉬
기본주문단위
##르츠트라미너
아메라카노
한우우족초무침
MULE
Nectar
South
VEUVE
담금주
듀얼브루
사보텐
산수유
에드워
우가달
주전부리
커스텀
타마린
탈리아텔레
토하젓
파운더스
푸아그라
황고망고쥬스
##오픈샌드위치
##토피넛라떼
해물뼈다귀찜
순살커리퀸
달콤퐁당꿀떡
스파이시디럭스불고기버거
콜롬비아수프리모
포르투갈
Montalcino
실속모듬set
Cloudy
Horse
Jeju
꿀호두바나나
느억맘
동평원
돼꿀미숫가루
랑데부
몽라쉐
보테가
쉐퍼호퍼
스트리트
스나기모
츠카사보탄
텐손코우린
특자연송이쇠고기죽
평안도
현대옥
치즈버터구이로
##igatoni
들기름두부버섯구이
노랑봉투감자
Tempranillo
CRISTAL
AFFOGATO
7호실
Hakushu
IGT
Tasting
TSINGTAO
YELLOW
구채교
구로기리시마
귀리미숫가루
꿀잼치킨
도치알탕
디진다
람부탄
맥켤란
맵크뽕
바실리코
뽈때기
산타이네스
서브미션
세숫대야
수마트라
쉐차안
아리조나
알래스카
엔살라다
연평도
왕십리
위스콘신
전혀안매운
전신안마
찍고온
천해염갈비
킬호만
테이스팅
프리시전
피렌체
하슬라
할아버지
##임실치즈
##함박스텍
매운무침족발
한우연인팩
불고기레드그릴
스페셜블렌딩티
갈릭소세지에그
쉬림프보이시나
버터쫀득이치아바타
클래식치즈케익3호
CHANDON
미소야사이라멘
Anchovy
CARPACCIO
ARDBEG
Columbia
Belvedere
VIENNA
1되
1er
1시까지
1bo
1테이블
2컷
2Box
3피스
320
3XL
400
4피스
4품냉채
460g
430cc
5병
5ml
5oz
555
63
6번
6000
70ml
760g
8구
95
9마리
9조각
A1
A셋트
Appa
A바다가재
Aqua
A게요리
Ba
Bat
BRA
Bull
Berry
Bella
Bord
CLE
Cre
CINN
Cordon
Cellar
Des
Del
DOP
Dog
DIGN
Dist
DANI
Ele
ELE
Esso
FO
FANT
FOUR
FUNG
GD
Ger
GRI
God
Gamb
Garden
Hum
Hug
JET
JAM
JEAN
KA
KOM
Kaval
Lar
ME
Min
Mis
Mus
Mem
MOS
Nad
O볶음밥
Pre
PRI
PIT
PEC
Pres
Pils
Plum
Party
PHO
PONS
RI
Ris
Rita
Ravioli
Sn
Ser
Sum
Sta
SERRA
TON
UN
VONG
Wed
WOOD
Welch
Yu
any
big
back
crem
count
dinner
gold
ginger
lunch
mal
mis
mas
made
mushroom
no
olio
open
pla
pet
pat
pes
pizza
pcs
pomodoro
prawn
re
real
so
soda
self
가온
가스파
가니쉬
간식
간짬뽕
갈탕
갈배
갈낙찜
감기
감식초
거한상
건과일
걸작
검댕이
게소
경도
경상
고생
광남
굴국
굴죽
굴짬뽕탕
굴버섯죽
굴빈대떡
귀주
금일
금돼지
기소
긴조
김추가
깐양
꼬든
꼬메
꽃방
꾸아이
꿀꺽
꿀레몬
꿀모과차
꿈의
끝판왕
나무
나이스
나두라
나고야
나만의
나카도리
남경
납짝
내일
냉장
냉파스타
넣어
네가지맛
노리
노티드
농도
뉴하
늘봄
다이스
다쿠와
다브루쪼
달서
닭모
닭대파
닭근위
대리
더엔스
덤덤
덴신
돈통
돈등심
돈삼겹
돈편육
돌김
돌미역국
동성
두릅
두가지맛
둥글레
듀랑고
드롭
들라
디바
디그나
따루
딸리
또리
뚝닭
라라
라쯔
라볶기
라들러
랜딩
레코
레몽
레이다
레터스
로카
로지
로모
롤까스
롱다리
롱비치
루반
루지
루로우
르브
르베네
리샐
리알
리모나타
마타
마봉
마니아
마사이
마가린
만옥
맛김치말이
매반
매그
맥도
맥심
맥앤
맥코이
맥반석
맨드
맵고달
머루
멜버
며느리
면포
면보샤
명하
명성
몬자
몽지람
무초
무카페인
무말랭이
물랑
물오뎅
미요
미즈노고토시
민초
밀라노
바나
바닐
반가
반조리
발랑
밤이
배이
배받이
백태
백호
백페이퍼
번트
벌양
베를
벤치
보따
보약
보늬
보타니스트
복춘
복돼지
복짜면
볶아
볼빨간
봄에
봄주꾸미
봉지
봉초밥
부상맛
분10
불삼겹
불케이노
불불이
비바
비나
비원
비터
비풍
비커피
비비큐
빅볼
빅아이
빨개
빨계떡
뽀또
뽀빠이
사망
사람
사실
산우럭매운탕
산고추마요
산라스프
살살
삼정
삼불고기
생합
생감자
생전복
생참치
생돼지갈비
생자몽티
생자몽차
생트러플
생조기
샤를
샷파이어
샷그린티라떼
서동
석촌
선생
선어회
세레
세보
센킨
센다이
셰이크
소한
소츄
소넨
소삼겹
소삼선
소블리
소모듬구이
소천엽
소심관
소홍주
소화가
속이
속박이
솔솔
쇼츄
숏파스타
수연
수교
숙취
순희
순닭다리살
술상
숭아
쉬레드
스톰
스펨
스커트
슬래머
시아
시폰
시옌
시노미
식초
신림
신유림
심쿵
쌀닭
쌈무
쌈세트2
쌈세트1
쌈세트3
쌍둥이
쎄미
쏠티
쓰촨
씨저
아오
아츄
아욱
아키
아낙
아우스레제
안남
알알
알돈
알전골
알베르
알마스
알대구탕
앙념
양은
양연
양촌
양심줄
어무
언필
언어
없이
엘피카
엡솔루트
연한
연새
연광
열매
영화
오오
오채
오성
오누이
옥스
올려
올리베
와노
완스
왕율
왕대구
왕치즈계란말이
외계인
요런
용대리
우돈
우참
우곡
울릉도
원형
월간
위향
유삼슬
이어
이스트
인당
인살라
일뽕
일상
입쌀
있잖
자가
자주
자클린
자뎅블루
잘빠진
잣막걸리
장모
장족
장스치킨
재철
재스민
잭허니
전기
전족
정석
조청
족수육
족300g
좁쌀
주선방
준비
줄기
중배전
중상맛
쥬랴
쥬키니
즐길
즐거운
지도리
직송
진매
진빔
진격
진흙구이
짜우민
짜오면
쪼끼
쫄만두
쭈꾸
쭈낙찜
찍먹
찍어먹는
찐피
찐계란
찐페퍼로니
차곱전골
참전복
창스
창란
챱스테이크
척스
철관음
첫물
청와
청두
청키
청송
청둥
청피망
초리
초보
초컬릿
총각
쵸우면
츄라이
치마
치찌
치노
치맥
카포
카밥
카멜
카망베르
칸티나
캔사이다
커버
컨트리
컨츄리
컬러
켄달
콜리
쿠크
쿰피르
큰솥
클레
클랜베리
클리마
탕볶
탕짬
탕안주
태백
테넌
텐커레이
토마
토스
토담
톳만
통레몬
통북어
통추어전골
툭바
트랑
트래
트와이
특광
특전복
특설농탕
특홍게품은죽
티레몬에이드
파돈까스
파골뱅이
파매콤
파라다이스
팬에
팻보이
퍼탑
페쉐
페피자
포그
퐁커리
풀리아
프래
프레이
피데
피프티
하라
하이드
하야시라이스
한글
한팩
한공기
함초
핫케익
핫버터갈릭
해전
햄가득
햇복분자
호오
호리
호호
혼수상
홀랑
홍주
홍국
홍유
홍짜장
홍밀크
홍피망
화결
확깨
활어묵
활전복죽
활멍게
황해도
회복
후로
후왕
훗카이도
흑진
희양
히라스
##가을
##루시
##루특밥
##사쿠
##케키
##자문
##김차림
##카파
##레타
##레네
##트레이
##라군
##이주
##이벤트
##마름
##rica
##ao
##ya
##반지
##반핫
##반숙
##만이
##오름
##오러우
##탕반
##산느
##리세트
##테기
##크렘
##크렌베리
##브리오
##또레
##타타
##즈시
##황기
##도루묵
##슈프리모
##우탕
##우국
##동그랑땡
##로꼬
##로쿠
##로리아
##프의
##르소
##르가체페
##꾸덕
##꾸냥
##소사
##소로
##소요
##바라
##바닷가재
##쇼새우
##쇼핑백
##태맛
##고시
##고츠
##고둥
##2종
##2pc
##250ml
##수트
##수커피
##채밥
##채볶음
##음주
##몬티
##에리
##에노
##에게
##에담
##에너지
##AU
##스모
##스낵
##볼린
##볼튀김
##제트
##지탕
##화이
##화덕
##불낙
##불맛
##불도장
##설록
##기편
##기찌개
##백탕
##야자
##야라
##야수
##글로리아
##파베
##파니
##파코라
##파다노
##어죽
##특목살
##특스페셜
##선여수
##복지
##회복
##흑미
##위스
##위츠
##찹살
##노카
##새튀김
##새꼬막
##생맥
##생초콜릿
##하스
##하기
##건조
##츄카
##해파리
##골라
##시쿠
##시는
##그랏세
##애노
##냉삼겹살
##모든
##모아
##모두부
##장국밥
##gra
##돈스
##석말이
##OB
##DAY
##Dronach
##닭개장
##쪽갈비찜
##다즐링
##GAV
##NER
##PH
##ire
##iki
##cardi
##니까
##탄짜장
##빠삭
##네추럴
##SS
##SAL
##코로
##코로나
##32
##38
##굴짬뽕밥
##샤또
##ops
##랭면
##drip
##꼬빵
##꼬꼬
##TS
##TEA
##fel
##청어
##Course
##COM
##Hot
##셀렉션
##부장
##부페
##52
##5호
##5인세트
##머스터드
##먹소
##인탁
##요구르
##통큰
##통갑오징어조림
##피요트
##버스
##웨스트
##8마리
##60
##6pcs
##향어
##향차
##허쉬
##키아게
##키조개
##키자쿠라
##후에
##후식
##아카
##아보
##아란
##아메리
##아부라소바
##란보
##란정식
##pot
##pic
##ution
##uria
##Rum
##Rad
##REE
##쏘야
##42
##4마리
##너트
##명하
##디주
##디톡스
##누피
##쿠앤크
##왕갈비찜
##왕새우튀김
##는짬뽕
##칼란
##칼집
##칼만둣국
##감주
##호르몬
##벌떡
##zed
##담닭
##멜트
##7ml
##더치킨
##MIN
##멘타이
##ket
##ked
##kinch
##거레이
##따뜻한
##께끼
##께사디야
##줄게
##줄이떡볶이
##BULL
##BSTER
##blanc
##립스
##립아이
##찬합
##햄볶음밥
##햄샌드위치
##몰츠
##데로
##맨즈
##절주
##팬스테이크
##뚝밥
##WA
##띠야
##띠움
##올레
##올림
##올린
##쎄르
##뚜리
##밴새
##광양불고기
##뒷고기
##쁘루
##쁘라
##앤크림라떼
##델링
##충전
##맵쌈
##액기스
##겨자
##탱고
##챙이
##얹은
##했닭
##고기덮밥
##mlet
치즈바
치즈불고기
치즈과일
치즈빙수
치즈그라탕
치즈등갈비
치즈돈가츠
치즈할라피뇨
치즈계떡
치즈퐁닭
1인메뉴
1인주문가능
카페콘
카페코코
카페코코넛
##이스콘
2인콤보
2인set
2인Set
##갈비피자
##치킨덮밥
김치와
김치알
김치국
김치피자
김치돌솥
김치돌솥비빔밥
김치돈가츠
김치필라프
김치스팸
김치손만두
김치삼겹살볶음
##치즈폼
##치즈라떼
##치즈사리
##치즈곱창
##치즈크러스트
##치즈케잌
##튀김구이
##튀김꼬치
##otch
해물스페셜
해물김치볶음밥
해물찹쌀
해물가득
해물토마토파스타
해물매생이
해물등뼈찜
소주칵테일
새우칩
새우세트
새우정식
새우말이
새우갈릭
새우고로케
새우오일파스타
새우김치만두
새우청경채볶음
아메리카노hot
아메리카노세트메뉴
아메리카노1잔
레몬주스
레몬닭고기
##세트떡볶이
매운모듬
매운소고기
매운비빔국수
매운게살
매운국물떡볶이
매운가츠동
매운홍합
매운오징어볶음
매운꼬리찜
매운완자쌀국수
##메뉴2
##피자M
##arra
치킨에
치킨볼
치킨치즈
치킨프라이드
모듬추가
모듬볶음밥
모듬참치
모듬초회
모듬무한리필
자몽생맥주
##마리오
##마리티
##정식코스
한우로
한우전골
한우로스
한우제비
한우주문시
한우옛날
한우장터국밥
##베리코
아이스치노
아이스망고
크림칠리
크림카레우동
크림도넛
크림스튜
바닐라카푸치노
순살마늘치킨
순살현미베이크
비빔야채
비빔보리국수
볶음짬뽕밥
계란전
계란튀김
계란토스트
수제꼬치
수제샌드위치
수제티라미수
수제딸기라떼
수제손만두
수제로스까스
수제치킨까스
##leman
18p
10알
감자볼
감자크림
감자핫도그
감자폭탄
감자찐만두
##비빔국시
카라멜빈
카라멜프라푸치노
카라멜커피프라페
밀크팥
3인상
초코티라미수
양념강정
양념목살
양념후라이드
양념반반
양념대창
양념맵소킹
##프레지
소고기면
소고기죽
소고기구이
소고기비빔
소고기꼬치
소고기국수전골
소고기타다키
연어를
연어샌드위치
연어포케
블루라떼
12종
125cc
돼지생
돼지고추장찌개
돼지목심
돼지등뼈
오징어볼
오징어쯔유
블랙유
블랙라떼
블랙모카
블랙수트
삼선간
삼선어츠
오리양념
고추맵
고추나쵸
고추똥집튀김
고추소고기김밥
에스파
에스뜨
2인이상가능
갈비짬뽕
갈비당콩볶음
차돌덮밥
차돌곱창
차돌부대찌개
차돌150g
차돌니꾸
차돌규동
##라면사리
낙지떡볶이
낙지육회
낙지돌솥밥
낙지탕탕
에스프레소도피오
망고코코넛
고구마골드피자
제육반
제육도시락
제육직화구이
프라노페
야채말이
밀크티버블티
토마토스파게티
토마토에그
베이퐁
유자맥주
유자프라페
유자생강
유자사와
전복순두부
전복숙회
전복소고기
##egas
블루베리히비스커스
그린콥
깐풍닭똥집
깐풍중하
깐풍큰새우
라면세트
##돈까스멘
##짜장2
녹차팥빙수
녹차프라푸치노
##ette
허니밀크
허니포테이토
허니고구마
허니마늘족발
허니고르곤피자
##inta
##ETA
불고기세트
불고기볶음밥
불고기스파게티
순대고기
순대세트
순대야채곱창
얼그레이레몬티
얼그레이자몽티
얼그레이플라워
된장찌개정식
간장볶음밥
과일요거트스무디
##erer
##프라임
버섯이
버섯된장찌개
버섯샤브칼국수
콜드브루연유라떼
콜드브루아인슈페너
콜드브루수아
매콤찜
매콤불고기
매콤치즈떡볶이
매콤무뼈닭발
매콤갑오징어조림
매콤장아찌
매콤새콤
매콤문어조림
만두국수
만두떡볶이
얼큰추어탕
얼큰수육전골
##anza
##카레볶음밥
화이트까망베르
정식2
정식코스
베이컨버섯
베이컨베스트
고기야채
고기만두국
고기김치찌개
고기파전
고기군만두
두부국수
두부제육
3000ml
계절샐러드
계절야채볶음
계절상품
계절생과일주스
119
11개월
마늘반
마늘닭강정
마늘설농탕
##라우트
##ssa
##ssim
점심할인
##매운짬뽕
##매운양념
##소스볶음
스파이
스파게띠
##보쌈세트
돈까스추가
돈까스짬뽕
돈까스알밥정식
그린티샷라떼
##cchia
제주고
제주그린티
제주가브리살
보쌈속
보쌈무침
보쌈반반
보쌈두부김치
##포도주스
허브T
##낙지죽
15공
15조각
15곡미숫가루
2인분씩
##오리로스
짜장떡
커피홀릭
플레인라씨
등심튀김
등심가츠
순두부육개장
##해물덮밥
더블포테이토
더블페퍼로니
더블모카라떼
##버섯리조또
100g당
스페셜커피
스페셜모둠초밥
바나나빵
바나나킥
##모듬사리
튀김단품
튀김교자
청포도맥주
동태지리
미니소바
미니알밥
##돼지두루치기
반반불족발
반반듀오
부대감자탕
부대육개장
레드애플
레드페퍼
##스테이크세트
##스테이크박스
16ps
헤이즐아메리카노
##사시미코스
새우튀김카레
새우튀김카레우동
250g이상
14ps
연태꾸냥
마라소
마라요리
마라꽃게
우럭포
우럭젓국
##카츠나베정식
누룽지추가
170
헤이즐넛라뗴
쭈꾸미와
쭈꾸미직화
쭈꾸미데침
해산물과
해산물크림
해산물크림파스타
곱창쌀국수
곱창한판
곱창순대볶음
기본스끼
모둠떡
모둠곱창
모둠물회
모둠해물찜
수육해장라면
갈릭쉬림프피자
골뱅이보쌈
오리지널R
오리지널버팔로윙
오리지널흑당버블밀크
##ene
돌솥쌈밥
생선추가
뚝배기육개장
단품해물
문어구이
문어꼬치
255ml
애플에이드
애플민트
메밀차
메밀모주
황태낙지찜
코코티스무디
ONLYICED
홍어라면
부대찌개세트
철판치즈돈까스
철판낙지덮밥
철판소배필
375g
순한맛볶음밥
매화마름
쉬림프갈릭
직화짜장
직화삼겹
직화오돌뼈
직화바싹불고기
족발정식
족발부추무침
고등어초회
사시미와
사시미A
묵은지된장찌개
묵은지등갈비
칼국수면
대구살
파인유자
비프립
비프스튜
##베르데
토닉2
안심X
리얼오렌지
리얼BE
35도
날치알마요
키위파인애플
아이스크림크로플
주먹밥추가
에그토스트
에그프라이
에그불고기버거
에그햄치즈
에그콘피자
명란탕
명란감자
옛날막걸리
옛날짬뽕밥
옛날닭강정
국물닭볶음탕
코다리회무침
코다리해물찜
코다리비빔국수
코다리등갈비찜
##atem
##atico
3개이상
찹쌀팥
왕새우와
왕새우후라이
부추볶음
부추만두
부추탕수육
부추야채전
부추된장비빔밥
양념치킨김밥
##갈릭크림
일품해산물
교촌시그니처
구이삼겹
게살탕
##ERAY
목살필라프
버터계란밥
##EAPPLE
5개입
도미솥밥
##고추짜장
당면떡볶이
장어요리
장어양념구이
장어보양탕
##수제갈비
코코넛펄
코코넛새우
코코넛프라페
코코넛새우튀김
##아이스블렌디드
까르보불닭
히비스커스차
와인정식
고르곤졸라크림
소스로
스팸부대찌개
##연어롤
##제육비빔밥
##제육철판
낙지볶음덮밥
파인애플에이드
파인애플망고
우유크림
쇠고기국밥
송이안심
열무냉
프리미엄R
프리미엄세트
프리미엄소세지
꼬막정식
생강구이
##olf
##olution
내장술국
수제비추가
수제비라면
수제비짬뽕밥
바지락해물
공부탕면
후식메뉴
후식보리냉면
모짜렐라치즈볼
전골만두
전골야채
Cherry
##내장볶음
가지두부
가지탕수
가지만두튀김
숙성항정살
그릴소시지
소세지추가
##딸기스무디
##딸기밀크티
##스페셜직화구이
콩나물해장라면
콩나물굴국밥
스트로베리에이드
멍게회
예약제
예약시
돼지갈비정식
돼지갈비김치찜
능이한방백숙
코스2
##포테이토버거
훈제막창
##어묵나베
고추장양념
싱글팩
싱글플래터
싱글원두
싱글배럴
조개미역국
삼겹볶음
삼겹사리
삼겹보쌈
삼겹매콤
피치아이스티
피치블로썸
저녁특선
##ili
##파이브
토스트세트
##amen
된장가지볶음
바베큐볶음밥
바베큐폭립
오늘도
들깨버섯
하우스브랜드
##바베큐치킨피자
##토마토리조또
왕만두세트
진저레몬차
케이준브리또
COS
##고구마치즈돈까스
스프추가
알밥자루소바
티라미수와플
유부꼬치
바질오일
바질치즈샌드위치
스파클링와인
OnlyIced
클래식버거
클래식밀크티
##eling
베리에이드
베리큐브
베리마테
주말에
마르텔
어향육
어향유슬
##조개짬뽕
자연송이밥
만두국용
##ATTA
##ATAKE
소불고기볶음
국내산등심탕수육
프로토스
##OND
생크림케익
매운탕추가
돈가스컵밥
사골김치찌개
사골부대찌개
##생크림오믈렛
##브리야니
도토리쟁반국수
오미자주
스윗갈릭치킨
하와이아나
사케잔술
시그니처카츠
시그니처카페라떼
햄치즈잉글
##안심돈까스
가라아게카레
##뚝배기매운갈비찜
야끼규동
노가리구이
노가리땅콩
땅콩막걸리
우렁청국장
##텐더치킨
오레오크림
오레오누텔라와플
아몬드모카
시나몬식빵
시나몬카페모카
해물순두부탕
##레쉬림프
생연어회덮밥
영양갈비찜
영양만점
오곡후라이드치킨
오일소스
하프팩
생대구머리
옥수수튀김
옥수수피자
매생이갈비탕
##우유생크림케이크
Spice
도시락정식
포도봉봉
명품갈비찜
명품설렁탕
한돈김치찌개
한돈항정살
쥐포땅콩
에비마요
관자살
##칠리치킨
토핑츄리
핫치킨쉬림프
핫치킨쉬림프피자
이베리코꽃목살
CHL
대창쭈꾸미
##12개입
화요25세트
PM4
##ckan
오븐똥집
오븐폭립
소금구이치킨
##und
갑오징어철판
할라피뇨돈까스
할라피뇨버거
데리마요
슈퍼말차
인절미크림라떼
수제청스무디
##반반족발
우니와
우니파스타
모듬튀김세트
머리튀김
머리수육
LA생갈비
Sau
##스프링롤
##보리소바
닭다리후라이드
땡초장육
땡초부추전
체다크러스트
빨간양념
안동한우
##lanese
프레스코
프레페레
##RIC
활어우럭탕
카츠야마
##한우덕
멸치회
멸치볶음
향라개구리다리
##리또스
작은병
작은팩
호두바나나주스
##그린애플
##10도
##10종
스위트콘
아귀살
멕시칸샐러드
시래기감자탕
시래기갑오징어조림
##urg
##urra
전통갈비탕
전통순대국밥
24개
##lentine
곤드레떡갈비
후레쉬식빵
돈카츠정식
돈카츠명란
##ecia
통새우카레
나쵸와
함흥식
큐브치즈
셋트1
##roir
섞어만두
마약주먹밥
마약닭도리탕
월남라떼
참다랑어속살
곡물밀크티
##생강티
발렌타인12년
메이커
메이탄짜장
Wheat
포크립
포크카레
디너1부
##20조각
##2021
건두부고추볶음
타이밀크티
양파링
혼마구로플러스
와사비참치김밥
호박채전
골든버블
몬테카
모밀사리
크랜베리스콘
해물짬뽕우동
모짜렐라치즈어묵
메기불고기
윙봉스
조림닭발
##ORG
100mL
오삼불고기정식
GlenDronach
Glenkinch
베트남면
쿠앤크스무디
##명태회
솥밥한상
데리야끼막창
시원한맛
닭한마리반
TEATRA
조각과일
Style
##라시카
신선불고기
신선별미
초콜렛칩
초콜렛라떼
##ALLOP
조니워커하이볼
미소구이
미소야끼
접시고기
죽엽주
방어사시미
##해장전골
전주식
코로나리따
##미니핫도그
빠네퐁듀
한우등심불고기
브리냑
콜롬비아슈프리모
차돌된장밥
하얼빈식
돌솥밥추가
깻잎김밥
부리또볼
다리튀김
다리윙봉
##irin
Amar
##육수샤브샤브
##돌솥밥정식
2인세트A
고구마치즈돈카츠
LA갈비정식
병어찜
병어돔
##AMA
특양지
후르츠황도
잭다니엘허니
골뱅이소면무침
체다치즈돈까스
체다치즈핫도그
훈제오리정식
훈제오리샐러드
##iaz
##항정살덮밥
마늘보쌈정식
마늘보쌈도시락
대만산
드라이피
